<unk>	0
<s>	0
</s>	0
<pad>	0
<0x00>	0
<0x01>	0
<0x02>	0
<0x03>	0
<0x04>	0
<0x05>	0
<0x06>	0
<0x07>	0
<0x08>	0
<0x09>	0
<0x0A>	0
<0x0B>	0
<0x0C>	0
<0x0D>	0
<0x0E>	0
<0x0F>	0
<0x10>	0
<0x11>	0
<0x12>	0
<0x13>	0
<0x14>	0
<0x15>	0
<0x16>	0
<0x17>	0
<0x18>	0
<0x19>	0
<0x1A>	0
<0x1B>	0
<0x1C>	0
<0x1D>	0
<0x1E>	0
<0x1F>	0
<0x20>	0
<0x21>	0
<0x22>	0
<0x23>	0
<0x24>	0
<0x25>	0
<0x26>	0
<0x27>	0
<0x28>	0
<0x29>	0
<0x2A>	0
<0x2B>	0
<0x2C>	0
<0x2D>	0
<0x2E>	0
<0x2F>	0
<0x30>	0
<0x31>	0
<0x32>	0
<0x33>	0
<0x34>	0
<0x35>	0
<0x36>	0
<0x37>	0
<0x38>	0
<0x39>	0
<0x3A>	0
<0x3B>	0
<0x3C>	0
<0x3D>	0
<0x3E>	0
<0x3F>	0
<0x40>	0
<0x41>	0
<0x42>	0
<0x43>	0
<0x44>	0
<0x45>	0
<0x46>	0
<0x47>	0
<0x48>	0
<0x49>	0
<0x4A>	0
<0x4B>	0
<0x4C>	0
<0x4D>	0
<0x4E>	0
<0x4F>	0
<0x50>	0
<0x51>	0
<0x52>	0
<0x53>	0
<0x54>	0
<0x55>	0
<0x56>	0
<0x57>	0
<0x58>	0
<0x59>	0
<0x5A>	0
<0x5B>	0
<0x5C>	0
<0x5D>	0
<0x5E>	0
<0x5F>	0
<0x60>	0
<0x61>	0
<0x62>	0
<0x63>	0
<0x64>	0
<0x65>	0
<0x66>	0
<0x67>	0
<0x68>	0
<0x69>	0
<0x6A>	0
<0x6B>	0
<0x6C>	0
<0x6D>	0
<0x6E>	0
<0x6F>	0
<0x70>	0
<0x71>	0
<0x72>	0
<0x73>	0
<0x74>	0
<0x75>	0
<0x76>	0
<0x77>	0
<0x78>	0
<0x79>	0
<0x7A>	0
<0x7B>	0
<0x7C>	0
<0x7D>	0
<0x7E>	0
<0x7F>	0
<0x80>	0
<0x81>	0
<0x82>	0
<0x83>	0
<0x84>	0
<0x85>	0
<0x86>	0
<0x87>	0
<0x88>	0
<0x89>	0
<0x8A>	0
<0x8B>	0
<0x8C>	0
<0x8D>	0
<0x8E>	0
<0x8F>	0
<0x90>	0
<0x91>	0
<0x92>	0
<0x93>	0
<0x94>	0
<0x95>	0
<0x96>	0
<0x97>	0
<0x98>	0
<0x99>	0
<0x9A>	0
<0x9B>	0
<0x9C>	0
<0x9D>	0
<0x9E>	0
<0x9F>	0
<0xA0>	0
<0xA1>	0
<0xA2>	0
<0xA3>	0
<0xA4>	0
<0xA5>	0
<0xA6>	0
<0xA7>	0
<0xA8>	0
<0xA9>	0
<0xAA>	0
<0xAB>	0
<0xAC>	0
<0xAD>	0
<0xAE>	0
<0xAF>	0
<0xB0>	0
<0xB1>	0
<0xB2>	0
<0xB3>	0
<0xB4>	0
<0xB5>	0
<0xB6>	0
<0xB7>	0
<0xB8>	0
<0xB9>	0
<0xBA>	0
<0xBB>	0
<0xBC>	0
<0xBD>	0
<0xBE>	0
<0xBF>	0
<0xC0>	0
<0xC1>	0
<0xC2>	0
<0xC3>	0
<0xC4>	0
<0xC5>	0
<0xC6>	0
<0xC7>	0
<0xC8>	0
<0xC9>	0
<0xCA>	0
<0xCB>	0
<0xCC>	0
<0xCD>	0
<0xCE>	0
<0xCF>	0
<0xD0>	0
<0xD1>	0
<0xD2>	0
<0xD3>	0
<0xD4>	0
<0xD5>	0
<0xD6>	0
<0xD7>	0
<0xD8>	0
<0xD9>	0
<0xDA>	0
<0xDB>	0
<0xDC>	0
<0xDD>	0
<0xDE>	0
<0xDF>	0
<0xE0>	0
<0xE1>	0
<0xE2>	0
<0xE3>	0
<0xE4>	0
<0xE5>	0
<0xE6>	0
<0xE7>	0
<0xE8>	0
<0xE9>	0
<0xEA>	0
<0xEB>	0
<0xEC>	0
<0xED>	0
<0xEE>	0
<0xEF>	0
<0xF0>	0
<0xF1>	0
<0xF2>	0
<0xF3>	0
<0xF4>	0
<0xF5>	0
<0xF6>	0
<0xF7>	0
<0xF8>	0
<0xF9>	0
<0xFA>	0
<0xFB>	0
<0xFC>	0
<0xFD>	0
<0xFE>	0
<0xFF>	0
▁t	-0
▁a	-1
he	-2
in	-3
er	-4
on	-5
▁the	-6
re	-7
or	-8
▁s	-9
an	-10
en	-11
at	-12
▁w	-13
▁o	-14
is	-15
es	-16
ed	-17
it	-18
al	-19
▁c	-20
▁f	-21
ar	-22
nd	-23
▁p	-24
▁of	-25
▁in	-26
▁b	-27
ing	-28
ou	-29
▁and	-30
ic	-31
as	-32
▁m	-33
▁to	-34
ion	-35
le	-36
▁d	-37
om	-38
▁S	-39
▁T	-40
▁C	-41
▁A	-42
▁h	-43
il	-44
ent	-45
st	-46
ro	-47
▁1	-48
▁M	-49
▁I	-50
el	-51
▁re	-52
▁l	-53
am	-54
ol	-55
ct	-56
▁th	-57
et	-58
▁P	-59
iv	-60
▁2	-61
▁B	-62
▁n	-63
ur	-64
▁e	-65
ers	-66
ad	-67
ch	-68
▁R	-69
▁for	-70
▁g	-71
ot	-72
▁on	-73
▁H	-74
ation	-75
ay	-76
ig	-77
ce	-78
▁is	-79
id	-80
ir	-81
ly	-82
ut	-83
us	-84
im	-85
▁D	-86
▁F	-87
▁(	-88
▁L	-89
▁The	-90
▁was	-91
▁y	-92
ow	-93
▁W	-94
▁be	-95
▁20	-96
ith	-97
ter	-98
▁as	-99
▁st	-100
ra	-101
em	-102
▁19	-103
▁E	-104
ist	-105
▁N	-106
▁he	-107
▁G	-108
th	-109
▁with	-110
un	-111
ul	-112
▁you	-113
▁al	-114
▁at	-115
ag	-116
ver	-117
and	-118
rom	-119
▁J	-120
▁that	-121
▁O	-122
▁an	-123
op	-124
os	-125
um	-126
ac	-127
est	-128
▁wh	-129
if	-130
ve	-131
▁pro	-132
▁by	-133
her	-134
▁con	-135
▁it	-136
ill	-137
▁from	-138
▁com	-139
▁de	-140
ate	-141
ri	-142
oc	-143
ity	-144
ab	-145
ak	-146
all	-147
art	-148
od	-149
ort	-150
res	-151
▁v	-152
ess	-153
▁In	-154
▁se	-155
ain	-156
ian	-157
▁U	-158
pp	-159
ber	-160
▁K	-161
▁201	-162
▁are	-163
igh	-164
ew	-165
▁pl	-166
ore	-167
ies	-168
ard	-169
ld	-170
▁or	-171
qu	-172
ud	-173
▁Re	-174
our	-175
ant	-176
se	-177
▁r	-178
ia	-179
ment	-180
ive	-181
▁ex	-182
pe	-183
fer	-184
ust	-185
▁ch	-186
▁St	-187
ub	-188
og	-189
ip	-190
end	-191
▁Ch	-192
ear	-193
ge	-194
ial	-195
ary	-196
▁ha	-197
ell	-198
ich	-199
nt	-200
up	-201
ast	-202
▁"	-203
enc	-204
ure	-205
ight	-206
ine	-207
ated	-208
▁sh	-209
ks	-210
rou	-211
ong	-212
ions	-213
mer	-214
ap	-215
▁V	-216
▁le	-217
▁his	-218
ov	-219
ost	-220
ish	-221
are	-222
▁comp	-223
ue	-224
▁wor	-225
ire	-226
▁|	-227
▁He	-228
▁we	-229
gh	-230
▁k	-231
20	-232
so	-233
ok	-234
out	-235
ect	-236
▁have	-237
ical	-238
▁not	-239
▁us	-240
▁Y	-241
ie	-242
▁your	-243
uc	-244
ame	-245
ice	-246
ome	-247
pt	-248
▁Un	-249
▁this	-250
ide	-251
ran	-252
ff	-253
ign	-254
▁can	-255
age	-256
▁play	-257
▁has	-258
▁Th	-259
ry	-260
▁It	-261
▁also	-262
▁j	-263
av	-264
▁te	-265
tern	-266
00	-267
ople	-268
▁whe	-269
ences	-270
erv	-271
cl	-272
▁ab	-273
▁which	-274
ere	-275
iz	-276
▁ad	-277
ther	-278
ack	-279
▁cl	-280
▁un	-281
ous	-282
ult	-283
ass	-284
ord	-285
ould	-286
rit	-287
per	-288
▁all	-289
ik	-290
▁ar	-291
eople	-292
ations	-293
▁3	-294
ater	-295
▁will	-296
ime	-297
ction	-298
und	-299
ence	-300
ach	-301
irst	-302
▁their	-303
▁go	-304
▁su	-305
ib	-306
▁cont	-307
▁her	-308
ric	-309
▁ne	-310
ferences	-311
ond	-312
▁Al	-313
▁were	-314
▁Se	-315
▁De	-316
orm	-317
ount	-318
ational	-319
▁res	-320
te	-321
orn	-322
ang	-323
ake	-324
▁part	-325
▁References	-326
ru	-327
▁but	-328
hed	-329
amp	-330
▁ac	-331
▁who	-332
ition	-333
),	-334
ound	-335
port	-336
ree	-337
one	-338
ind	-339
able	-340
▁18	-341
ace	-342
any	-343
▁app	-344
▁one	-345
ents	-346
ivers	-347
19	-348
ember	-349
own	-350
ory	-351
▁up	-352
▁first	-353
pl	-354
▁en	-355
▁out	-356
▁work	-357
ph	-358
▁int	-359
fter	-360
ite	-361
▁year	-362
ally	-363
▁had	-364
ng	-365
▁im	-366
▁people	-367
ile	-368
ors	-369
ild	-370
▁–	-371
ail	-372
act	-373
ican	-374
▁sc	-375
▁she	-376
ball	-377
ance	-378
iss	-379
ward	-380
▁per	-381
ilm	-382
oin	-383
▁do	-384
oot	-385
▁2019	-386
▁they	-387
ase	-388
▁Mar	-389
aw	-390
▁Ar	-391
ath	-392
ics	-393
ings	-394
wo	-395
▁As	-396
▁ev	-397
ook	-398
▁me	-399
ts	-400
ade	-401
▁its	-402
ates	-403
▁des	-404
form	-405
oll	-406
ens	-407
▁Com	-408
▁rec	-409
vel	-410
oy	-411
▁sp	-412
▁serv	-413
▁more	-414
ool	-415
▁ag	-416
▁200	-417
▁so	-418
ubl	-419
▁ro	-420
▁Amer	-421
▁dis	-422
clud	-423
ress	-424
▁On	-425
hip	-426
land	-427
▁Le	-428
ely	-429
▁been	-430
ob	-431
▁other	-432
▁qu	-433
▁199	-434
).	-435
▁bec	-436
▁pol	-437
ons	-438
old	-439
lect	-440
▁time	-441
▁pre	-442
ited	-443
ose	-444
▁new	-445
very	-446
▁about	-447
ark	-448
▁Ex	-449
iversity	-450
les	-451
cess	-452
▁includ	-453
▁off	-454
man	-455
ick	-456
als	-457
▁over	-458
▁comm	-459
ied	-460
we	-461
▁our	-462
du	-463
▁She	-464
ug	-465
▁We	-466
▁kn	-467
wn	-468
▁This	-469
ep	-470
▁4	-471
ey	-472
ased	-473
iving	-474
uring	-475
▁two	-476
▁American	-477
reat	-478
▁University	-479
olog	-480
io	-481
▁film	-482
ren	-483
ife	-484
ays	-485
▁act	-486
▁spe	-487
▁co	-488
ft	-489
▁5	-490
ists	-491
cent	-492
▁New	-493
ram	-494
ason	-495
▁und	-496
▁into	-497
mp	-498
ted	-499
▁when	-500
▁-	-501
▁tra	-502
chool	-503
gan	-504
urn	-505
ury	-506
▁bir	-507
▁after	-508
ike	-509
ootball	-510
▁my	-511
ough	-512
▁198	-513
anc	-514
omen	-515
ans	-516
▁lin	-517
▁players	-518
rough	-519
ale	-520
▁ass	-521
▁them	-522
ision	-523
▁would	-524
outh	-525
ont	-526
vi	-527
ood	-528
▁Pro	-529
round	-530
ll	-531
▁birth	-532
▁Sh	-533
hes	-534
▁col	-535
▁loc	-536
red	-537
use	-538
▁reg	-539
▁202	-540
▁team	-541
ah	-542
▁2020	-543
▁pr	-544
▁fe	-545
▁bu	-546
▁under	-547
▁some	-548
ck	-549
▁att	-550
▁ra	-551
▁there	-552
ork	-553
▁stud	-554
▁sec	-555
rib	-556
▁where	-557
▁fl	-558
▁fin	-559
▁prov	-560
ames	-561
▁ind	-562
rans	-563
ily	-564
oun	-565
▁bet	-566
▁any	-567
ual	-568
air	-569
ident	-570
ier	-571
▁Cl	-572
oci	-573
▁6	-574
ann	-575
ener	-576
ished	-577
▁Col	-578
▁Te	-579
ata	-580
▁196	-581
▁Ind	-582
ating	-583
oh	-584
▁am	-585
hen	-586
irect	-587
▁cons	-588
▁197	-589
ank	-590
ities	-591
▁get	-592
ix	-593
erson	-594
▁Par	-595
▁An	-596
ting	-597
au	-598
▁years	-599
ock	-600
▁Z	-601
ative	-602
az	-603
pr	-604
iver	-605
roup	-606
inn	-607
▁inter	-608
rad	-609
▁Sc	-610
▁art	-611
att	-612
ternal	-613
▁194	-614
▁(19	-615
emb	-616
ince	-617
▁ph	-618
▁through	-619
resent	-620
fore	-621
ral	-622
▁man	-623
ash	-624
▁publ	-625
▁most	-626
▁than	-627
ject	-628
▁football	-629
ollow	-630
▁only	-631
ict	-632
▁supp	-633
▁Pl	-634
▁“	-635
▁Wh	-636
▁add	-637
ourn	-638
erm	-639
▁need	-640
▁sa	-641
▁ed	-642
▁||	-643
ove	-644
raph	-645
ific	-646
▁then	-647
▁med	-648
ular	-649
▁ser	-650
ton	-651
▁bl	-652
cial	-653
▁well	-654
▁links	-655
arn	-656
▁inv	-657
▁Eng	-658
▁Wor	-659
▁hel	-660
ise	-661
der	-662
ional	-663
18	-664
▁ent	-665
▁how	-666
▁7	-667
ement	-668
▁sub	-669
▁again	-670
▁United	-671
oth	-672
vern	-673
aj	-674
▁season	-675
iel	-676
▁rel	-677
▁External	-678
▁8	-679
duc	-680
ful	-681
▁if	-682
velop	-683
▁like	-684
▁For	-685
▁sy	-686
ures	-687
ina	-688
orth	-689
oss	-690
▁Q	-691
▁care	-692
ament	-693
▁help	-694
▁life	-695
▁You	-696
com	-697
xt	-698
▁fam	-699
▁rem	-700
▁ret	-701
▁writ	-702
▁form	-703
▁made	-704
▁may	-705
eth	-706
▁set	-707
mber	-708
▁Comm	-709
▁em	-710
iness	-711
ower	-712
▁births	-713
ros	-714
ments	-715
its	-716
ins	-717
ert	-718
cember	-719
ouse	-720
▁follow	-721
▁what	-722
fess	-723
ween	-724
ari	-725
▁trans	-726
row	-727
ices	-728
▁during	-729
ars	-730
▁.	-731
▁195	-732
ober	-733
▁back	-734
way	-735
▁found	-736
▁direct	-737
ract	-738
▁just	-739
usic	-740
lish	-741
ounc	-742
▁bus	-743
▁end	-744
ek	-745
ines	-746
▁&	-747
▁him	-748
enn	-749
▁def	-750
▁start	-751
▁December	-752
▁Jan	-753
▁use	-754
▁br	-755
▁World	-756
▁data	-757
▁est	-758
▁no	-759
▁women	-760
ys	-761
1,	-762
▁10	-763
ten	-764
▁these	-765
eb	-766
ived	-767
▁(20	-768
▁own	-769
uss	-770
▁rece	-771
duct	-772
ience	-773
▁show	-774
▁9	-775
els	-776
▁Ac	-777
▁three	-778
▁before	-779
ograph	-780
▁imp	-781
▁between	-782
ai	-783
ty	-784
▁make	-785
▁Be	-786
arg	-787
▁design	-788
ology	-789
ampions	-790
▁cent	-791
ather	-792
▁bo	-793
▁dec	-794
▁dif	-795
▁being	-796
▁At	-797
▁many	-798
wards	-799
▁inst	-800
▁high	-801
="	-802
▁such	-803
2,	-804
elf	-805
ient	-806
pect	-807
▁rele	-808
ague	-809
▁second	-810
▁men	-811
▁rep	-812
▁National	-813
other	-814
▁lead	-815
ink	-816
▁Jun	-817
co	-818
stem	-819
lection	-820
aking	-821
ause	-822
ces	-823
▁Is	-824
ern	-825
▁num	-826
▁Ad	-827
▁min	-828
chn	-829
▁Ph	-830
ull	-831
▁polit	-832
▁Can	-833
▁May	-834
▁Nov	-835
born	-836
▁exper	-837
pen	-838
ives	-839
▁prog	-840
ternational	-841
▁2018	-842
century	-843
uary	-844
▁school	-845
▁sing	-846
▁mov	-847
▁develop	-848
▁inc	-849
ible	-850
▁compet	-851
li	-852
▁Con	-853
▁Sp	-854
arly	-855
▁cre	-856
ility	-857
arm	-858
let	-859
▁call	-860
bs	-861
▁sm	-862
▁cur	-863
▁sur	-864
uch	-865
ange	-866
▁Aust	-867
ield	-868
▁17	-869
▁water	-870
▁Joh	-871
▁every	-872
urch	-873
ets	-874
istory	-875
▁mon	-876
lymp	-877
inal	-878
ummer	-879
▁And	-880
▁gu	-881
ene	-882
▁dist	-883
▁while	-884
ax	-885
▁Fran	-886
ature	-887
ants	-888
uro	-889
▁193	-890
▁acc	-891
embers	-892
ven	-893
▁death	-894
lege	-895
▁Olymp	-896
▁business	-897
ior	-898
▁South	-899
▁ins	-900
arch	-901
day	-902
▁long	-903
▁used	-904
▁Ju	-905
▁group	-906
▁If	-907
▁including	-908
▁know	-909
3,	-910
▁Bl	-911
ever	-912
ec	-913
ues	-914
▁15	-915
▁gener	-916
▁mod	-917
▁Living	-918
atch	-919
▁support	-920
ism	-921
alth	-922
ality	-923
▁car	-924
ute	-925
ians	-926
▁State	-927
▁count	-928
▁All	-929
▁series	-930
ister	-931
ley	-932
▁best	-933
▁list	-934
▁January	-935
▁March	-936
▁person	-937
ural	-938
▁exp	-939
▁ann	-940
ired	-941
ized	-942
▁Reg	-943
val	-944
▁States	-945
..	-946
▁home	-947
▁child	-948
led	-949
▁place	-950
▁Res	-951
▁aut	-952
▁elect	-953
▁very	-954
▁family	-955
▁Br	-956
ross	-957
ampionship	-958
▁sign	-959
aly	-960
▁organ	-961
ety	-962
▁After	-963
ave	-964
view	-965
▁tr	-966
▁profess	-967
part	-968
eng	-969
aint	-970
▁build	-971
▁Car	-972
▁won	-973
▁day	-974
ution	-975
▁Pol	-976
▁against	-977
▁four	-978
▁later	-979
▁right	-980
▁adv	-981
▁November	-982
▁eff	-983
▁16	-984
▁Me	-985
▁Ass	-986
ket	-987
▁John	-988
▁both	-989
▁could	-990
▁became	-991
▁way	-992
▁unt	-993
."	-994
0.	-995
▁record	-996
get	-997
▁ext	-998
rent	-999
my	-1000
▁program	-1001
imes	-1002
▁now	-1003
▁Or	-1004
▁Aug	-1005
ports	-1006
ery	-1007
▁known	-1008
rict	-1009
rist	-1010
▁How	-1011
▁same	-1012
ble	-1013
▁Brit	-1014
▁company	-1015
▁Oct	-1016
ee	-1017
lev	-1018
ptember	-1019
▁each	-1020
formation	-1021
ages	-1022
▁bel	-1023
ital	-1024
▁post	-1025
▁song	-1026
▁look	-1027
stit	-1028
".	-1029
▁partic	-1030
▁even	-1031
▁want	-1032
▁since	-1033
cept	-1034
▁bro	-1035
▁Go	-1036
▁dr	-1037
4,	-1038
5,	-1039
▁Med	-1040
ually	-1041
ott	-1042
▁until	-1043
▁August	-1044
▁September	-1045
2.	-1046
▁music	-1047
▁perform	-1048
ret	-1049
▁comple	-1050
▁Ge	-1051
▁system	-1052
fl	-1053
ider	-1054
▁good	-1055
line	-1056
▁world	-1057
▁Part	-1058
▁They	-1059
▁said	-1060
ission	-1061
▁poin	-1062
▁films	-1063
▁October	-1064
itt	-1065
1.	-1066
▁run	-1067
▁Cent	-1068
ze	-1069
adem	-1070
▁should	-1071
ruct	-1072
alk	-1073
▁career	-1074
▁differ	-1075
▁did	-1076
▁cour	-1077
vernment	-1078
▁result	-1079
▁July	-1080
▁Euro	-1081
▁estab	-1082
▁commun	-1083
▁find	-1084
▁Comp	-1085
▁open	-1086
▁School	-1087
▁member	-1088
son	-1089
amed	-1090
▁June	-1091
▁requ	-1092
ling	-1093
▁event	-1094
▁Pr	-1095
pril	-1096
▁public	-1097
▁number	-1098
▁spec	-1099
ved	-1100
▁sim	-1101
▁take	-1102
sh	-1103
con	-1104
▁cap	-1105
▁det	-1106
▁top	-1107
▁Canad	-1108
▁down	-1109
que	-1110
ator	-1111
7,	-1112
ium	-1113
▁192	-1114
▁Sw	-1115
0,	-1116
ised	-1117
▁class	-1118
▁che	-1119
▁April	-1120
▁mar	-1121
resident	-1122
▁sk	-1123
▁oper	-1124
▁vis	-1125
▁join	-1126
itions	-1127
▁War	-1128
▁great	-1129
▁because	-1130
▁Count	-1131
▁Summer	-1132
▁read	-1133
▁Co	-1134
▁av	-1135
▁around	-1136
ious	-1137
▁21	-1138
▁offic	-1139
▁see	-1140
▁League	-1141
▁English	-1142
▁Feb	-1143
▁char	-1144
▁There	-1145
▁held	-1146
akes	-1147
▁pos	-1148
ried	-1149
▁$	-1150
bum	-1151
▁head	-1152
reen	-1153
▁mark	-1154
ruary	-1155
▁prom	-1156
rop	-1157
ands	-1158
ared	-1159
▁Man	-1160
ography	-1161
oo	-1162
gy	-1163
000	-1164
▁bas	-1165
▁members	-1166
▁provid	-1167
▁Am	-1168
ats	-1169
▁service	-1170
▁product	-1171
▁Af	-1172
▁North	-1173
ocial	-1174
▁much	-1175
▁February	-1176
▁Austral	-1177
▁Championship	-1178
ung	-1179
ving	-1180
▁last	-1181
▁following	-1182
3.	-1183
riend	-1184
▁game	-1185
▁str	-1186
▁See	-1187
ically	-1188
▁name	-1189
6,	-1190
ica	-1191
▁gr	-1192
▁sever	-1193
▁educ	-1194
▁Europe	-1195
oad	-1196
▁contin	-1197
▁British	-1198
▁served	-1199
apan	-1200
ne	-1201
▁Fl	-1202
▁project	-1203
ained	-1204
ining	-1205
▁12	-1206
▁book	-1207
▁pop	-1208
▁information	-1209
uk	-1210
▁area	-1211
▁Gu	-1212
yle	-1213
ino	-1214
ipp	-1215
alif	-1216
▁York	-1217
ended	-1218
▁vi	-1219
▁don	-1220
▁People	-1221
▁orig	-1222
ron	-1223
▁Her	-1224
▁Sy	-1225
ple	-1226
▁state	-1227
▁Christ	-1228
▁different	-1229
vent	-1230
ters	-1231
ajor	-1232
▁suc	-1233
▁born	-1234
▁based	-1235
sort	-1236
iment	-1237
▁City	-1238
4.	-1239
ese	-1240
▁those	-1241
umn	-1242
▁College	-1243
▁return	-1244
▁del	-1245
▁rese	-1246
▁main	-1247
ows	-1248
min	-1249
▁sl	-1250
ize	-1251
▁Min	-1252
por	-1253
▁played	-1254
▁law	-1255
ches	-1256
▁eng	-1257
rench	-1258
value	-1259
ness	-1260
▁fac	-1261
▁vari	-1262
aster	-1263
ociation	-1264
▁Japan	-1265
ains	-1266
▁la	-1267
by	-1268
▁desc	-1269
▁along	-1270
rem	-1271
iam	-1272
ird	-1273
ony	-1274
▁deb	-1275
▁album	-1276
ner	-1277
read	-1278
▁met	-1279
▁manag	-1280
▁techn	-1281
augh	-1282
med	-1283
▁X	-1284
▁small	-1285
▁local	-1286
5.	-1287
▁Ger	-1288
▁due	-1289
ustom	-1290
7.	-1291
osed	-1292
▁process	-1293
▁released	-1294
",	-1295
oman	-1296
▁disc	-1297
▁Rep	-1298
▁does	-1299
istor	-1300
leg	-1301
ilit	-1302
levision	-1303
▁Not	-1304
eep	-1305
uck	-1306
▁pass	-1307
▁ob	-1308
angu	-1309
▁So	-1310
▁rest	-1311
sp	-1312
aff	-1313
▁ty	-1314
ards	-1315
▁River	-1316
▁order	-1317
ana	-1318
atic	-1319
▁received	-1320
▁activ	-1321
▁several	-1322
▁Art	-1323
af	-1324
ored	-1325
▁French	-1326
▁His	-1327
cc	-1328
-1	-1329
▁month	-1330
▁sol	-1331
▁miss	-1332
▁resp	-1333
▁current	-1334
▁County	-1335
▁leg	-1336
ival	-1337
▁som	-1338
bo	-1339
▁When	-1340
▁Ed	-1341
ency	-1342
▁Russ	-1343
▁Afric	-1344
▁gl	-1345
ody	-1346
ration	-1347
▁eas	-1348
▁par	-1349
to	-1350
hor	-1351
aut	-1352
▁produc	-1353
rol	-1354
▁offer	-1355
ilt	-1356
gg	-1357
▁stre	-1358
ournament	-1359
▁But	-1360
▁Gr	-1361
▁import	-1362
ined	-1363
▁14	-1364
iven	-1365
oor	-1366
▁13	-1367
▁dra	-1368
yl	-1369
▁polo	-1370
▁took	-1371
▁|-	-1372
ode	-1373
▁val	-1374
ivision	-1375
▁children	-1376
▁El	-1377
che	-1378
ster	-1379
6.	-1380
▁government	-1381
▁city	-1382
▁Olympics	-1383
amb	-1384
▁Ab	-1385
ane	-1386
▁No	-1387
▁dep	-1388
▁La	-1389
▁International	-1390
▁Sec	-1391
▁still	-1392
ris	-1393
ales	-1394
▁iss	-1395
arl	-1396
ption	-1397
▁politic	-1398
▁here	-1399
▁pat	-1400
▁11	-1401
▁using	-1402
arge	-1403
▁special	-1404
–20	-1405
▁former	-1406
▁club	-1407
▁Ne	-1408
▁hand	-1409
▁prot	-1410
ploy	-1411
▁stat	-1412
▁national	-1413
▁services	-1414
▁Party	-1415
▁works	-1416
▁fun	-1417
▁custom	-1418
▁II	-1419
▁free	-1420
▁2019,	-1421
▁tit	-1422
▁camp	-1423
▁opp	-1424
ours	-1425
▁cle	-1426
illion	-1427
duction	-1428
▁addition	-1429
▁represent	-1430
be	-1431
▁ref	-1432
▁Academ	-1433
ways	-1434
▁cor	-1435
liament	-1436
ately	-1437
ps	-1438
ivid	-1439
▁called	-1440
rid	-1441
umb	-1442
▁Will	-1443
▁With	-1444
▁real	-1445
▁few	-1446
▁sit	-1447
▁Women	-1448
▁avail	-1449
▁within	-1450
▁old	-1451
ference	-1452
▁US	-1453
self	-1454
▁Har	-1455
▁el	-1456
▁'	-1457
▁West	-1458
vious	-1459
▁near	-1460
▁mat	-1461
▁Film	-1462
▁interest	-1463
▁present	-1464
ries	-1465
8,	-1466
ittle	-1467
▁early	-1468
nect	-1469
rew	-1470
ves	-1471
▁named	-1472
▁En	-1473
▁poss	-1474
▁major	-1475
inc	-1476
▁deaths	-1477
▁success	-1478
▁191	-1479
ense	-1480
▁research	-1481
yn	-1482
▁Tr	-1483
partment	-1484
▁located	-1485
ouncil	-1486
▁though	-1487
uper	-1488
▁health	-1489
▁appro	-1490
▁report	-1491
urg	-1492
▁began	-1493
▁next	-1494
▁friend	-1495
the	-1496
ae	-1497
▁Des	-1498
▁side	-1499
▁conf	-1500
9,	-1501
▁Bar	-1502
de	-1503
▁short	-1504
▁style	-1505
▁love	-1506
▁webs	-1507
anguage	-1508
▁week	-1509
▁Geor	-1510
int	-1511
▁worked	-1512
less	-1513
▁air	-1514
▁left	-1515
cord	-1516
umni	-1517
▁,	-1518
lished	-1519
hern	-1520
▁German	-1521
ctor	-1522
ublic	-1523
▁another	-1524
ideo	-1525
ief	-1526
▁house	-1527
▁working	-1528
.,	-1529
▁aff	-1530
▁power	-1531
osp	-1532
▁To	-1533
▁Dist	-1534
side	-1535
▁level	-1536
▁think	-1537
eter	-1538
▁invest	-1539
work	-1540
▁King	-1541
▁bre	-1542
▁male	-1543
ones	-1544
omin	-1545
vers	-1546
▁include	-1547
ondon	-1548
conom	-1549
ization	-1550
▁Bro	-1551
▁phot	-1552
ington	-1553
▁announc	-1554
▁List	-1555
▁professional	-1556
lic	-1557
▁available	-1558
▁equ	-1559
iron	-1560
9.	-1561
ently	-1562
▁Cup	-1563
aul	-1564
▁stand	-1565
▁Mc	-1566
▁consider	-1567
ued	-1568
▁fact	-1569
▁Indian	-1570
▁games	-1571
▁player	-1572
ham	-1573
radu	-1574
ffic	-1575
▁occ	-1576
▁Tra	-1577
▁mid	-1578
The	-1579
urs	-1580
▁Bo	-1581
ke	-1582
▁tri	-1583
alian	-1584
fect	-1585
▁Mich	-1586
▁final	-1587
▁However	-1588
▁term	-1589
▁History	-1590
▁cr	-1591
▁learn	-1592
▁market	-1593
▁without	-1594
▁published	-1595
▁London	-1596
ribut	-1597
▁describ	-1598
▁full	-1599
ille	-1600
▁history	-1601
▁too	-1602
ering	-1603
na	-1604
eder	-1605
▁ide	-1606
▁experience	-1607
▁single	-1608
▁win	-1609
▁election	-1610
ware	-1611
▁announced	-1612
lif	-1613
▁started	-1614
▁grow	-1615
▁died	-1616
▁really	-1617
▁Sen	-1618
ively	-1619
ified	-1620
▁expl	-1621
▁Bel	-1622
▁Dav	-1623
▁important	-1624
ced	-1625
▁effect	-1626
▁indust	-1627
▁Care	-1628
ots	-1629
iet	-1630
ump	-1631
ara	-1632
▁Games	-1633
ched	-1634
-19	-1635
itor	-1636
▁One	-1637
rap	-1638
▁round	-1639
ms	-1640
stand	-1641
▁going	-1642
▁incre	-1643
ison	-1644
▁Year	-1645
ocus	-1646
▁Award	-1647
▁events	-1648
▁dem	-1649
▁charact	-1650
isc	-1651
of	-1652
▁Group	-1653
▁country	-1654
▁television	-1655
▁Gl	-1656
iter	-1657
ilitary	-1658
▁From	-1659
▁const	-1660
▁established	-1661
2)	-1662
▁fore	-1663
abor	-1664
▁put	-1665
▁—	-1666
▁social	-1667
▁My	-1668
▁Cor	-1669
▁provide	-1670
aim	-1671
▁journ	-1672
▁particip	-1673
▁five	-1674
▁website	-1675
▁appear	-1676
▁meet	-1677
aus	-1678
ope	-1679
▁190	-1680
▁built	-1681
▁pe	-1682
▁weight	-1683
▁tournament	-1684
lected	-1685
itte	-1686
▁non	-1687
▁pract	-1688
▁(1	-1689
▁award	-1690
▁young	-1691
▁building	-1692
▁large	-1693
▁appoin	-1694
▁189	-1695
▁six	-1696
▁international	-1697
alf	-1698
▁Ser	-1699
ote	-1700
ule	-1701
oney	-1702
▁cho	-1703
–19	-1704
ured	-1705
▁30	-1706
▁debut	-1707
ush	-1708
▁beg	-1709
hel	-1710
▁2019.	-1711
ered	-1712
iting	-1713
▁turn	-1714
aced	-1715
▁site	-1716
aces	-1717
▁Bra	-1718
▁Qu	-1719
▁0	-1720
ention	-1721
▁Phil	-1722
▁fr	-1723
▁Roy	-1724
▁chang	-1725
lement	-1726
▁pay	-1727
▁able	-1728
ground	-1729
▁happ	-1730
▁allow	-1731
▁south	-1732
▁High	-1733
ending	-1734
ociety	-1735
▁proper	-1736
▁ve	-1737
ides	-1738
▁vers	-1739
▁cover	-1740
▁Ag	-1741
ying	-1742
▁Italian	-1743
ential	-1744
ases	-1745
ertain	-1746
▁2017	-1747
▁keep	-1748
lands	-1749
ique	-1750
app	-1751
mit	-1752
pecial	-1753
▁Cont	-1754
gether	-1755
hib	-1756
▁sw	-1757
lease	-1758
▁winn	-1759
lex	-1760
▁ep	-1761
uman	-1762
▁third	-1763
3)	-1764
▁Dem	-1765
▁Per	-1766
▁community	-1767
▁room	-1768
▁together	-1769
CA	-1770
▁become	-1771
▁having	-1772
ories	-1773
▁days	-1774
▁must	-1775
▁general	-1776
▁students	-1777
oon	-1778
▁focus	-1779
ulation	-1780
▁making	-1781
ky	-1782
ients	-1783
▁development	-1784
ka	-1785
ford	-1786
▁light	-1787
▁25	-1788
▁Air	-1789
▁beh	-1790
oph	-1791
▁Sch	-1792
anies	-1793
▁times	-1794
urther	-1795
▁invol	-1796
▁access	-1797
▁conc	-1798
ument	-1799
▁House	-1800
▁test	-1801
uf	-1802
▁cost	-1803
▁arch	-1804
▁alumni	-1805
▁i	-1806
▁field	-1807
▁joined	-1808
▁review	-1809
▁official	-1810
▁Mal	-1811
▁view	-1812
ape	-1813
▁es	-1814
▁European	-1815
ances	-1816
▁employ	-1817
▁proble	-1818
▁education	-1819
▁let	-1820
hers	-1821
▁teams	-1822
ketball	-1823
▁crit	-1824
▁missing	-1825
▁host	-1826
▁online	-1827
▁given	-1828
▁always	-1829
rest	-1830
▁trad	-1831
▁What	-1832
ger	-1833
uel	-1834
ruction	-1835
▁Sm	-1836
▁During	-1837
avy	-1838
eal	-1839
8.	-1840
par	-1841
ler	-1842
ring	-1843
ills	-1844
▁Club	-1845
▁north	-1846
▁feat	-1847
estern	-1848
arent	-1849
▁2016	-1850
▁Instit	-1851
aper	-1852
▁mult	-1853
alists	-1854
▁better	-1855
▁say	-1856
useum	-1857
▁line	-1858
ising	-1859
▁India	-1860
1)	-1861
▁Council	-1862
reg	-1863
▁Army	-1864
▁video	-1865
▁quest	-1866
▁written	-1867
thing	-1868
hem	-1869
ids	-1870
lin	-1871
▁Gener	-1872
▁feel	-1873
▁2020,	-1874
▁Park	-1875
▁repl	-1876
▁previous	-1877
▁pri	-1878
▁These	-1879
▁pain	-1880
icle	-1881
ittee	-1882
▁role	-1883
▁cond	-1884
▁little	-1885
▁(201	-1886
iod	-1887
▁come	-1888
▁tot	-1889
▁(18	-1890
▁moved	-1891
ged	-1892
ems	-1893
▁hold	-1894
▁position	-1895
▁Ber	-1896
▁Ang	-1897
▁age	-1898
▁son	-1899
viron	-1900
itive	-1901
▁Stud	-1902
▁less	-1903
ination	-1904
▁course	-1905
▁Dr	-1906
▁port	-1907
▁never	-1908
▁po	-1909
▁impro	-1910
irc	-1911
▁points	-1912
▁included	-1913
▁Bi	-1914
▁Em	-1915
▁author	-1916
▁things	-1917
▁director	-1918
▁Association	-1919
▁Our	-1920
▁East	-1921
▁fund	-1922
▁Bu	-1923
▁quality	-1924
▁away	-1925
▁Ste	-1926
ortun	-1927
▁Serv	-1928
▁Cons	-1929
▁match	-1930
▁sure	-1931
▁assist	-1932
▁story	-1933
▁Men	-1934
▁individ	-1935
▁million	-1936
ander	-1937
▁party	-1938
▁Canada	-1939
▁William	-1940
▁Do	-1941
▁gradu	-1942
▁connect	-1943
▁24	-1944
▁By	-1945
▁Val	-1946
▁try	-1947
▁deg	-1948
▁Football	-1949
▁give	-1950
▁Fin	-1951
▁products	-1952
▁companies	-1953
▁cult	-1954
apt	-1955
▁San	-1956
▁hig	-1957
▁mag	-1958
▁Calif	-1959
▁pres	-1960
ops	-1961
for	-1962
▁Su	-1963
▁war	-1964
▁among	-1965
▁Parliament	-1966
5)	-1967
ds	-1968
▁across	-1969
ico	-1970
iences	-1971
aterial	-1972
▁ident	-1973
ux	-1974
▁District	-1975
▁Mon	-1976
ogn	-1977
ething	-1978
▁Academy	-1979
anish	-1980
▁land	-1981
▁President	-1982
ex	-1983
iber	-1984
▁Law	-1985
ornia	-1986
minist	-1987
▁past	-1988
▁went	-1989
▁father	-1990
attal	-1991
▁Canadian	-1992
▁188	-1993
▁Mor	-1994
▁histor	-1995
▁z	-1996
ources	-1997
▁case	-1998
▁init	-1999
▁California	-2000
here	-2001
ators	-2002
▁Ant	-2003
▁Net	-2004
▁personal	-2005
epend	-2006
▁various	-2007
aur	-2008
▁vol	-2009
▁often	-2010
▁station	-2011
▁Paul	-2012
7)	-2013
ald	-2014
▁led	-2015
ability	-2016
▁big	-2017
▁First	-2018
▁original	-2019
▁species	-2020
▁Career	-2021
unic	-2022
aign	-2023
cell	-2024
▁created	-2025
▁Division	-2026
ights	-2027
▁2000	-2028
▁vill	-2029
▁larg	-2030
ning	-2031
▁God	-2032
▁Royal	-2033
ead	-2034
sc	-2035
▁gen	-2036
acks	-2037
▁China	-2038
ama	-2039
▁Pri	-2040
4)	-2041
flu	-2042
joy	-2043
▁France	-2044
vironment	-2045
ably	-2046
▁got	-2047
iles	-2048
▁came	-2049
30	-2050
ti	-2051
▁Act	-2052
off	-2053
cer	-2054
▁title	-2055
ership	-2056
▁net	-2057
aches	-2058
▁Australia	-2059
▁ship	-2060
▁promot	-2061
acy	-2062
▁lim	-2063
ges	-2064
▁econom	-2065
ource	-2066
▁might	-2067
▁staff	-2068
▁Russian	-2069
–1	-2070
▁results	-2071
though	-2072
▁married	-2073
▁hard	-2074
▁‘	-2075
▁point	-2076
▁Port	-2077
▁training	-2078
ani	-2079
▁CO	-2080
irl	-2081
uture	-2082
▁coach	-2083
▁described	-2084
ided	-2085
▁something	-2086
▁Cour	-2087
▁Company	-2088
▁Japanese	-2089
▁coll	-2090
▁comb	-2091
▁priv	-2092
ID	-2093
▁opt	-2094
▁body	-2095
▁protect	-2096
▁engine	-2097
alymp	-2098
asons	-2099
▁Awards	-2100
▁money	-2101
▁Paralymp	-2102
atter	-2103
ological	-2104
▁sent	-2105
people	-2106
ta	-2107
▁1.	-2108
▁ask	-2109
▁refer	-2110
raft	-2111
▁et	-2112
▁Rober	-2113
itect	-2114
aken	-2115
▁Early	-2116
▁tw	-2117
▁president	-2118
ateg	-2119
▁struct	-2120
▁elected	-2121
▁Ro	-2122
▁100	-2123
▁App	-2124
▁arr	-2125
▁Que	-2126
ification	-2127
▁period	-2128
▁African	-2129
▁political	-2130
aining	-2131
▁Institute	-2132
▁lo	-2133
ams	-2134
room	-2135
▁Sing	-2136
▁creat	-2137
▁detail	-2138
gr	-2139
ades	-2140
▁fav	-2141
▁Lake	-2142
rain	-2143
▁Water	-2144
▁relations	-2145
istic	-2146
▁fem	-2147
field	-2148
illed	-2149
▁food	-2150
▁feature	-2151
me	-2152
atri	-2153
▁While	-2154
▁General	-2155
▁Sal	-2156
▁plan	-2157
▁job	-2158
▁media	-2159
▁tem	-2160
ocr	-2161
▁saf	-2162
▁change	-2163
irm	-2164
rie	-2165
ya	-2166
earch	-2167
▁cou	-2168
▁America	-2169
50	-2170
dom	-2171
▁prop	-2172
era	-2173
imate	-2174
▁That	-2175
▁appointed	-2176
ecut	-2177
▁fre	-2178
ethod	-2179
▁today	-2180
inese	-2181
cast	-2182
▁phys	-2183
▁Australian	-2184
elling	-2185
▁district	-2186
▁Music	-2187
▁areas	-2188
▁Sports	-2189
▁particular	-2190
▁others	-2191
ij	-2192
▁live	-2193
dle	-2194
▁total	-2195
-0	-2196
▁hon	-2197
▁establish	-2198
mar	-2199
▁control	-2200
go	-2201
igned	-2202
▁England	-2203
▁industry	-2204
▁material	-2205
▁applic	-2206
▁Kh	-2207
▁Olympic	-2208
6)	-2209
rote	-2210
▁Char	-2211
tt	-2212
ma	-2213
▁lot	-2214
▁ens	-2215
▁possible	-2216
▁town	-2217
▁footballers	-2218
ney	-2219
▁cand	-2220
cy	-2221
▁Sl	-2222
▁months	-2223
▁1,	-2224
ville	-2225
rab	-2226
▁2021	-2227
▁office	-2228
▁Pal	-2229
▁Che	-2230
▁Hol	-2231
▁:	-2232
▁Wash	-2233
airs	-2234
▁di	-2235
ilities	-2236
▁Chinese	-2237
load	-2238
ellow	-2239
▁Society	-2240
▁Don	-2241
ountain	-2242
now	-2243
▁competed	-2244
attalion	-2245
ili	-2246
▁James	-2247
icy	-2248
▁claim	-2249
▁late	-2250
-2	-2251
utes	-2252
▁Swed	-2253
▁account	-2254
▁ren	-2255
ooks	-2256
ida	-2257
▁enc	-2258
▁/	-2259
col	-2260
istry	-2261
chie	-2262
▁Trans	-2263
bor	-2264
▁Church	-2265
▁basketball	-2266
▁UK	-2267
▁Play	-2268
vernor	-2269
align	-2270
▁Center	-2271
▁visit	-2272
▁looking	-2273
▁ce	-2274
ached	-2275
▁enjoy	-2276
oks	-2277
▁inf	-2278
▁nov	-2279
▁Stre	-2280
▁sports	-2281
▁century	-2282
br	-2283
▁treat	-2284
atural	-2285
▁belie	-2286
▁contract	-2287
ha	-2288
olic	-2289
▁popular	-2290
den	-2291
▁typ	-2292
ishing	-2293
▁needs	-2294
ready	-2295
idence	-2296
▁character	-2297
istics	-2298
lifters	-2299
▁Mag	-2300
▁(200	-2301
enef	-2302
urity	-2303
▁stage	-2304
▁tre	-2305
back	-2306
ores	-2307
▁squ	-2308
▁produced	-2309
▁wind	-2310
▁living	-2311
▁mother	-2312
▁cred	-2313
▁lost	-2314
▁mot	-2315
▁directed	-2316
ala	-2317
▁low	-2318
▁Gold	-2319
10	-2320
▁du	-2321
▁MP	-2322
sel	-2323
ean	-2324
▁bi	-2325
▁beaut	-2326
▁respons	-2327
ests	-2328
▁lik	-2329
▁Washington	-2330
roll	-2331
▁half	-2332
cle	-2333
pro	-2334
▁dev	-2335
▁Inter	-2336
play	-2337
attle	-2338
rag	-2339
band	-2340
ER	-2341
aps	-2342
▁2015	-2343
▁Just	-2344
▁epis	-2345
▁earn	-2346
ael	-2347
thlet	-2348
▁rad	-2349
ements	-2350
▁range	-2351
▁strong	-2352
agu	-2353
▁performance	-2354
▁sil	-2355
▁create	-2356
▁understand	-2357
anks	-2358
▁Mex	-2359
olution	-2360
ye	-2361
▁sold	-2362
▁doc	-2363
▁page	-2364
atives	-2365
▁once	-2366
▁187	-2367
▁night	-2368
▁186	-2369
iction	-2370
▁Paris	-2371
▁completed	-2372
itz	-2373
arian	-2374
▁contact	-2375
▁features	-2376
▁currently	-2377
▁politician	-2378
alls	-2379
▁deal	-2380
▁tour	-2381
▁includes	-2382
▁Thom	-2383
▁church	-2384
zil	-2385
▁Best	-2386
▁ever	-2387
▁soft	-2388
▁purch	-2389
most	-2390
ither	-2391
▁however	-2392
▁campaign	-2393
▁prim	-2394
▁chall	-2395
▁songs	-2396
▁wrote	-2397
▁already	-2398
omm	-2399
ume	-2400
▁Department	-2401
hi	-2402
▁Im	-2403
▁key	-2404
▁Black	-2405
▁rank	-2406
▁expect	-2407
12	-2408
▁Educ	-2409
▁examp	-2410
▁designed	-2411
▁aud	-2412
aughter	-2413
!!	-2414
ensive	-2415
ban	-2416
▁defe	-2417
▁23	-2418
wh	-2419
duce	-2420
▁benef	-2421
▁22	-2422
▁further	-2423
erve	-2424
year	-2425
ox	-2426
ini	-2427
ivil	-2428
▁gold	-2429
▁common	-2430
aving	-2431
ago	-2432
▁Tur	-2433
9)	-2434
ells	-2435
▁Flor	-2436
▁degree	-2437
aker	-2438
▁pot	-2439
▁sched	-2440
▁recogn	-2441
▁regular	-2442
▁means	-2443
estival	-2444
err	-2445
arter	-2446
▁Germ	-2447
▁Union	-2448
opp	-2449
▁intro	-2450
▁Pe	-2451
▁laun	-2452
▁quick	-2453
▁Brazil	-2454
▁brother	-2455
▁towards	-2456
ults	-2457
west	-2458
▁Pre	-2459
▁candid	-2460
▁future	-2461
▁returned	-2462
ole	-2463
empt	-2464
time	-2465
▁writing	-2466
▁Mary	-2467
sequ	-2468
▁far	-2469
▁vot	-2470
▁Sim	-2471
▁origin	-2472
▁Research	-2473
▁production	-2474
ude	-2475
▁college	-2476
▁perfect	-2477
tra	-2478
▁space	-2479
ilar	-2480
ises	-2481
▁human	-2482
▁Committee	-2483
ZZ	-2484
asc	-2485
▁Red	-2486
emic	-2487
▁Court	-2488
ancial	-2489
ees	-2490
ift	-2491
▁Mid	-2492
▁sound	-2493
▁2010	-2494
▁parent	-2495
▁black	-2496
▁shows	-2497
▁associ	-2498
▁travel	-2499
▁opportun	-2500
isl	-2501
▁2.	-2502
resh	-2503
▁track	-2504
▁sen	-2505
▁2020.	-2506
ibr	-2507
▁done	-2508
▁Lou	-2509
▁Person	-2510
ask	-2511
asing	-2512
iger	-2513
▁26	-2514
▁situ	-2515
▁study	-2516
▁Museum	-2517
▁mix	-2518
omb	-2519
▁Minister	-2520
oe	-2521
wood	-2522
cover	-2523
▁version	-2524
▁wa	-2525
▁Dis	-2526
▁Roman	-2527
▁signed	-2528
▁Germany	-2529
rd	-2530
▁dam	-2531
ki	-2532
ufact	-2533
▁Regiment	-2534
▁easy	-2535
▁qualif	-2536
▁Profess	-2537
▁Pet	-2538
▁check	-2539
icles	-2540
▁sett	-2541
▁band	-2542
igan	-2543
utions	-2544
▁below	-2545
▁politicians	-2546
▁Mus	-2547
▁capt	-2548
ria	-2549
odes	-2550
8)	-2551
▁certain	-2552
▁Jew	-2553
▁Win	-2554
▁Hall	-2555
ospital	-2556
▁least	-2557
▁Democr	-2558
▁environment	-2559
ites	-2560
inning	-2561
▁Hon	-2562
▁Nor	-2563
aching	-2564
▁road	-2565
▁artist	-2566
▁successful	-2567
▁cross	-2568
uter	-2569
▁mem	-2570
▁David	-2571
▁makes	-2572
▁board	-2573
▁books	-2574
pecially	-2575
anced	-2576
berg	-2577
▁ste	-2578
▁front	-2579
▁Miss	-2580
▁exhib	-2581
▁issues	-2582
vert	-2583
▁Cast	-2584
▁table	-2585
▁caus	-2586
ceed	-2587
▁Kore	-2588
▁Asian	-2589
▁require	-2590
burg	-2591
alt	-2592
ender	-2593
▁becom	-2594
▁ill	-2595
aring	-2596
▁bring	-2597
▁release	-2598
▁aver	-2599
▁date	-2600
ena	-2601
▁pie	-2602
▁liter	-2603
▁George	-2604
▁Vir	-2605
nel	-2606
cri	-2607
▁ten	-2608
▁via	-2609
▁taken	-2610
▁Direct	-2611
cording	-2612
▁install	-2613
▁military	-2614
▁TV	-2615
▁Tex	-2616
▁Ma	-2617
iate	-2618
▁Mad	-2619
▁2014	-2620
▁above	-2621
▁taking	-2622
▁break	-2623
▁comes	-2624
▁Street	-2625
▁bar	-2626
▁wife	-2627
▁region	-2628
▁hot	-2629
▁rail	-2630
ibility	-2631
▁type	-2632
▁Leg	-2633
oring	-2634
▁prem	-2635
▁ess	-2636
▁mer	-2637
▁vict	-2638
▁Since	-2639
oke	-2640
▁Bas	-2641
▁Met	-2642
▁jud	-2643
duced	-2644
▁leading	-2645
▁provides	-2646
ergy	-2647
▁hom	-2648
iqu	-2649
▁base	-2650
▁constit	-2651
rian	-2652
▁anim	-2653
ules	-2654
▁Alex	-2655
▁involved	-2656
▁Carol	-2657
▁collect	-2658
▁Sam	-2659
▁dig	-2660
atory	-2661
▁mean	-2662
▁2021,	-2663
▁village	-2664
van	-2665
osing	-2666
▁Town	-2667
unicip	-2668
▁plann	-2669
▁administ	-2670
▁2022	-2671
,"	-2672
▁Scott	-2673
▁Mart	-2674
▁achie	-2675
▁architect	-2676
not	-2677
▁cy	-2678
▁dest	-2679
orthern	-2680
▁Central	-2681
▁artists	-2682
edy	-2683
▁dou	-2684
▁Some	-2685
▁super	-2686
▁friends	-2687
▁transfer	-2688
▁collection	-2689
▁hous	-2690
▁method	-2691
...	-2692
olf	-2693
▁hours	-2694
▁association	-2695
▁fail	-2696
▁deliver	-2697
sy	-2698
raw	-2699
arth	-2700
▁Techn	-2701
▁Spanish	-2702
▁founded	-2703
▁28	-2704
▁language	-2705
ming	-2706
,”	-2707
ura	-2708
▁Super	-2709
▁clean	-2710
▁accord	-2711
iff	-2712
ols	-2713
enced	-2714
▁management	-2715
head	-2716
▁effort	-2717
cel	-2718
▁lov	-2719
▁why	-2720
▁exist	-2721
▁hy	-2722
▁Out	-2723
▁nomin	-2724
▁enough	-2725
▁Offic	-2726
▁respect	-2727
utch	-2728
▁Feder	-2729
▁competition	-2730
ened	-2731
▁throughout	-2732
▁rout	-2733
▁Polit	-2734
▁broad	-2735
▁Ir	-2736
ledge	-2737
▁provided	-2738
▁draw	-2739
▁step	-2740
▁circ	-2741
▁Green	-2742
▁!	-2743
,000	-2744
la	-2745
aged	-2746
▁Africa	-2747
gin	-2748
▁Team	-2749
▁accom	-2750
▁offers	-2751
▁red	-2752
▁press	-2753
▁Championships	-2754
▁Cur	-2755
▁der	-2756
▁pur	-2757
▁Arts	-2758
▁reported	-2759
itch	-2760
▁text	-2761
▁entire	-2762
za	-2763
ona	-2764
▁box	-2765
▁awarded	-2766
▁playing	-2767
▁technology	-2768
▁Saint	-2769
▁ground	-2770
IN	-2771
▁tradition	-2772
iple	-2773
▁Pat	-2774
▁veh	-2775
▁Cong	-2776
▁stay	-2777
▁added	-2778
sw	-2779
▁Ha	-2780
outhern	-2781
▁groups	-2782
▁Republic	-2783
▁cut	-2784
▁inj	-2785
▁attack	-2786
▁minutes	-2787
▁complete	-2788
aries	-2789
obal	-2790
retary	-2791
fic	-2792
▁rev	-2793
mercial	-2794
▁Public	-2795
iful	-2796
▁price	-2797
▁Chic	-2798
▁consist	-2799
▁Education	-2800
ify	-2801
ère	-2802
▁finished	-2803
▁card	-2804
cks	-2805
▁kind	-2806
living	-2807
▁discuss	-2808
▁network	-2809
ny	-2810
ought	-2811
hood	-2812
▁eight	-2813
▁seen	-2814
ett	-2815
▁considered	-2816
VID	-2817
uit	-2818
▁Arch	-2819
▁similar	-2820
▁Fore	-2821
▁dram	-2822
ificant	-2823
▁attempt	-2824
put	-2825
rick	-2826
▁scient	-2827
▁Kingdom	-2828
▁cop	-2829
▁Found	-2830
oice	-2831
▁share	-2832
▁action	-2833
▁Sa	-2834
▁imm	-2835
▁2018,	-2836
▁opened	-2837
▁27	-2838
▁Pan	-2839
urance	-2840
▁Social	-2841
based	-2842
▁2012	-2843
▁According	-2844
▁developed	-2845
bert	-2846
▁plat	-2847
▁especially	-2848
▁Second	-2849
▁meas	-2850
▁Western	-2851
▁getting	-2852
▁daughter	-2853
▁independ	-2854
oma	-2855
▁0.	-2856
str	-2857
▁influ	-2858
AC	-2859
▁Bus	-2860
▁Zeal	-2861
▁fight	-2862
▁Tour	-2863
▁private	-2864
▁Grand	-2865
cis	-2866
▁FC	-2867
▁tax	-2868
▁Zealand	-2869
idents	-2870
eared	-2871
▁Members	-2872
ado	-2873
▁reb	-2874
pper	-2875
▁Aut	-2876
▁Engine	-2877
ES	-2878
–2	-2879
▁Texas	-2880
▁medical	-2881
▁continued	-2882
face	-2883
▁Def	-2884
inary	-2885
▁size	-2886
▁viol	-2887
rug	-2888
▁Cal	-2889
▁subject	-2890
▁manufact	-2891
▁Rich	-2892
ulty	-2893
obile	-2894
▁50	-2895
▁Sant	-2896
▁formed	-2897
▁studies	-2898
▁model	-2899
▁accept	-2900
▁recomm	-2901
embly	-2902
▁compos	-2903
▁Day	-2904
azine	-2905
▁Italy	-2906
▁behind	-2907
over	-2908
izing	-2909
▁(199	-2910
▁Great	-2911
men	-2912
aves	-2913
▁white	-2914
▁activities	-2915
ends	-2916
▁fig	-2917
▁Conserv	-2918
AR	-2919
iga	-2920
▁Off	-2921
▁bank	-2922
▁cast	-2923
▁modern	-2924
▁Michigan	-2925
▁2013	-2926
▁mind	-2927
▁Senate	-2928
▁initial	-2929
▁relationship	-2930
AT	-2931
▁Mac	-2932
book	-2933
icro	-2934
▁Rev	-2935
▁upd	-2936
▁Life	-2937
▁Columb	-2938
▁Angel	-2939
▁Histor	-2940
▁property	-2941
ength	-2942
▁execut	-2943
isk	-2944
▁rights	-2945
▁east	-2946
▁Michael	-2947
▁natural	-2948
▁significant	-2949
Ch	-2950
rown	-2951
▁Mont	-2952
oid	-2953
▁Christian	-2954
clus	-2955
▁Gall	-2956
▁decided	-2957
. 	-2958
oul	-2959
iers	-2960
oint	-2961
▁Class	-2962
▁example	-2963
▁Hen	-2964
▁buy	-2965
▁individual	-2966
▁sugg	-2967
▁Place	-2968
▁listed	-2969
▁address	-2970
▁additional	-2971
▁construction	-2972
writ	-2973
edd	-2974
▁insp	-2975
▁content	-2976
▁financial	-2977
▁Commission	-2978
ston	-2979
▁Vol	-2980
acher	-2981
▁Prov	-2982
40	-2983
▁tou	-2984
▁Mass	-2985
▁#	-2986
▁vir	-2987
▁Jose	-2988
▁self	-2989
coming	-2990
▁concern	-2991
▁Mer	-2992
▁sch	-2993
▁Bank	-2994
▁Health	-2995
▁Robert	-2996
▁active	-2997
▁either	-2998
▁decision	-2999
▁contribut	-3000
▁Other	-3001
▁close	-3002
▁projects	-3003
▁command	-3004
▁pand	-3005
▁upon	-3006
ricket	-3007
▁journal	-3008
▁attended	-3009
▁Bay	-3010
▁sat	-3011
▁gave	-3012
▁prob	-3013
ternet	-3014
▁thing	-3015
aid	-3016
II	-3017
ato	-3018
ios	-3019
ota	-3020
pon	-3021
ires	-3022
▁Now	-3023
▁heart	-3024
▁Science	-3025
▁Tom	-3026
▁walk	-3027
ev	-3028
gen	-3029
▁pack	-3030
▁favor	-3031
▁awards	-3032
▁customers	-3033
ette	-3034
erous	-3035
▁1980	-3036
▁Most	-3037
▁Your	-3038
hest	-3039
inals	-3040
▁acqu	-3041
▁star	-3042
uff	-3043
▁COVID	-3044
▁pandemic	-3045
-20	-3046
ils	-3047
▁sem	-3048
▁move	-3049
▁court	-3050
▁almost	-3051
AS	-3052
igr	-3053
itc	-3054
▁league	-3055
▁studied	-3056
▁Sur	-3057
▁Over	-3058
▁mach	-3059
language	-3060
Amer	-3061
owers	-3062
▁pict	-3063
iance	-3064
ridge	-3065
▁race	-3066
▁river	-3067
ano	-3068
elt	-3069
nder	-3070
▁Road	-3071
▁prof	-3072
▁serving	-3073
▁cele	-3074
▁changes	-3075
▁Bur	-3076
▁professor	-3077
▁Uk	-3078
ream	-3079
▁amount	-3080
▁female	-3081
pped	-3082
ental	-3083
▁1960	-3084
▁neg	-3085
▁west	-3086
▁loss	-3087
▁Peter	-3088
ati	-3089
ola	-3090
ras	-3091
▁energy	-3092
▁Oh	-3093
pite	-3094
▁mus	-3095
▁fire	-3096
▁according	-3097
▁yet	-3098
board	-3099
▁3.	-3100
uled	-3101
▁diffic	-3102
▁conduct	-3103
▁problem	-3104
gian	-3105
span	-3106
▁Emp	-3107
▁Its	-3108
▁screen	-3109
▁senior	-3110
ym	-3111
▁Commun	-3112
▁()	-3113
▁Del	-3114
▁Develop	-3115
▁Service	-3116
▁countries	-3117
▁sus	-3118
▁separ	-3119
▁usually	-3120
atriate	-3121
▁Of	-3122
aging	-3123
arc	-3124
▁29	-3125
▁Dan	-3126
▁Thomas	-3127
▁outside	-3128
▁required	-3129
▁represented	-3130
:00	-3131
▁email	-3132
▁value	-3133
lim	-3134
▁Sil	-3135
▁Record	-3136
▁Inc	-3137
▁soon	-3138
▁Sk	-3139
ested	-3140
▁Florida	-3141
▁talk	-3142
▁news	-3143
▁academ	-3144
▁practice	-3145
BC	-3146
unt	-3147
▁cal	-3148
▁specific	-3149
oz	-3150
sec	-3151
▁parents	-3152
▁thought	-3153
ipl	-3154
▁Cam	-3155
ockey	-3156
ampion	-3157
▁investig	-3158
▁wood	-3159
▁Board	-3160
nov	-3161
une	-3162
▁Are	-3163
▁face	-3164
alys	-3165
oper	-3166
iller	-3167
▁Notes	-3168
▁simple	-3169
▁Ham	-3170
▁plant	-3171
▁Wil	-3172
14	-3173
eds	-3174
eks	-3175
▁Gra	-3176
▁prior	-3177
▁Personal	-3178
▁selected	-3179
rich	-3180
▁goal	-3181
▁Philipp	-3182
▁Governor	-3183
▁Conference	-3184
rael	-3185
▁mom	-3186
▁reason	-3187
▁Swedish	-3188
▁Sub	-3189
weight	-3190
▁center	-3191
ada	-3192
▁Ann	-3193
selves	-3194
▁sum	-3195
▁mass	-3196
fort	-3197
▁Ter	-3198
▁log	-3199
▁goals	-3200
▁indic	-3201
▁neigh	-3202
▁schools	-3203
▁collabor	-3204
▁Cath	-3205
▁Iran	-3206
▁chair	-3207
;"	-3208
||	-3209
▁Democratic	-3210
ging	-3211
▁Mod	-3212
▁ter	-3213
▁Films	-3214
▁decl	-3215
▁determ	-3216
▁performed	-3217
▁population	-3218
lo	-3219
▁Tw	-3220
left	-3221
▁Ill	-3222
▁pers	-3223
▁Dutch	-3224
▁Louis	-3225
▁Ev	-3226
▁Squ	-3227
▁Bill	-3228
▁wide	-3229
▁lower	-3230
▁matches	-3231
idge	-3232
▁Exp	-3233
▁policy	-3234
▁seasons	-3235
▁(2	-3236
▁Mr	-3237
▁pick	-3238
ection	-3239
▁novel	-3240
▁Member	-3241
▁problems	-3242
ador	-3243
aught	-3244
imum	-3245
▁Spe	-3246
▁commit	-3247
▁higher	-3248
▁Bang	-3249
▁idea	-3250
▁Island	-3251
▁medal	-3252
▁discover	-3253
▁1990	-3254
▁doing	-3255
agement	-3256
atur	-3257
ière	-3258
American	-3259
reek	-3260
sych	-3261
▁fit	-3262
▁doesn	-3263
▁maint	-3264
imately	-3265
vey	-3266
ables	-3267
ension	-3268
▁impact	-3269
▁everything	-3270
▁Hy	-3271
▁farm	-3272
mas	-3273
▁Kn	-3274
▁bit	-3275
▁instead	-3276
▁receive	-3277
▁Ol	-3278
enay	-3279
▁student	-3280
▁beautiful	-3281
FA	-3282
lements	-3283
▁Ben	-3284
▁exc	-3285
▁ful	-3286
▁Oper	-3287
▁organization	-3288
▁web	-3289
porary	-3290
▁systems	-3291
▁instit	-3292
▁transl	-3293
▁Paralympics	-3294
ply	-3295
▁Ep	-3296
ella	-3297
▁System	-3298
▁regard	-3299
▁gre	-3300
▁dise	-3301
▁platform	-3302
▁Add	-3303
▁lab	-3304
▁Turk	-3305
▁paint	-3306
iano	-3307
▁obt	-3308
▁reading	-3309
▁buildings	-3310
▁Virgin	-3311
ray	-3312
▁fall	-3313
ranch	-3314
etimes	-3315
▁Mount	-3316
eg	-3317
orial	-3318
▁whether	-3319
▁voc	-3320
▁says	-3321
▁Frank	-3322
-6	-3323
mon	-3324
▁rate	-3325
▁Smith	-3326
▁lives	-3327
▁police	-3328
11	-3329
oud	-3330
heast	-3331
▁Press	-3332
wan	-3333
▁agre	-3334
▁plays	-3335
▁units	-3336
izations	-3337
▁takes	-3338
ression	-3339
▁unique	-3340
▁himself	-3341
▁potential	-3342
▁Rad	-3343
ening	-3344
order	-3345
▁girl	-3346
▁issue	-3347
▁Israel	-3348
▁summer	-3349
▁Vi	-3350
atre	-3351
▁paper	-3352
▁appeared	-3353
▁multiple	-3354
bec	-3355
▁op	-3356
▁pan	-3357
▁Elect	-3358
▁autom	-3359
▁running	-3360
▁Government	-3361
▁extra	-3362
▁sym	-3363
▁floor	-3364
▁percent	-3365
▁someone	-3366
▁communic	-3367
▁Spr	-3368
▁software	-3369
hold	-3370
olid	-3371
▁emb	-3372
▁Prem	-3373
▁Work	-3374
▁grand	-3375
ribution	-3376
ww	-3377
ips	-3378
chan	-3379
astic	-3380
AN	-3381
roy	-3382
▁185	-3383
▁woman	-3384
▁states	-3385
come	-3386
▁White	-3387
▁previously	-3388
▁31	-3389
edic	-3390
▁Mat	-3391
▁hope	-3392
▁spent	-3393
▁weeks	-3394
▁Vict	-3395
▁leave	-3396
▁parts	-3397
uals	-3398
▁Lat	-3399
▁shot	-3400
▁likely	-3401
▁placed	-3402
▁Francis	-3403
▁average	-3404
▁Sciences	-3405
▁actually	-3406
CC	-3407
ius	-3408
▁Sun	-3409
▁blog	-3410
▁championship	-3411
ograp	-3412
▁Camp	-3413
▁Penn	-3414
ibrary	-3415
▁Festival	-3416
ception	-3417
▁sn	-3418
▁emer	-3419
▁master	-3420
▁object	-3421
illa	-3422
▁Tor	-3423
▁park	-3424
ctions	-3425
irit	-3426
used	-3427
▁hit	-3428
shire	-3429
▁Navy	-3430
▁questions	-3431
▁Lab	-3432
▁whole	-3433
▁Int	-3434
▁Rail	-3435
▁please	-3436
▁2019–20	-3437
arts	-3438
▁Top	-3439
▁(194	-3440
▁Supp	-3441
uments	-3442
▁2018.	-3443
▁details	-3444
▁regiment	-3445
ita	-3446
▁watch	-3447
▁Carolina	-3448
St	-3449
▁related	-3450
▁Song	-3451
▁fast	-3452
▁Charles	-3453
▁Military	-3454
▁Development	-3455
uge	-3456
▁Empire	-3457
▁function	-3458
▁footballer	-3459
lor	-3460
▁store	-3461
aguenay	-3462
▁prevent	-3463
rup	-3464
▁coming	-3465
▁forward	-3466
▁(198	-3467
▁mess	-3468
▁location	-3469
ula	-3470
▁saw	-3471
iring	-3472
▁Back	-3473
▁Mark	-3474
▁writer	-3475
▁Chicago	-3476
▁commercial	-3477
▁targ	-3478
▁constitu	-3479
▁document	-3480
AA	-3481
bb	-3482
yr	-3483
hy	-3484
gia	-3485
het	-3486
istan	-3487
▁followed	-3488
encies	-3489
▁Jac	-3490
▁Prog	-3491
▁ensure	-3492
▁needed	-3493
▁stream	-3494
▁Hot	-3495
▁2011	-3496
▁Sund	-3497
ci	-3498
▁Lu	-3499
aval	-3500
▁sales	-3501
▁interview	-3502
rel	-3503
▁obs	-3504
rought	-3505
▁search	-3506
itiz	-3507
▁Mos	-3508
▁cell	-3509
▁ways	-3510
alysis	-3511
▁writers	-3512
▁Dou	-3513
▁2022,	-3514
▁difficult	-3515
▁elections	-3516
▁Star	-3517
▁fresh	-3518
▁trade	-3519
▁albums	-3520
▁stated	-3521
▁complet	-3522
▁meeting	-3523
▁Two	-3524
unk	-3525
▁2,	-3526
reme	-3527
reland	-3528
▁singer	-3529
▁Inf	-3530
▁Brown	-3531
▁leader	-3532
▁Assembly	-3533
▁bad	-3534
acing	-3535
▁didn	-3536
▁science	-3537
IS	-3538
▁stri	-3539
ulture	-3540
▁2017,	-3541
▁complex	-3542
15	-3543
▁40	-3544
iled	-3545
lam	-3546
annel	-3547
light	-3548
▁Russia	-3549
▁Director	-3550
rial	-3551
▁actress	-3552
▁question	-3553
▁Jud	-3554
▁link	-3555
▁seven	-3556
▁Den	-3557
▁hus	-3558
▁overall	-3559
oral	-3560
▁Home	-3561
▁surv	-3562
rative	-3563
▁Ros	-3564
▁Hong	-3565
▁schol	-3566
▁affect	-3567
▁rather	-3568
ED	-3569
▁color	-3570
▁credit	-3571
▁weightlifters	-3572
▁1970	-3573
ivière	-3574
▁Liber	-3575
▁article	-3576
hu	-3577
kn	-3578
onder	-3579
▁prep	-3580
▁source	-3581
▁wanted	-3582
▁Columbia	-3583
▁Bul	-3584
▁Rob	-3585
▁Niger	-3586
▁terms	-3587
▁necess	-3588
▁largest	-3589
▁Biography	-3590
▁Cr	-3591
▁remov	-3592
▁edition	-3593
▁computer	-3594
▁programs	-3595
.”	-3596
▁purp	-3597
▁reve	-3598
bl	-3599
ship	-3600
icine	-3601
▁brand	-3602
▁Catholic	-3603
▁medalists	-3604
▁Arab	-3605
▁Wild	-3606
▁raised	-3607
▁central	-3608
▁highest	-3609
▁Mil	-3610
orage	-3611
▁growth	-3612
▁scored	-3613
-3	-3614
▁unit	-3615
▁drama	-3616
ultural	-3617
▁security	-3618
▁Ak	-3619
ilies	-3620
▁forest	-3621
▁Foundation	-3622
ffer	-3623
fully	-3624
ounter	-3625
▁couple	-3626
▁conditions	-3627
ali	-3628
ennis	-3629
center	-3630
illing	-3631
▁Under	-3632
▁inside	-3633
▁challeng	-3634
▁Inst	-3635
▁inte	-3636
▁Order	-3637
▁Mexico	-3638
▁culture	-3639
▁division	-3640
▁Battalion	-3641
▁Haw	-3642
antry	-3643
▁recorded	-3644
enge	-3645
action	-3646
▁Athlet	-3647
▁studio	-3648
IT	-3649
iro	-3650
▁Cle	-3651
▁episode	-3652
▁section	-3653
▁although	-3654
AM	-3655
▁prin	-3656
▁Force	-3657
▁shoot	-3658
▁ut	-3659
▁Hel	-3660
▁dog	-3661
▁lay	-3662
▁clos	-3663
▁cook	-3664
▁consum	-3665
▁gra	-3666
▁More	-3667
▁length	-3668
▁silver	-3669
▁Results	-3670
▁primary	-3671
▁positive	-3672
▁Ver	-3673
▁Here	-3674
▁digital	-3675
▁becoming	-3676
▁everyone	-3677
wa	-3678
enty	-3679
▁Est	-3680
▁lat	-3681
▁Wind	-3682
itation	-3683
▁beginning	-3684
▁Sportspeople	-3685
aily	-3686
▁Cat	-3687
lying	-3688
astern	-3689
▁youth	-3690
▁mountain	-3691
aka	-3692
▁Rel	-3693
▁gun	-3694
▁ice	-3695
▁Irish	-3696
▁Mem	-3697
▁abs	-3698
ipment	-3699
aith	-3700
▁deep	-3701
change	-3702
▁longer	-3703
gar	-3704
▁Cop	-3705
▁Head	-3706
▁arran	-3707
▁approach	-3708
▁stations	-3709
text	-3710
▁Mel	-3711
▁den	-3712
▁critic	-3713
16	-3714
uba	-3715
▁Big	-3716
▁quickly	-3717
▁customer	-3718
gypt	-3719
isions	-3720
▁Business	-3721
▁launched	-3722
▁path	-3723
▁Journ	-3724
▁variety	-3725
och	-3726
▁Polish	-3727
▁Ireland	-3728
▁graduated	-3729
25	-3730
▁Adv	-3731
▁told	-3732
▁annual	-3733
va	-3734
▁Mur	-3735
▁quite	-3736
▁featured	-3737
▁Virginia	-3738
▁continue	-3739
▁knowledge	-3740
▁bed	-3741
▁lic	-3742
▁oil	-3743
▁husband	-3744
▁Es	-3745
▁bott	-3746
▁believe	-3747
akh	-3748
▁Cap	-3749
ien	-3750
▁Loc	-3751
oviet	-3752
▁Je	-3753
▁code	-3754
▁civil	-3755
▁enter	-3756
▁entered	-3757
▁conference	-3758
▁wid	-3759
▁Design	-3760
▁Gh	-3761
ounds	-3762
▁touch	-3763
▁whose	-3764
ube	-3765
▁Build	-3766
ira	-3767
▁Post	-3768
▁ball	-3769
▁Bre	-3770
▁Open	-3771
▁chief	-3772
▁choose	-3773
▁Di	-3774
▁Mot	-3775
▁norm	-3776
▁clear	-3777
▁relig	-3778
▁union	-3779
▁economic	-3780
.)	-3781
▁Fe	-3782
onse	-3783
▁Asia	-3784
▁wall	-3785
▁Wales	-3786
▁bud	-3787
▁probably	-3788
▁surround	-3789
▁insurance	-3790
class	-3791
▁phone	-3792
▁treatment	-3793
NA	-3794
▁firm	-3795
▁rock	-3796
▁Egypt	-3797
▁defin	-3798
▁Los	-3799
▁bur	-3800
▁nar	-3801
▁increase	-3802
▁establishments	-3803
itar	-3804
orks	-3805
▁stop	-3806
▁immed	-3807
▁Follow	-3808
▁itself	-3809
▁brought	-3810
▁standard	-3811
22	-3812
▁ant	-3813
▁matter	-3814
nes	-3815
ault	-3816
▁movie	-3817
▁Ap	-3818
ressed	-3819
▁mission	-3820
inem	-3821
▁traditional	-3822
▁charg	-3823
▁recent	-3824
▁Although	-3825
zz	-3826
een	-3827
▁MPs	-3828
▁learning	-3829
unicipality	-3830
▁opportunity	-3831
TV	-3832
anth	-3833
cing	-3834
etic	-3835
▁Also	-3836
▁ended	-3837
▁reach	-3838
▁simply	-3839
▁mention	-3840
uth	-3841
▁Us	-3842
▁aim	-3843
▁conv	-3844
▁hair	-3845
ashion	-3846
▁legal	-3847
▁fourth	-3848
▁application	-3849
vement	-3850
▁Prize	-3851
▁Nether	-3852
▁Series	-3853
▁singles	-3854
▁attention	-3855
▁occur	-3856
▁Please	-3857
mann	-3858
urer	-3859
ustr	-3860
▁Bet	-3861
–18	-3862
azing	-3863
mission	-3864
▁originally	-3865
60	-3866
RE	-3867
down	-3868
gent	-3869
lied	-3870
▁categ	-3871
▁helped	-3872
▁reached	-3873
▁starting	-3874
▁Christmas	-3875
ila	-3876
▁skin	-3877
itchen	-3878
▁Soviet	-3879
▁Command	-3880
13	-3881
▁2023	-3882
▁places	-3883
▁skills	-3884
▁implement	-3885
▁transport	-3886
SE	-3887
uty	-3888
▁bal	-3889
▁Richard	-3890
▁officer	-3891
ón	-3892
▁Er	-3893
onze	-3894
▁Then	-3895
▁answ	-3896
▁anti	-3897
▁pret	-3898
▁words	-3899
▁editor	-3900
▁candidate	-3901
known	-3902
ript	-3903
▁Atl	-3904
▁sal	-3905
▁Wood	-3906
▁plans	-3907
cription	-3908
▁response	-3909
FC	-3910
ga	-3911
ingu	-3912
▁Pac	-3913
▁eventually	-3914
olk	-3915
▁Chief	-3916
▁items	-3917
▁names	-3918
▁earned	-3919
▁Hill	-3920
▁sess	-3921
rast	-3922
▁Jes	-3923
▁sup	-3924
▁Well	-3925
▁green	-3926
isation	-3927
▁directly	-3928
bi	-3929
▁184	-3930
itors	-3931
izes	-3932
▁etc	-3933
▁centre	-3934
▁providing	-3935
▁associated	-3936
ba	-3937
▁£	-3938
inet	-3939
igade	-3940
▁speed	-3941
▁commission	-3942
▁parliament	-3943
▁Let	-3944
▁vac	-3945
iding	-3946
▁dedic	-3947
▁cricket	-3948
▁Congress	-3949
antic	-3950
mitted	-3951
oys	-3952
▁Rock	-3953
orning	-3954
▁Kong	-3955
anda	-3956
ersey	-3957
▁serve	-3958
▁celebr	-3959
▁Ram	-3960
amily	-3961
apers	-3962
▁asked	-3963
▁ready	-3964
▁Joseph	-3965
▁subsequ	-3966
ja	-3967
▁IV	-3968
▁sens	-3969
▁Television	-3970
▁Final	-3971
▁cases	-3972
▁winning	-3973
▁Technology	-3974
▁independent	-3975
80	-3976
▁vs	-3977
oura	-3978
▁Free	-3979
▁save	-3980
▁Represent	-3981
▁materials	-3982
hing	-3983
craft	-3984
inois	-3985
▁families	-3986
▁structure	-3987
LL	-3988
▁hor	-3989
▁score	-3990
▁doctor	-3991
gl	-3992
▁moving	-3993
▁Netherlands	-3994
▁Mu	-3995
▁fix	-3996
▁file	-3997
▁1996	-3998
isters	-3999
▁Victor	-4000
▁characters	-4001
▁Mo	-4002
well	-4003
acity	-4004
▁1999	-4005
▁radio	-4006
▁ships	-4007
17	-4008
bass	-4009
weet	-4010
akers	-4011
▁equipment	-4012
▁dom	-4013
▁mur	-4014
▁risk	-4015
arlier	-4016
▁partn	-4017
▁restaur	-4018
▁Northern	-4019
▁organizations	-4020
▁4.	-4021
▁Sup	-4022
▁arg	-4023
▁seat	-4024
▁killed	-4025
▁comfort	-4026
agn	-4027
urt	-4028
▁Camb	-4029
osition	-4030
▁suffer	-4031
▁allowed	-4032
▁storage	-4033
▁download	-4034
aby	-4035
arily	-4036
inger	-4037
▁Child	-4038
In	-4039
like	-4040
▁Bib	-4041
ulations	-4042
ero	-4043
vest	-4044
▁Fre	-4045
▁Rec	-4046
▁Sol	-4047
▁van	-4048
▁phil	-4049
▁Jewish	-4050
▁Georgia	-4051
▁Illinois	-4052
▁Register	-4053
▁defeated	-4054
▁department	-4055
ON	-4056
▁worth	-4057
▁improve	-4058
▁Die	-4059
▁global	-4060
▁Univers	-4061
▁replaced	-4062
▁Conservative	-4063
▁É	-4064
▁exam	-4065
▁comedy	-4066
–0	-4067
amm	-4068
▁Gal	-4069
▁ver	-4070
aters	-4071
▁ideas	-4072
▁quarter	-4073
▁movement	-4074
▁generally	-4075
▁themselves	-4076
right	-4077
▁trust	-4078
▁Korean	-4079
▁trying	-4080
emporary	-4081
▁consult	-4082
▁Secretary	-4083
▁condition	-4084
bre	-4085
▁ge	-4086
ogle	-4087
▁ult	-4088
▁Sand	-4089
▁seem	-4090
▁true	-4091
▁Berlin	-4092
▁allows	-4093
▁options	-4094
ancy	-4095
ario	-4096
▁Love	-4097
▁Spain	-4098
ady	-4099
▁Cy	-4100
▁Writ	-4101
▁Office	-4102
▁personnel	-4103
24	-4104
▁Jos	-4105
▁Sar	-4106
▁Van	-4107
▁vote	-4108
ulated	-4109
ublican	-4110
ika	-4111
▁CE	-4112
▁Tam	-4113
▁2008	-4114
▁sell	-4115
erc	-4116
▁Pak	-4117
▁foot	-4118
▁native	-4119
▁partner	-4120
yo	-4121
hire	-4122
▁hum	-4123
▁tal	-4124
▁innov	-4125
▁ple	-4126
ipped	-4127
▁1940	-4128
▁Main	-4129
▁Many	-4130
▁safe	-4131
▁remained	-4132
99	-4133
▁Tai	-4134
▁adj	-4135
▁(197	-4136
uation	-4137
▁grant	-4138
▁background	-4139
han	-4140
aled	-4141
mark	-4142
▁2016,	-4143
▁users	-4144
▁latest	-4145
▁middle	-4146
▁coaches	-4147
▁anything	-4148
cean	-4149
▁Tod	-4150
▁fif	-4151
▁lived	-4152
▁legisl	-4153
▁Records	-4154
imb	-4155
etry	-4156
ivity	-4157
▁Good	-4158
▁teacher	-4159
▁statistics	-4160
rect	-4161
unch	-4162
itude	-4163
▁Long	-4164
▁chap	-4165
▁loan	-4166
▁Econom	-4167
▁cannot	-4168
▁Professor	-4169
bon	-4170
itan	-4171
present	-4172
▁finish	-4173
▁Paralympic	-4174
▁pet	-4175
▁sites	-4176
▁levels	-4177
▁ability	-4178
▁railway	-4179
▁promoted	-4180
);	-4181
▁Lee	-4182
arden	-4183
▁pric	-4184
▁graph	-4185
▁Historic	-4186
▁Services	-4187
▁activity	-4188
21	-4189
▁Carl	-4190
▁Matt	-4191
▁streng	-4192
▁x	-4193
iana	-4194
▁lif	-4195
iling	-4196
▁drug	-4197
▁Young	-4198
▁block	-4199
▁hockey	-4200
▁yourself	-4201
house	-4202
▁Scot	-4203
▁carry	-4204
▁disease	-4205
▁operations	-4206
achel	-4207
ansas	-4208
▁concept	-4209
▁manager	-4210
▁magazine	-4211
▁individuals	-4212
▁responsible	-4213
BA	-4214
OR	-4215
▁1920	-4216
▁cause	-4217
▁Political	-4218
▁Fr	-4219
▁Ok	-4220
enant	-4221
occer	-4222
▁Each	-4223
▁frequ	-4224
▁Weight	-4225
▁easily	-4226
▁Medical	-4227
▁Special	-4228
hens	-4229
wide	-4230
▁max	-4231
▁Book	-4232
▁Card	-4233
▁corn	-4234
▁disp	-4235
▁Later	-4236
▁ago	-4237
▁arrest	-4238
▁giving	-4239
▁limited	-4240
esh	-4241
▁sex	-4242
▁lands	-4243
▁expert	-4244
▁stories	-4245
▁Regional	-4246
ders	-4247
▁Ken	-4248
ishop	-4249
overs	-4250
▁occup	-4251
▁winner	-4252
IC	-4253
▁Gre	-4254
▁2007	-4255
▁wear	-4256
▁target	-4257
▁recently	-4258
▁participated	-4259
ares	-4260
▁Liga	-4261
▁tick	-4262
▁Davis	-4263
▁Islam	-4264
▁stars	-4265
▁Official	-4266
▁effective	-4267
▁highly	-4268
▁status	-4269
▁contains	-4270
▁Cas	-4271
▁Tim	-4272
incip	-4273
▁excell	-4274
▁Saguenay	-4275
▁Kar	-4276
▁1992	-4277
▁army	-4278
▁clubs	-4279
▁choice	-4280
▁changed	-4281
▁opening	-4282
▁numerous	-4283
▁marketing	-4284
▁chem	-4285
▁runs	-4286
▁seek	-4287
▁drive	-4288
▁Jersey	-4289
44	-4290
▁cam	-4291
venue	-4292
▁capital	-4293
▁champion	-4294
▁Jim	-4295
▁newsp	-4296
▁attend	-4297
▁surface	-4298
oms	-4299
▁Aff	-4300
▁Bor	-4301
▁Bud	-4302
▁kids	-4303
▁Every	-4304
▁squad	-4305
▁Southern	-4306
▁Medal	-4307
▁feder	-4308
▁types	-4309
▁comment	-4310
▁creating	-4311
▁producer	-4312
▁Rem	-4313
▁Som	-4314
▁sle	-4315
umber	-4316
▁1994	-4317
formed	-4318
itable	-4319
▁Color	-4320
▁compl	-4321
▁battalion	-4322
iti	-4323
adium	-4324
▁heavy	-4325
▁planning	-4326
▁purchase	-4327
▁alongside	-4328
enth	-4329
▁uses	-4330
▁Centre	-4331
PS	-4332
▁Du	-4333
vania	-4334
▁2009	-4335
▁Land	-4336
▁sometimes	-4337
▁183	-4338
▁Fred	-4339
▁rent	-4340
▁actors	-4341
▁Republican	-4342
▁particularly	-4343
hips	-4344
▁Tri	-4345
▁1950	-4346
▁adop	-4347
▁reviews	-4348
▁painting	-4349
▁executive	-4350
aped	-4351
erem	-4352
ties	-4353
ulpt	-4354
▁1998	-4355
▁sister	-4356
▁display	-4357
▁Following	-4358
▁assistant	-4359
▁presented	-4360
ken	-4361
▁3,	-4362
▁Tem	-4363
▁Hung	-4364
▁Henry	-4365
▁click	-4366
▁effic	-4367
▁interested	-4368
hess	-4369
▁map	-4370
▁(193	-4371
▁2021.	-4372
▁Cross	-4373
▁actor	-4374
▁damage	-4375
▁Program	-4376
▁capacity	-4377
icks	-4378
▁lake	-4379
▁ones	-4380
▁estate	-4381
▁records	-4382
ste	-4383
▁Times	-4384
▁expand	-4385
▁pretty	-4386
▁earlier	-4387
FL	-4388
no	-4389
▁Ly	-4390
ibly	-4391
ruit	-4392
▁Raj	-4393
▁cat	-4394
inner	-4395
▁decor	-4396
▁ur	-4397
▁Luc	-4398
▁ran	-4399
▁2005	-4400
▁Prot	-4401
▁trip	-4402
▁fully	-4403
▁happy	-4404
▁mouth	-4405
ylvania	-4406
▁option	-4407
cher	-4408
ogue	-4409
▁whom	-4410
ipping	-4411
▁Stand	-4412
▁assigned	-4413
23	-4414
▁Jo	-4415
▁Ut	-4416
▁div	-4417
ously	-4418
▁stra	-4419
▁nature	-4420
▁resources	-4421
▁Ty	-4422
rief	-4423
▁lack	-4424
▁vehicle	-4425
yes	-4426
▁4,	-4427
▁pen	-4428
▁tell	-4429
▁Charl	-4430
▁psych	-4431
▁street	-4432
▁machine	-4433
▁expatriate	-4434
▁gives	-4435
▁image	-4436
▁voice	-4437
▁register	-4438
▁scheduled	-4439
▁Fer	-4440
▁cas	-4441
▁Call	-4442
▁cert	-4443
▁surn	-4444
▁Master	-4445
▁necessary	-4446
▁guitar	-4447
▁Scottish	-4448
▁nine	-4449
▁hands	-4450
▁route	-4451
▁Junior	-4452
▁nation	-4453
▁musical	-4454
▁offered	-4455
erved	-4456
▁pred	-4457
▁user	-4458
▁Penns	-4459
▁noted	-4460
▁mobile	-4461
▁Further	-4462
▁faculty	-4463
▁Att	-4464
▁Down	-4465
▁citiz	-4466
▁altern	-4467
stra	-4468
▁Ohio	-4469
▁demon	-4470
▁rules	-4471
▁Argent	-4472
mm	-4473
▁businesses	-4474
US	-4475
▁ec	-4476
cape	-4477
iant	-4478
iately	-4479
▁owner	-4480
▁majority	-4481
▁Pennsylvania	-4482
▁er	-4483
imin	-4484
edding	-4485
▁Const	-4486
▁double	-4487
▁attract	-4488
▁Hospital	-4489
aks	-4490
sen	-4491
ses	-4492
▁sale	-4493
▁entry	-4494
▁profession	-4495
bur	-4496
rong	-4497
▁dro	-4498
▁Week	-4499
▁word	-4500
vention	-4501
▁clients	-4502
▁analysis	-4503
▁hospital	-4504
▁Id	-4505
road	-4506
▁sea	-4507
▁1988	-4508
▁write	-4509
▁forces	-4510
▁turned	-4511
▁foreign	-4512
▁expected	-4513
▁progress	-4514
45	-4515
ooth	-4516
▁Mah	-4517
▁2006	-4518
XX	-4519
awa	-4520
itzer	-4521
▁1968	-4522
▁shown	-4523
▁train	-4524
▁introduced	-4525
EN	-4526
▁Bh	-4527
▁Face	-4528
▁Jack	-4529
▁piece	-4530
▁2002	-4531
▁grew	-4532
▁recommend	-4533
kins	-4534
▁Their	-4535
▁morning	-4536
uts	-4537
▁Ke	-4538
ager	-4539
▁Lac	-4540
▁hop	-4541
▁Johnson	-4542
▁supported	-4543
ext	-4544
oses	-4545
▁Tre	-4546
▁isn	-4547
▁Ministry	-4548
▁officers	-4549
//	-4550
place	-4551
70	-4552
ami	-4553
azz	-4554
elled	-4555
▁Organ	-4556
▁Google	-4557
▁models	-4558
▁neighbor	-4559
aya	-4560
rugg	-4561
▁Ins	-4562
rance	-4563
▁2017.	-4564
▁Enter	-4565
▁wonder	-4566
▁Angeles	-4567
▁academic	-4568
▁Brazilian	-4569
inct	-4570
▁Der	-4571
▁sun	-4572
▁diss	-4573
▁felt	-4574
▁sail	-4575
opping	-4576
▁exact	-4577
hab	-4578
▁drop	-4579
▁Studies	-4580
▁Support	-4581
▁Gen	-4582
▁dark	-4583
▁Bibli	-4584
▁growing	-4585
▁qualified	-4586
iat	-4587
▁Once	-4588
▁lines	-4589
▁Winter	-4590
ipe	-4591
▁60	-4592
etts	-4593
▁lawy	-4594
▁load	-4595
▁2015,	-4596
▁Prime	-4597
ructure	-4598
▁completely	-4599
▁structures	-4600
ora	-4601
▁Av	-4602
▁Mov	-4603
▁Mun	-4604
track	-4605
▁bath	-4606
▁initi	-4607
▁threat	-4608
▁benefits	-4609
yan	-4610
▁Old	-4611
orpor	-4612
ancing	-4613
▁minor	-4614
▁tools	-4615
▁bronze	-4616
▁Indones	-4617
▁saying	-4618
▁winners	-4619
▁patients	-4620
life	-4621
▁Wal	-4622
▁thr	-4623
▁2004	-4624
▁Time	-4625
▁wild	-4626
▁costs	-4627
▁mount	-4628
▁trial	-4629
ologist	-4630
▁prison	-4631
▁physical	-4632
://	-4633
ova	-4634
▁Mir	-4635
▁Tro	-4636
▁wel	-4637
iques	-4638
▁replace	-4639
▁advanced	-4640
▁80	-4641
ugby	-4642
▁Bol	-4643
▁Det	-4644
irmed	-4645
▁basis	-4646
▁Edward	-4647
▁employees	-4648
iser	-4649
▁2003	-4650
▁fair	-4651
▁draft	-4652
▁passed	-4653
ologists	-4654
▁Journal	-4655
▁leadership	-4656
90	-4657
500	-4658
▁Max	-4659
▁gas	-4660
▁von	-4661
▁dipl	-4662
▁charge	-4663
▁setting	-4664
isf	-4665
▁Ec	-4666
greg	-4667
▁III	-4668
▁uns	-4669
▁closed	-4670
▁experi	-4671
onym	-4672
▁swim	-4673
▁Martin	-4674
▁Sunday	-4675
▁larger	-4676
▁remain	-4677
▁follows	-4678
▁parties	-4679
▁solutions	-4680
ko	-4681
bers	-4682
▁Lord	-4683
▁roll	-4684
▁avoid	-4685
▁blood	-4686
▁Philippines	-4687
ela	-4688
onn	-4689
pet	-4690
▁FI	-4691
▁Gi	-4692
▁spl	-4693
achus	-4694
▁arrived	-4695
urb	-4696
▁USA	-4697
error	-4698
▁tree	-4699
▁Power	-4700
▁prote	-4701
▁select	-4702
▁amazing	-4703
▁destroy	-4704
▁respond	-4705
▁Weightlifters	-4706
▁5,	-4707
ieut	-4708
▁Tok	-4709
▁cab	-4710
▁Corps	-4711
▁aspect	-4712
▁Premier	-4713
▁[	-4714
▁Os	-4715
resp	-4716
▁dyn	-4717
oston	-4718
▁2023,	-4719
▁begin	-4720
▁safety	-4721
▁taught	-4722
▁temper	-4723
▁Finland	-4724
▁request	-4725
▁evidence	-4726
▁dedicated	-4727
▁transferred	-4728
ée	-4729
ucky	-4730
uing	-4731
▁Rod	-4732
▁Sem	-4733
▁Vis	-4734
▁Minn	-4735
▁goes	-4736
▁2014,	-4737
▁Queen	-4738
▁daily	-4739
▁occas	-4740
▁Labour	-4741
▁Quebec	-4742
▁climate	-4743
▁covered	-4744
▁Medalists	-4745
):	-4746
SP	-4747
▁Up	-4748
▁Whe	-4749
estic	-4750
▁Jean	-4751
ackson	-4752
▁Major	-4753
▁chance	-4754
standing	-4755
▁finally	-4756
▁serious	-4757
án	-4758
uan	-4759
▁Dec	-4760
▁Finn	-4761
▁Step	-4762
▁owned	-4763
▁leaving	-4764
arant	-4765
itely	-4766
▁Fort	-4767
▁Slov	-4768
▁Works	-4769
▁produce	-4770
achusetts	-4771
iy	-4772
ji	-4773
▁Ox	-4774
more	-4775
▁Get	-4776
▁News	-4777
▁gets	-4778
▁sport	-4779
▁Gallery	-4780
▁focused	-4781
▁5.	-4782
bury	-4783
▁tow	-4784
▁looks	-4785
▁Review	-4786
▁Thanks	-4787
▁images	-4788
▁competitions	-4789
avi	-4790
zech	-4791
▁sequ	-4792
▁spot	-4793
▁analy	-4794
▁pattern	-4795
▁ke	-4796
ophy	-4797
▁pra	-4798
▁(2019	-4799
atively	-4800
▁immediately	-4801
▁CD	-4802
▁SE	-4803
▁Ul	-4804
▁har	-4805
itter	-4806
oster	-4807
▁shall	-4808
▁territ	-4809
phy	-4810
uke	-4811
▁1976	-4812
▁caused	-4813
▁moment	-4814
▁spirit	-4815
▁spring	-4816
▁Pacific	-4817
▁effects	-4818
▁appearance	-4819
▁Ret	-4820
▁Sin	-4821
▁king	-4822
▁susp	-4823
restling	-4824
▁federal	-4825
▁episodes	-4826
▁Tournament	-4827
0,000	-4828
▁Disc	-4829
▁prec	-4830
▁Staff	-4831
▁force	-4832
▁elements	-4833
▁increased	-4834
LA	-4835
do	-4836
zy	-4837
▁Ah	-4838
▁bound	-4839
▁nothing	-4840
▁situation	-4841
▁increasing	-4842
▁Massachusetts	-4843
OT	-4844
leet	-4845
▁180	-4846
isher	-4847
▁cool	-4848
▁Transport	-4849
▁35	-4850
iang	-4851
force	-4852
▁else	-4853
▁helps	-4854
▁Jackson	-4855
▁managed	-4856
▁fine	-4857
▁laws	-4858
▁Boston	-4859
▁athlet	-4860
▁mechan	-4861
ieutenant	-4862
mod	-4863
lete	-4864
▁pages	-4865
▁Valley	-4866
▁efforts	-4867
▁literature	-4868
ez	-4869
▁tro	-4870
▁Even	-4871
▁flag	-4872
▁Czech	-4873
▁metal	-4874
▁cancer	-4875
▁fashion	-4876
▁Chair	-4877
▁museum	-4878
onom	-4879
▁tim	-4880
ellig	-4881
▁hour	-4882
▁sculpt	-4883
▁convers	-4884
75	-4885
▁Far	-4886
▁1995	-4887
▁Frid	-4888
▁Satur	-4889
▁critical	-4890
rics	-4891
▁Bal	-4892
abeth	-4893
▁Four	-4894
▁clin	-4895
ologies	-4896
▁integr	-4897
▁council	-4898
▁Infantry	-4899
pan	-4900
unte	-4901
riage	-4902
▁Province	-4903
ao	-4904
aling	-4905
anner	-4906
usion	-4907
▁Mexican	-4908
▁Academic	-4909
▁Scotland	-4910
▁teaching	-4911
▁Lim	-4912
▁roles	-4913
▁broadcast	-4914
▁university	-4915
▁u	-4916
▁("	-4917
▁Les	-4918
▁Read	-4919
▁corpor	-4920
▁strugg	-4921
▁retired	-4922
▁schedule	-4923
CAA	-4924
ech	-4925
▁bra	-4926
▁poor	-4927
attery	-4928
icians	-4929
▁Indust	-4930
▁murder	-4931
▁carried	-4932
▁favorite	-4933
▁historical	-4934
")	-4935
oto	-4936
▁rap	-4937
prise	-4938
▁1997	-4939
▁dead	-4940
▁seats	-4941
▁seems	-4942
▁spons	-4943
▁Places	-4944
▁reasons	-4945
▁workers	-4946
▁Management	-4947
amin	-4948
▁Mic	-4949
undred	-4950
▁Anton	-4951
▁stock	-4952
igation	-4953
▁Before	-4954
▁Little	-4955
▁Middle	-4956
▁scholars	-4957
BS	-4958
can	-4959
eed	-4960
▁Hu	-4961
▁cars	-4962
▁sector	-4963
▁articles	-4964
Th	-4965
fit	-4966
▁TH	-4967
ffee	-4968
▁Ash	-4969
▁sav	-4970
▁Coast	-4971
▁Today	-4972
▁fellow	-4973
▁govern	-4974
▁requirements	-4975
▁Jr	-4976
rupt	-4977
▁Jul	-4978
▁2001	-4979
▁doub	-4980
▁holid	-4981
▁Season	-4982
set	-4983
▁Log	-4984
rence	-4985
▁1991	-4986
▁Pres	-4987
asters	-4988
enture	-4989
illery	-4990
▁meaning	-4991
▁Cro	-4992
▁Corn	-4993
▁belong	-4994
▁kitchen	-4995
We	-4996
▁roof	-4997
▁Death	-4998
▁Battle	-4999
▁Senior	-5000
▁anyone	-5001
▁except	-5002
▁letter	-5003
▁serves	-5004
▁essential	-5005
amber	-5006
▁1993	-5007
▁Kent	-5008
▁feet	-5009
▁understanding	-5010
▁Key	-5011
ublin	-5012
▁Born	-5013
▁micro	-5014
▁leaves	-5015
▁sources	-5016
▁solution	-5017
▁initially	-5018
CO	-5019
ums	-5020
mond	-5021
oles	-5022
apore	-5023
ronic	-5024
▁Blue	-5025
▁send	-5026
rolled	-5027
▁descent	-5028
▁victory	-5029
▁resident	-5030
▁selection	-5031
▁communities	-5032
▁1984	-5033
▁alleg	-5034
▁rates	-5035
▁Family	-5036
▁winter	-5037
irection	-5038
▁purpose	-5039
▁Facebook	-5040
▁remember	-5041
▁challenge	-5042
▁33	-5043
▁Sri	-5044
▁Last	-5045
▁Wars	-5046
▁Portug	-5047
▁leaders	-5048
▁confirmed	-5049
sk	-5050
ione	-5051
▁cra	-5052
▁1975	-5053
▁apply	-5054
▁aware	-5055
▁coast	-5056
▁peace	-5057
▁sense	-5058
▁forced	-5059
▁instruct	-5060
▁jun	-5061
▁imag	-5062
▁chart	-5063
▁thous	-5064
▁Internet	-5065
▁proposed	-5066
▁slow	-5067
▁2022.	-5068
▁colon	-5069
▁protection	-5070
FF	-5071
mes	-5072
list	-5073
▁Eliz	-5074
▁spread	-5075
▁succeed	-5076
▁suggest	-5077
vo	-5078
bed	-5079
rep	-5080
▁Gar	-5081
orney	-5082
▁Form	-5083
▁Squad	-5084
rainian	-5085
▁society	-5086
mir	-5087
east	-5088
enness	-5089
▁proced	-5090
org	-5091
▁90	-5092
▁Ba	-5093
▁Web	-5094
cient	-5095
ordin	-5096
ropri	-5097
▁photos	-5098
200	-5099
aste	-5100
▁arm	-5101
▁ven	-5102
antly	-5103
▁1972	-5104
▁sust	-5105
▁Media	-5106
▁figure	-5107
▁despite	-5108
MP	-5109
▁Sir	-5110
▁1964	-5111
▁older	-5112
▁depart	-5113
bit	-5114
iced	-5115
▁door	-5116
▁feed	-5117
▁budget	-5118
▁Project	-5119
▁distance	-5120
▁af	-5121
▁12,	-5122
▁Civil	-5123
▁forms	-5124
▁advant	-5125
zd	-5126
ori	-5127
zen	-5128
with	-5129
▁gall	-5130
▁Maria	-5131
▁glass	-5132
▁committee	-5133
▁Kim	-5134
▁Game	-5135
▁crew	-5136
▁purs	-5137
▁Radio	-5138
▁hotel	-5139
▁labor	-5140
respond	-5141
▁format	-5142
▁island	-5143
▁nearly	-5144
▁pieces	-5145
▁Federal	-5146
▁picture	-5147
▁discovered	-5148
▁Ur	-5149
▁Son	-5150
▁pil	-5151
gment	-5152
▁Supreme	-5153
▁Independ	-5154
▁Singapore	-5155
▁architecture	-5156
iny	-5157
▁8,	-5158
▁blue	-5159
▁cash	-5160
▁2016.	-5161
istance	-5162
▁journey	-5163
▁facilities	-5164
ocks	-5165
▁Ari	-5166
▁Ell	-5167
▁battle	-5168
▁univers	-5169
▁cultural	-5170
It	-5171
▁Po	-5172
works	-5173
arters	-5174
▁Clark	-5175
▁famous	-5176
▁shared	-5177
▁encoura	-5178
▁Saturday	-5179
▁regional	-5180
▁$1	-5181
▁pool	-5182
▁Jesus	-5183
▁Santa	-5184
▁dance	-5185
▁photo	-5186
▁technical	-5187
▁Governorate	-5188
▁Cab	-5189
▁fab	-5190
▁NCAA	-5191
▁Qual	-5192
▁Track	-5193
▁exerc	-5194
▁Railway	-5195
▁appoint	-5196
▁correct	-5197
▁driving	-5198
▁Colorado	-5199
▁Community	-5200
▁weightlif	-5201
▁Bibliography	-5202
▁Bob	-5203
▁rob	-5204
▁flow	-5205
▁defend	-5206
▁illustr	-5207
▁excellent	-5208
▁applications	-5209
cles	-5210
ques	-5211
▁Pier	-5212
▁sort	-5213
▁Round	-5214
▁premier	-5215
▁Ukrainian	-5216
▁opportunities	-5217
nam	-5218
▁aw	-5219
haps	-5220
▁eth	-5221
ategy	-5222
▁Fund	-5223
▁brief	-5224
▁Library	-5225
▁contest	-5226
▁residents	-5227
dy	-5228
illy	-5229
burgh	-5230
inity	-5231
▁Lead	-5232
▁nice	-5233
▁paid	-5234
▁honor	-5235
▁Any	-5236
▁ang	-5237
▁Hand	-5238
▁scen	-5239
▁warm	-5240
achelor	-5241
▁Daniel	-5242
▁researc	-5243
▁surname	-5244
▁champions	-5245
▁recording	-5246
▁=	-5247
ror	-5248
lers	-5249
▁pal	-5250
▁1930	-5251
▁Khan	-5252
▁Mond	-5253
▁shop	-5254
▁classes	-5255
▁methods	-5256
▁weather	-5257
▁remaining	-5258
ua	-5259
hop	-5260
rows	-5261
▁Moh	-5262
▁Ven	-5263
▁Bell	-5264
▁Bern	-5265
▁plants	-5266
▁channel	-5267
▁existing	-5268
▁nort	-5269
finals	-5270
▁genus	-5271
▁tennis	-5272
▁Eastern	-5273
▁7,	-5274
lades	-5275
▁estim	-5276
▁homes	-5277
▁votes	-5278
▁remains	-5279
OS	-5280
key	-5281
▁Ren	-5282
▁task	-5283
ressive	-5284
▁advert	-5285
▁accepted	-5286
▁baseball	-5287
-4	-5288
ca	-5289
udi	-5290
yond	-5291
▁Both	-5292
▁Wall	-5293
▁poll	-5294
▁vocals	-5295
▁ordered	-5296
TC	-5297
”.	-5298
enna	-5299
▁Mans	-5300
▁approx	-5301
▁memory	-5302
▁supply	-5303
▁Administ	-5304
▁audience	-5305
▁politics	-5306
▁pressure	-5307
▁Francisco	-5308
zh	-5309
phone	-5310
▁Poland	-5311
▁affili	-5312
▁beyond	-5313
▁Britain	-5314
▁benefit	-5315
▁renamed	-5316
▁positions	-5317
▁6,	-5318
▁Imp	-5319
range	-5320
▁Cost	-5321
▁Girl	-5322
▁thus	-5323
▁Swiss	-5324
▁ahead	-5325
▁theme	-5326
igrants	-5327
▁Friday	-5328
▁philos	-5329
ographer	-5330
▁Affairs	-5331
▁religious	-5332
▁)	-5333
ouri	-5334
▁gar	-5335
iture	-5336
▁Real	-5337
▁Stan	-5338
▁Trust	-5339
▁withd	-5340
▁reduce	-5341
▁candidates	-5342
1"	-5343
▁6.	-5344
▁fell	-5345
iminal	-5346
▁recip	-5347
ervation	-5348
▁subsequently	-5349
ét	-5350
anna	-5351
lies	-5352
raine	-5353
▁Stat	-5354
▁fort	-5355
▁2013,	-5356
▁hosted	-5357
▁reflect	-5358
▁strateg	-5359
▁Banglades	-5360
wise	-5361
▁Dev	-5362
▁alt	-5363
ivate	-5364
▁1989	-5365
▁doll	-5366
achers	-5367
▁assess	-5368
▁Theatre	-5369
▁hundred	-5370
▁Federation	-5371
▁investment	-5372
box	-5373
hew	-5374
▁Li	-5375
anga	-5376
▁Taiwan	-5377
▁injury	-5378
▁vehicles	-5379
▁mentioned	-5380
▁dry	-5381
inent	-5382
▁Crit	-5383
▁Sign	-5384
▁Common	-5385
▁border	-5386
▁diplom	-5387
▁demonstr	-5388
▁obtained	-5389
▁straight	-5390
ef	-5391
ims	-5392
▁fan	-5393
▁align	-5394
▁appre	-5395
▁driver	-5396
▁advance	-5397
▁operated	-5398
▁regarding	-5399
▁therefore	-5400
▁Fem	-5401
▁Pop	-5402
▁Tay	-5403
ician	-5404
icted	-5405
▁Line	-5406
▁Publ	-5407
▁mill	-5408
▁vide	-5409
▁overs	-5410
▁tried	-5411
▁citizens	-5412
▁Representatives	-5413
MS	-5414
▁Ob	-5415
teen	-5416
▁Bad	-5417
▁McC	-5418
▁Sher	-5419
▁Jacob	-5420
▁cancell	-5421
▁greater	-5422
itzerland	-5423
▁creative	-5424
ns	-5425
ava	-5426
atab	-5427
▁15,	-5428
▁opin	-5429
▁Three	-5430
▁Tokyo	-5431
▁basic	-5432
▁Connect	-5433
▁compared	-5434
▁Background	-5435
oli	-5436
pur	-5437
aven	-5438
▁Hor	-5439
rical	-5440
▁1948	-5441
▁huge	-5442
▁util	-5443
anning	-5444
▁Chris	-5445
▁titled	-5446
▁offering	-5447
▁administrative	-5448
asy	-5449
war	-5450
▁Lo	-5451
▁Ts	-5452
osis	-5453
▁htt	-5454
▁Rome	-5455
▁Vill	-5456
▁elev	-5457
▁satisf	-5458
▁wedding	-5459
▁commander	-5460
▁construct	-5461
▁featuring	-5462
28	-5463
sey	-5464
ribute	-5465
▁Latin	-5466
▁piano	-5467
▁repair	-5468
▁governor	-5469
▁statement	-5470
▁experiences	-5471
bro	-5472
met	-5473
asty	-5474
gest	-5475
ially	-5476
▁Fair	-5477
actions	-5478
ributed	-5479
▁Dublin	-5480
▁Forest	-5481
▁Police	-5482
▁influence	-5483
▁Municipality	-5484
miss	-5485
oren	-5486
gency	-5487
orter	-5488
▁harm	-5489
ightly	-5490
▁Corpor	-5491
ographic	-5492
▁Elizabeth	-5493
▁Lin	-5494
▁Saf	-5495
▁virt	-5496
▁Sched	-5497
▁Another	-5498
▁internet	-5499
ima	-5500
▁PC	-5501
ucle	-5502
▁Jer	-5503
▁Chap	-5504
▁pair	-5505
friend	-5506
▁mixed	-5507
oration	-5508
▁Kansas	-5509
▁cities	-5510
▁demand	-5511
▁Islands	-5512
▁Reserve	-5513
▁experienced	-5514
-5	-5515
cor	-5516
ker	-5517
ogen	-5518
▁bow	-5519
▁rom	-5520
where	-5521
▁1987	-5522
▁Base	-5523
▁hear	-5524
▁Korea	-5525
▁Oxford	-5526
▁Indiana	-5527
▁officially	-5528
35	-5529
una	-5530
eller	-5531
ensus	-5532
ester	-5533
hemat	-5534
ifying	-5535
onents	-5536
▁Golden	-5537
ennessee	-5538
▁entertain	-5539
▁70	-5540
igen	-5541
▁Tan	-5542
ishes	-5543
state	-5544
▁1986	-5545
▁Human	-5546
▁Stock	-5547
▁cells	-5548
▁dress	-5549
▁drink	-5550
▁Sweden	-5551
▁helping	-5552
▁thinking	-5553
IP	-5554
3),	-5555
vant	-5556
▁10,	-5557
acter	-5558
▁repe	-5559
▁polic	-5560
▁direction	-5561
▁definitely	-5562
EP	-5563
ho	-5564
ić	-5565
vin	-5566
▁...	-5567
▁Hun	-5568
▁Kir	-5569
▁Rap	-5570
▁solo	-5571
ighter	-5572
▁views	-5573
▁prefer	-5574
▁appears	-5575
▁contain	-5576
▁designs	-5577
▁session	-5578
▁engineering	-5579
▁sportspeople	-5580
gu	-5581
aro	-5582
▁Coll	-5583
▁peak	-5584
▁2015.	-5585
▁Field	-5586
▁holds	-5587
▁numbers	-5588
▁planned	-5589
▁operation	-5590
▁exhibition	-5591
88	-5592
gn	-5593
dro	-5594
adel	-5595
▁kept	-5596
▁wait	-5597
colspan	-5598
▁mostly	-5599
▁reform	-5600
▁showed	-5601
▁correspond	-5602
-18	-5603
utt	-5604
▁32	-5605
▁enh	-5606
cript	-5607
▁YouT	-5608
▁Hawai	-5609
▁Sport	-5610
▁motor	-5611
▁client	-5612
▁consists	-5613
▁creation	-5614
▁province	-5615
▁separate	-5616
▁Tennessee	-5617
▁Professional	-5618
1%	-5619
alle	-5620
ayer	-5621
care	-5622
imal	-5623
secut	-5624
▁cold	-5625
fluence	-5626
pective	-5627
tenance	-5628
▁acting	-5629
▁exclus	-5630
▁extrem	-5631
▁smaller	-5632
▁traffic	-5633
▁acquired	-5634
▁composed	-5635
▁Mix	-5636
▁hab	-5637
▁Anth	-5638
▁Jones	-5639
▁houses	-5640
▁normal	-5641
▁courses	-5642
▁Switzerland	-5643
65	-5644
AL	-5645
GB	-5646
oted	-5647
▁Arm	-5648
▁Ent	-5649
▁Pen	-5650
▁Sud	-5651
▁Syd	-5652
aming	-5653
uries	-5654
▁note	-5655
▁vice	-5656
▁Micro	-5657
▁device	-5658
▁Brigade	-5659
▁billion	-5660
▁musicians	-5661
▁connection	-5662
gor	-5663
rey	-5664
idel	-5665
▁Lank	-5666
▁Short	-5667
viation	-5668
▁advice	-5669
▁mainly	-5670
▁princip	-5671
▁developing	-5672
AP	-5673
eld	-5674
▁aux	-5675
agram	-5676
▁fant	-5677
▁theory	-5678
▁Station	-5679
▁reality	-5680
▁presence	-5681
▁constituency	-5682
▁publications	-5683
IM	-5684
ulate	-5685
▁pull	-5686
▁script	-5687
▁Justice	-5688
▁Network	-5689
▁Through	-5690
▁listing	-5691
▁organized	-5692
No	-5693
law	-5694
rat	-5695
▁16,	-5696
▁Dam	-5697
▁Sum	-5698
▁Capt	-5699
▁message	-5700
ears	-5701
▁bill	-5702
iments	-5703
▁spect	-5704
▁failed	-5705
▁counter	-5706
▁funding	-5707
▁proceed	-5708
▁Pakistan	-5709
▁appropri	-5710
▁9,	-5711
mers	-5712
▁Why	-5713
ctors	-5714
▁rich	-5715
▁Books	-5716
▁Night	-5717
▁instr	-5718
▁judge	-5719
▁measure	-5720
▁designer	-5721
▁incorpor	-5722
▁nominated	-5723
pping	-5724
▁Kenn	-5725
▁Like	-5726
▁beat	-5727
▁gained	-5728
▁videos	-5729
▁Foreign	-5730
▁electric	-5731
▁situated	-5732
▁operating	-5733
▁identified	-5734
29	-5735
▁Band	-5736
▁limit	-5737
▁scene	-5738
ription	-5739
▁launch	-5740
▁Despite	-5741
▁aircraft	-5742
▁facility	-5743
background	-5744
ifications	-5745
osl	-5746
▁furn	-5747
ocated	-5748
▁concent	-5749
▁reports	-5750
▁weekend	-5751
▁category	-5752
▁supporting	-5753
▁interesting	-5754
▁à	-5755
equ	-5756
hat	-5757
▁Sky	-5758
▁Hamp	-5759
▁fifth	-5760
▁label	-5761
▁smart	-5762
▁latter	-5763
▁southern	-5764
rapy	-5765
▁Fire	-5766
▁Show	-5767
▁onto	-5768
▁myself	-5769
▁racing	-5770
▁chairman	-5771
▁continues	-5772
ão	-5773
▁Bec	-5774
▁Tal	-5775
inson	-5776
▁Light	-5777
▁Thank	-5778
▁Region	-5779
▁easier	-5780
outheast	-5781
▁Cambridge	-5782
Un	-5783
ii	-5784
kh	-5785
▁Il	-5786
▁Dun	-5787
▁Lew	-5788
▁Sus	-5789
▁syn	-5790
▁lect	-5791
▁appeal	-5792
▁engineer	-5793
▁inspired	-5794
rig	-5795
▁Ali	-5796
▁newly	-5797
▁beauty	-5798
▁revealed	-5799
▁receiving	-5800
▁techniques	-5801
▁administration	-5802
5%	-5803
dam	-5804
rene	-5805
▁pod	-5806
▁essay	-5807
▁sleep	-5808
▁prices	-5809
▁achieve	-5810
▁strength	-5811
▁•	-5812
anche	-5813
▁emot	-5814
▁Songs	-5815
▁cerem	-5816
▁wrong	-5817
▁Alumni	-5818
▁Disney	-5819
▁Malays	-5820
▁afford	-5821
▁economy	-5822
▁minister	-5823
▁northern	-5824
▁respectively	-5825
bu	-5826
▁500	-5827
inder	-5828
▁1941	-5829
▁arts	-5830
▁copy	-5831
▁rule	-5832
▁symb	-5833
▁2012,	-5834
▁cards	-5835
▁owners	-5836
▁Description	-5837
Ph	-5838
▁+	-5839
din	-5840
tain	-5841
▁Joe	-5842
▁fuel	-5843
itness	-5844
▁assum	-5845
▁Muslim	-5846
▁documents	-5847
▁Production	-5848
kin	-5849
lyn	-5850
osen	-5851
▁End	-5852
▁Pers	-5853
▁Phys	-5854
▁multi	-5855
uration	-5856
▁bottom	-5857
▁Addition	-5858
▁combined	-5859
▁pictures	-5860
▁industrial	-5861
alo	-5862
▁EP	-5863
rome	-5864
▁Jon	-5865
writer	-5866
▁Airport	-5867
▁Basketball	-5868
aud	-5869
vard	-5870
▁18,	-5871
▁Nic	-5872
▁(195	-5873
▁Mike	-5874
▁snow	-5875
▁beach	-5876
▁funds	-5877
raduate	-5878
▁Danish	-5879
▁Sydney	-5880
▁nearby	-5881
▁visual	-5882
▁volunte	-5883
▁Mountain	-5884
▁extended	-5885
▁difference	-5886
win	-5887
▁IN	-5888
onto	-5889
▁Ker	-5890
▁Pot	-5891
▁fish	-5892
▁rain	-5893
▁bought	-5894
▁exactly	-5895
▁removed	-5896
▁Schedule	-5897
▁newspaper	-5898
▁contemporary	-5899
Le	-5900
▁*	-5901
ais	-5902
▁boy	-5903
▁vess	-5904
encing	-5905
marine	-5906
season	-5907
▁loved	-5908
▁posted	-5909
▁Windows	-5910
▁flowers	-5911
▁educational	-5912
26	-5913
▁Si	-5914
isor	-5915
term	-5916
▁1985	-5917
▁Ocean	-5918
▁wheel	-5919
▁county	-5920
▁friendly	-5921
oir	-5922
pre	-5923
▁BC	-5924
▁Div	-5925
▁Rot	-5926
inema	-5927
water	-5928
▁cart	-5929
▁wish	-5930
▁Greek	-5931
▁Guard	-5932
▁spend	-5933
▁colour	-5934
▁infect	-5935
▁Stadium	-5936
2),	-5937
;"|	-5938
wegian	-5939
▁Creek	-5940
▁agent	-5941
▁Andrew	-5942
▁losing	-5943
atically	-5944
▁Medicine	-5945
▁Alexander	-5946
▁weightlifter	-5947
▁approximately	-5948
7),	-5949
anta	-5950
door	-5951
▁Dig	-5952
▁Food	-5953
▁Live	-5954
▁gift	-5955
▁rare	-5956
anging	-5957
▁earth	-5958
▁wants	-5959
▁Johann	-5960
▁Taylor	-5961
▁secret	-5962
ifically	-5963
▁maximum	-5964
▁journalist	-5965
ias	-5966
▁IT	-5967
ZZZZ	-5968
edom	-5969
▁11,	-5970
▁Sea	-5971
▁Walk	-5972
▁jump	-5973
▁Earth	-5974
▁adapt	-5975
▁femin	-5976
▁stone	-5977
▁Compet	-5978
▁Nations	-5979
▁YouTube	-5980
▁committed	-5981
obe	-5982
emet	-5983
onia	-5984
▁17,	-5985
esota	-5986
▁trou	-5987
▁shape	-5988
ouncill	-5989
▁Belgian	-5990
▁applied	-5991
▁marriage	-5992
▁purchased	-5993
▁restaurant	-5994
ET	-5995
enz	-5996
▁20,	-5997
▁Vice	-5998
▁dial	-5999
▁fram	-6000
▁guide	-6001
▁twice	-6002
▁surrounding	-6003
:#	-6004
="18	-6005
▁mis	-6006
onent	-6007
▁lock	-6008
incial	-6009
▁Laure	-6010
▁issued	-6011
unicipal	-6012
▁claimed	-6013
▁housing	-6014
▁identity	-6015
▁intended	-6016
▁locations	-6017
▁officials	-6018
dr	-6019
idae	-6020
▁Cre	-6021
▁Fac	-6022
▁bag	-6023
▁cup	-6024
▁1965	-6025
▁Circ	-6026
▁sets	-6027
▁tool	-6028
▁Video	-6029
▁ranked	-6030
▁soccer	-6031
▁Because	-6032
▁feeling	-6033
▁strategy	-6034
▁Norwegian	-6035
▁Revolution	-6036
Ar	-6037
aug	-6038
▁Mas	-6039
▁Sav	-6040
▁Sel	-6041
▁Only	-6042
▁Liter	-6043
vements	-6044
▁Finnish	-6045
▁factors	-6046
▁typically	-6047
▁environmental	-6048
irt	-6049
▁SS	-6050
ello	-6051
uses	-6052
▁Equ	-6053
▁tru	-6054
osure	-6055
▁1966	-6056
▁calls	-6057
▁trail	-6058
emetery	-6059
▁becomes	-6060
▁guarant	-6061
▁challenges	-6062
▁scientists	-6063
jo	-6064
▁IS	-6065
▁25,	-6066
▁Dar	-6067
▁ped	-6068
▁Barb	-6069
▁Mand	-6070
▁samp	-6071
▁divid	-6072
▁Legisl	-6073
▁coffee	-6074
▁flight	-6075
▁sharing	-6076
▁unknown	-6077
▁conducted	-6078
▁secondary	-6079
76	-6080
▁IM	-6081
bour	-6082
▁Due	-6083
▁Han	-6084
stone	-6085
▁1956	-6086
▁1979	-6087
▁Jeff	-6088
▁baby	-6089
▁plus	-6090
▁rooms	-6091
related	-6092
▁Modern	-6093
▁Ukraine	-6094
▁Austrian	-6095
▁agreement	-6096
▁institutions	-6097
ía	-6098
▁Ky	-6099
fall	-6100
▁Fil	-6101
▁die	-6102
▁egg	-6103
▁pros	-6104
urches	-6105
▁subst	-6106
▁Miller	-6107
▁devices	-6108
elligence	-6109
▁Minnesota	-6110
count	-6111
▁semi	-6112
▁throw	-6113
▁window	-6114
▁Austria	-6115
▁Product	-6116
aki	-6117
▁AN	-6118
▁eye	-6119
▁san	-6120
▁Holy	-6121
▁cycl	-6122
▁Beach	-6123
▁alone	-6124
▁trees	-6125
▁Anderson	-6126
▁Children	-6127
▁Victoria	-6128
▁concerns	-6129
▁exchange	-6130
▁powerful	-6131
▁consisted	-6132
OU	-6133
ür	-6134
net	-6135
ois	-6136
rim	-6137
unc	-6138
zer	-6139
▁il	-6140
▁Orig	-6141
▁Utah	-6142
▁advantage	-6143
▁scientific	-6144
▁neighborhood	-6145
▁CA	-6146
▁ir	-6147
heim	-6148
▁30,	-6149
▁CEO	-6150
▁Fight	-6151
▁Naval	-6152
▁miles	-6153
▁Colomb	-6154
▁branch	-6155
▁retire	-6156
▁Security	-6157
RI	-6158
claim	-6159
going	-6160
▁Brad	-6161
▁coal	-6162
▁faith	-6163
▁urban	-6164
▁answer	-6165
▁square	-6166
▁evening	-6167
▁founder	-6168
▁Hampshire	-6169
▁Engineering	-6170
▁ly	-6171
organ	-6172
▁Hans	-6173
▁Chile	-6174
▁tracks	-6175
bassador	-6176
▁allowing	-6177
▁recognized	-6178
▁communication	-6179
De	-6180
ING	-6181
▁Ku	-6182
mary	-6183
▁Bos	-6184
▁tom	-6185
▁prepar	-6186
▁Turkish	-6187
▁graduate	-6188
▁Reception	-6189
▁promotion	-6190
coh	-6191
osa	-6192
▁Sn	-6193
▁ap	-6194
azon	-6195
lock	-6196
▁Kel	-6197
▁matt	-6198
▁guest	-6199
▁Silver	-6200
▁Wilson	-6201
▁conclud	-6202
▁invited	-6203
▁monitor	-6204
▁Memorial	-6205
▁Williams	-6206
aux	-6207
agen	-6208
▁Ira	-6209
ounce	-6210
stein	-6211
▁edge	-6212
rovers	-6213
▁Hotel	-6214
ecutive	-6215
▁comput	-6216
66	-6217
An	-6218
▁AP	-6219
▁Ra	-6220
▁Tax	-6221
▁Tun	-6222
andon	-6223
chair	-6224
▁Belg	-6225
▁Youth	-6226
▁heard	-6227
▁Online	-6228
▁Source	-6229
▁claims	-6230
▁payment	-6231
▁arrested	-6232
▁festival	-6233
▁historic	-6234
▁programming	-6235
aga	-6236
enez	-6237
▁Kaz	-6238
▁Trump	-6239
▁solid	-6240
▁Invest	-6241
quarters	-6242
▁Roberts	-6243
▁profile	-6244
oes	-6245
ogy	-6246
▁Lt	-6247
▁Boy	-6248
▁Rom	-6249
▁unf	-6250
etime	-6251
worth	-6252
▁Cork	-6253
▁print	-6254
▁Market	-6255
▁favour	-6256
▁thanks	-6257
▁herself	-6258
▁directors	-6259
▁AT	-6260
eral	-6261
gers	-6262
zona	-6263
▁Non	-6264
▁Way	-6265
▁boat	-6266
▁gain	-6267
▁heat	-6268
▁Ghana	-6269
▁wonderful	-6270
MA	-6271
je	-6272
ré	-6273
ss	-6274
rant	-6275
found	-6276
▁Pict	-6277
▁2010,	-6278
▁Deput	-6279
▁ideal	-6280
▁split	-6281
▁Engineer	-6282
▁maintain	-6283
▁collaboration	-6284
▁3:	-6285
▁13,	-6286
▁14,	-6287
▁Tag	-6288
▁Who	-6289
▁Plot	-6290
▁Labor	-6291
▁generation	-6292
▁ 	-6293
Jean	-6294
andy	-6295
otic	-6296
▁row	-6297
icious	-6298
▁2013.	-6299
▁Steve	-6300
▁defeat	-6301
▁sevent	-6302
▁testing	-6303
▁confluence	-6304
ache	-6305
roud	-6306
umin	-6307
▁22,	-6308
▁Ont	-6309
▁Cape	-6310
▁Nick	-6311
▁coin	-6312
▁dang	-6313
atures	-6314
▁Broad	-6315
▁accur	-6316
▁steel	-6317
▁trend	-6318
western	-6319
▁conver	-6320
▁happen	-6321
▁starts	-6322
▁update	-6323
▁healthy	-6324
▁learned	-6325
▁policies	-6326
78	-6327
da	-6328
uv	-6329
▁Abd	-6330
▁Run	-6331
ected	-6332
▁Marg	-6333
▁Turn	-6334
▁knew	-6335
▁wine	-6336
▁Spring	-6337
▁disapp	-6338
▁younger	-6339
▁approved	-6340
▁authorities	-6341
ST	-6342
1),	-6343
owa	-6344
olis	-6345
onic	-6346
▁Dom	-6347
iable	-6348
▁Ball	-6349
▁manage	-6350
▁Notable	-6351
▁Indonesia	-6352
▁processes	-6353
▁properties	-6354
lets	-6355
iders	-6356
lywood	-6357
▁Agric	-6358
▁spoke	-6359
▁combination	-6360
uct	-6361
▁UN	-6362
iary	-6363
athan	-6364
odies	-6365
▁Brook	-6366
▁sweet	-6367
▁Turkey	-6368
▁stress	-6369
▁Harvard	-6370
▁Environment	-6371
▁partnership	-6372
ulu	-6373
▁36	-6374
agues	-6375
▁Bapt	-6376
▁crime	-6377
▁tells	-6378
▁Global	-6379
▁Defense	-6380
▁interests	-6381
▁paintings	-6382
34	-6383
▁Cra	-6384
enger	-6385
▁Draw	-6386
▁2014.	-6387
▁Simon	-6388
▁agric	-6389
▁meant	-6390
▁Scient	-6391
▁perman	-6392
▁retail	-6393
▁talent	-6394
▁holiday	-6395
▁coverage	-6396
▁efficient	-6397
79	-6398
isa	-6399
▁Full	-6400
▁lots	-6401
▁prize	-6402
▁calling	-6403
▁trained	-6404
▁discount	-6405
▁domestic	-6406
▁performances	-6407
word	-6408
▁Ener	-6409
▁kick	-6410
istant	-6411
▁confl	-6412
▁rapid	-6413
▁superv	-6414
▁windows	-6415
▁connected	-6416
▁publication	-6417
--	-6418
cop	-6419
idd	-6420
stan	-6421
▁Text	-6422
▁auth	-6423
▁bridge	-6424
▁Toronto	-6425
▁element	-6426
▁reduced	-6427
▁experiment	-6428
RA	-6429
amic	-6430
omet	-6431
▁Hay	-6432
▁Tel	-6433
▁Dave	-6434
▁guns	-6435
▁scoring	-6436
▁medicine	-6437
▁slightly	-6438
▁prominent	-6439
rastructure	-6440
▁foundation	-6441
▁participate	-6442
▁mel	-6443
ether	-6444
▁1919	-6445
▁Data	-6446
▁Hind	-6447
▁Pass	-6448
▁eval	-6449
▁poly	-6450
▁tele	-6451
ingham	-6452
othing	-6453
▁corner	-6454
▁Arizona	-6455
▁granted	-6456
▁singers	-6457
▁Athletic	-6458
▁extremely	-6459
▁practices	-6460
▁assistance	-6461
ih	-6462
don	-6463
ito	-6464
oln	-6465
▁Low	-6466
▁Pur	-6467
▁Wat	-6468
abama	-6469
eline	-6470
▁Jane	-6471
▁Make	-6472
▁diagn	-6473
▁Harris	-6474
▁notable	-6475
▁Magazine	-6476
▁shipping	-6477
▁Footballers	-6478
OW	-6479
cow	-6480
inth	-6481
▁BBC	-6482
▁sty	-6483
avior	-6484
▁seed	-6485
perial	-6486
▁Click	-6487
▁advoc	-6488
▁notes	-6489
▁fields	-6490
▁secure	-6491
▁Current	-6492
▁Lawrence	-6493
"|	-6494
vis	-6495
▁Pu	-6496
outs	-6497
▁Bab	-6498
▁Use	-6499
▁1952	-6500
▁1983	-6501
▁Norm	-6502
▁cris	-6503
▁marg	-6504
▁speak	-6505
▁adding	-6506
▁chosen	-6507
▁deputy	-6508
▁secretary	-6509
▁appointment	-6510
EC	-6511
car	-6512
ele	-6513
oty	-6514
top	-6515
ulf	-6516
▁Rh	-6517
rier	-6518
▁mir	-6519
▁mut	-6520
ancer	-6521
▁1942	-6522
▁Phot	-6523
▁Rout	-6524
▁iron	-6525
▁poet	-6526
▁spok	-6527
▁files	-6528
reprene	-6529
▁garden	-6530
▁notice	-6531
▁sexual	-6532
▁keeping	-6533
▁promote	-6534
▁western	-6535
▁premiered	-6536
▁ultimately	-6537
▁appropriate	-6538
pton	-6539
uous	-6540
▁Ray	-6541
erves	-6542
under	-6543
▁Serb	-6544
▁crow	-6545
▁flav	-6546
▁Start	-6547
▁apart	-6548
▁truly	-6549
▁Marine	-6550
▁inform	-6551
▁Ontario	-6552
▁Rivière	-6553
▁drivers	-6554
abilities	-6555
▁territory	-6556
nic	-6557
▁Ho	-6558
▁Cook	-6559
▁(2018	-6560
▁Range	-6561
▁joint	-6562
▁walls	-6563
clusion	-6564
▁elimin	-6565
▁guests	-6566
▁minute	-6567
▁Section	-6568
▁showing	-6569
▁Nigerian	-6570
▁Champions	-6571
▁determine	-6572
▁recognition	-6573
iah	-6574
▁Kl	-6575
▁MS	-6576
aret	-6577
real	-6578
▁Bon	-6579
ospit	-6580
▁Lind	-6581
▁grad	-6582
▁zone	-6583
▁Among	-6584
▁adult	-6585
▁upper	-6586
▁Fellow	-6587
▁actual	-6588
▁Iranian	-6589
▁passion	-6590
▁waiting	-6591
▁certainly	-6592
▁regularly	-6593
sky	-6594
▁Bow	-6595
regon	-6596
▁1945	-6597
▁1978	-6598
▁Local	-6599
▁Venez	-6600
▁smooth	-6601
▁Information	-6602
55	-6603
▁Kr	-6604
ilst	-6605
▁Eth	-6606
▁bul	-6607
▁rot	-6608
while	-6609
▁Plat	-6610
▁weap	-6611
▁adults	-6612
▁camera	-6613
▁useful	-6614
▁Alabama	-6615
▁accident	-6616
▁educated	-6617
▁installed	-6618
▁documentary	-6619
33	-6620
aren	-6621
offs	-6622
pool	-6623
umes	-6624
▁McG	-6625
alled	-6626
▁Cuba	-6627
▁Hard	-6628
▁Prof	-6629
▁core	-6630
ansion	-6631
▁panel	-6632
▁Islamic	-6633
▁aspects	-6634
▁finding	-6635
▁happened	-6636
▁referred	-6637
▁visiting	-6638
▁classical	-6639
▁Ta	-6640
arks	-6641
icip	-6642
ners	-6643
▁Pin	-6644
▁Wed	-6645
olved	-6646
▁1967	-6647
▁Mill	-6648
▁(2020	-6649
▁Apost	-6650
▁steps	-6651
▁Associ	-6652
▁Monday	-6653
▁Rivers	-6654
▁survey	-6655
▁Players	-6656
▁compete	-6657
▁declared	-6658
▁negative	-6659
▁shopping	-6660
▁Executive	-6661
▁northeast	-6662
▁standards	-6663
▁Construction	-6664
▁successfully	-6665
:30	-6666
ikh	-6667
wing	-6668
▁24,	-6669
▁Pay	-6670
▁1982	-6671
▁wasn	-6672
olitan	-6673
▁yards	-6674
▁Nigeria	-6675
▁actions	-6676
▁Building	-6677
▁appearances	-6678
▁representative	-6679
ocol	-6680
▁girls	-6681
▁Mountains	-6682
▁thousands	-6683
▁;	-6684
mad	-6685
uls	-6686
agon	-6687
▁nut	-6688
▁Jews	-6689
▁domin	-6690
▁rural	-6691
▁Oregon	-6692
▁config	-6693
▁joining	-6694
▁library	-6695
▁founding	-6696
▁membership	-6697
kg	-6698
▁7.	-6699
thur	-6700
▁Aud	-6701
▁ban	-6702
▁eat	-6703
▁brain	-6704
▁Author	-6705
▁assign	-6706
▁theatre	-6707
▁affected	-6708
▁Communist	-6709
▁Entertain	-6710
▁otherwise	-6711
IV	-6712
olec	-6713
▁Ale	-6714
▁Fun	-6715
▁Naz	-6716
▁cry	-6717
asure	-6718
iency	-6719
▁datab	-6720
▁Slovak	-6721
▁income	-6722
▁invent	-6723
▁junior	-6724
▁classic	-6725
▁Selected	-6726
▁interior	-6727
▁requires	-6728
▁Corporation	-6729
chi	-6730
ugg	-6731
pass	-6732
▁28,	-6733
▁Jay	-6734
▁PhD	-6735
▁Anne	-6736
▁Gree	-6737
▁Have	-6738
▁Iraq	-6739
▁Mult	-6740
▁Prim	-6741
▁Wolf	-6742
uccess	-6743
▁adjust	-6744
▁decide	-6745
▁Between	-6746
▁Honours	-6747
▁Stephen	-6748
▁updated	-6749
▁Maryland	-6750
▁photography	-6751
TA	-6752
alty	-6753
▁Dor	-6754
▁ing	-6755
anges	-6756
▁Cart	-6757
▁fans	-6758
active	-6759
▁Check	-6760
▁deleg	-6761
▁faced	-6762
▁recre	-6763
▁scale	-6764
▁novels	-6765
▁adopted	-6766
▁animals	-6767
▁apartment	-6768
▁cancelled	-6769
▁emergency	-6770
▁performing	-6771
▁maintenance	-6772
▁contributions	-6773
ni	-6774
▁8.	-6775
▁NH	-6776
rees	-6777
rete	-6778
▁Alf	-6779
▁Nich	-6780
▁jobs	-6781
▁Lewis	-6782
▁delay	-6783
iration	-6784
▁compar	-6785
▁valley	-6786
▁Bangladesh	-6787
27	-6788
▁Rog	-6789
▁Sat	-6790
estab	-6791
▁Earl	-6792
▁Take	-6793
▁Verm	-6794
▁2011,	-6795
▁Colon	-6796
▁dates	-6797
▁nucle	-6798
▁medium	-6799
▁Captain	-6800
▁opinion	-6801
▁prepare	-6802
▁protein	-6803
▁ceremony	-6804
▁equipped	-6805
▁determined	-6806
▁registered	-6807
▁34	-6808
▁pp	-6809
lines	-6810
▁1944	-6811
▁1981	-6812
▁Karl	-6813
atever	-6814
▁Officer	-6815
▁bathroom	-6816
▁composer	-6817
▁prepared	-6818
RO	-6819
dis	-6820
pes	-6821
▁19,	-6822
▁21,	-6823
▁Beng	-6824
▁Jord	-6825
▁bass	-6826
▁flat	-6827
▁trib	-6828
▁Teams	-6829
▁recon	-6830
▁somew	-6831
▁Moscow	-6832
▁volume	-6833
igration	-6834
▁figures	-6835
▁actresses	-6836
▁comfortable	-6837
▁specifically	-6838
pa	-6839
oly	-6840
abet	-6841
atal	-6842
body	-6843
iner	-6844
▁Bir	-6845
enses	-6846
▁impl	-6847
▁Fleet	-6848
▁Marsh	-6849
▁Point	-6850
▁Third	-6851
▁fruit	-6852
▁mayor	-6853
▁yellow	-6854
fficient	-6855
▁Training	-6856
▁representing	-6857
DP	-6858
▁Tu	-6859
orge	-6860
chant	-6861
▁1918	-6862
▁qual	-6863
▁quant	-6864
▁decades	-6865
▁express	-6866
▁tickets	-6867
▁accommod	-6868
▁cleaning	-6869
▁soldiers	-6870
▁Entertainment	-6871
ogs	-6872
▁(;	-6873
icts	-6874
ucks	-6875
▁rul	-6876
cohol	-6877
ivals	-6878
▁Zone	-6879
orship	-6880
▁Dougl	-6881
▁craft	-6882
▁opera	-6883
▁lawyer	-6884
▁mental	-6885
▁experts	-6886
▁musician	-6887
▁distribution	-6888
95	-6889
spe	-6890
otte	-6891
▁27,	-6892
▁ast	-6893
cious	-6894
▁1974	-6895
▁Farm	-6896
▁flex	-6897
covery	-6898
iation	-6899
▁catch	-6900
▁sustain	-6901
▁highlight	-6902
▁professionals	-6903
cha	-6904
▁SC	-6905
apes	-6906
cont	-6907
▁Neb	-6908
▁Str	-6909
eless	-6910
▁Lear	-6911
▁height	-6912
▁waters	-6913
▁Country	-6914
▁fiction	-6915
▁patient	-6916
▁possess	-6917
▁changing	-6918
▁commonly	-6919
▁resigned	-6920
▁Expatriate	-6921
▁nomination	-6922
▁recommended	-6923
▁temperature	-6924
▁participants	-6925
SA	-6926
phas	-6927
then	-6928
▁Hig	-6929
merce	-6930
▁Barn	-6931
▁Prix	-6932
orders	-6933
▁Intel	-6934
▁Number	-6935
▁balance	-6936
▁biggest	-6937
▁selling	-6938
▁Missouri	-6939
▁finishing	-6940
▁primarily	-6941
▁investigation	-6942
gi	-6943
GBT	-6944
aine	-6945
–200	-6946
▁rat	-6947
▁1954	-6948
▁infl	-6949
▁Album	-6950
▁cycle	-6951
▁Amazon	-6952
▁Pierre	-6953
▁Senator	-6954
▁Twitter	-6955
▁reserve	-6956
▁rivière	-6957
▁CP	-6958
▁Ten	-6959
▁Tig	-6960
▁kid	-6961
▁Iowa	-6962
▁ment	-6963
▁trav	-6964
▁relax	-6965
▁storm	-6966
▁Cooper	-6967
▁Belgium	-6968
▁painter	-6969
▁Venezuel	-6970
▁attorney	-6971
▁brothers	-6972
▁detailed	-6973
▁photograph	-6974
▁commissioned	-6975
Al	-6976
ju	-6977
des	-6978
king	-6979
roid	-6980
▁Kal	-6981
▁Nag	-6982
▁cru	-6983
▁Lady	-6984
▁eyes	-6985
incoln	-6986
▁agency	-6987
▁reject	-6988
iversary	-6989
▁perhaps	-6990
▁visitors	-6991
▁collected	-6992
onsin	-6993
which	-6994
▁(196	-6995
▁Gram	-6996
▁ends	-6997
▁pump	-6998
▁renov	-6999
▁thank	-7000
▁Energy	-7001
▁Prince	-7002
isconsin	-7003
▁concert	-7004
▁identify	-7005
▁returning	-7006
▁retirement	-7007
-8	-7008
▁Ka	-7009
ails	-7010
olas	-7011
▁Gro	-7012
▁Kos	-7013
▁THE	-7014
▁emp	-7015
eries	-7016
esome	-7017
orrow	-7018
▁debt	-7019
▁leaf	-7020
▁mist	-7021
▁rise	-7022
ective	-7023
▁Friend	-7024
▁compre	-7025
▁bedroom	-7026
inguished	-7027
▁Egyptian	-7028
▁alternative	-7029
fr	-7030
arp	-7031
kes	-7032
▁UC	-7033
onds	-7034
▁Dak	-7035
▁Nep	-7036
ourne	-7037
▁Hart	-7038
▁Plan	-7039
▁Prom	-7040
▁gone	-7041
▁hall	-7042
▁stuff	-7043
▁Baptist	-7044
▁internal	-7045
▁Apostolic	-7046
▁Commander	-7047
▁29,	-7048
▁amb	-7049
oured	-7050
▁LGBT	-7051
▁calc	-7052
▁Exhib	-7053
▁Sound	-7054
▁absol	-7055
▁veget	-7056
▁seeing	-7057
▁unable	-7058
▁Antonio	-7059
▁holding	-7060
▁regions	-7061
▁programme	-7062
▁controvers	-7063
▁relationships	-7064
▁constituencies	-7065
auc	-7066
enh	-7067
▁Ve	-7068
atar	-7069
look	-7070
▁Ped	-7071
▁1973	-7072
▁Ross	-7073
▁Viet	-7074
adelph	-7075
▁Chall	-7076
▁Exper	-7077
▁inaug	-7078
▁surpr	-7079
chestra	-7080
▁Sources	-7081
▁coordin	-7082
▁believed	-7083
▁captured	-7084
▁Mansfield	-7085
▁associate	-7086
▁responsibility	-7087
32	-7088
??	-7089
edia	-7090
hand	-7091
▁Hur	-7092
▁Las	-7093
▁esc	-7094
▁Adam	-7095
▁Drag	-7096
▁Space	-7097
▁Douglas	-7098
▁Perform	-7099
▁defense	-7100
▁criminal	-7101
▁literary	-7102
▁Geography	-7103
▁estimated	-7104
▁historian	-7105
▁reception	-7106
0)	-7107
38	-7108
hr	-7109
▁ST	-7110
▁mo	-7111
▁Ott	-7112
▁fro	-7113
▁Area	-7114
▁dream	-7115
▁frame	-7116
▁sides	-7117
▁Norway	-7118
▁filled	-7119
▁colspan	-7120
▁postpon	-7121
▁Communic	-7122
▁extensive	-7123
▁parliamentary	-7124
ovo	-7125
▁Pra	-7126
▁1963	-7127
▁Fern	-7128
▁sand	-7129
estyle	-7130
pected	-7131
▁buried	-7132
▁flower	-7133
▁consequ	-7134
▁measures	-7135
▁relevant	-7136
▁spending	-7137
▁graduating	-7138
▁importance	-7139
▁AC	-7140
▁AM	-7141
avia	-7142
ials	-7143
yard	-7144
▁Abb	-7145
▁Eag	-7146
▁Pas	-7147
▁Sab	-7148
▁Leon	-7149
▁Marc	-7150
▁2012.	-7151
▁Thurs	-7152
▁agree	-7153
▁colors	-7154
▁toward	-7155
anguages	-7156
▁accompl	-7157
▁ancient	-7158
▁Wisconsin	-7159
46	-7160
bell	-7161
▁Mit	-7162
▁tag	-7163
imens	-7164
▁phase	-7165
▁animal	-7166
▁Whether	-7167
▁Alliance	-7168
▁−	-7169
lah	-7170
lie	-7171
lon	-7172
▁AR	-7173
▁Wy	-7174
▁tor	-7175
▁1936	-7176
▁1969	-7177
▁Shan	-7178
▁mort	-7179
▁thir	-7180
▁tips	-7181
ducing	-7182
▁posts	-7183
▁thick	-7184
▁disband	-7185
▁license	-7186
▁tourism	-7187
▁transition	-7188
LC	-7189
LS	-7190
▁IB	-7191
▁da	-7192
▁23,	-7193
▁Note	-7194
▁Avenue	-7195
▁Donald	-7196
▁gather	-7197
▁managers	-7198
▁teachers	-7199
OP	-7200
▁Dh	-7201
mith	-7202
wich	-7203
aints	-7204
icals	-7205
ailand	-7206
▁sounds	-7207
▁troops	-7208
▁Argentina	-7209
▁innovative	-7210
37	-7211
pm	-7212
ui	-7213
olo	-7214
tes	-7215
uri	-7216
www	-7217
▁45	-7218
▁Rab	-7219
itled	-7220
level	-7221
▁(192	-7222
▁Find	-7223
▁Look	-7224
▁Soft	-7225
▁arms	-7226
wealth	-7227
▁Honor	-7228
▁equal	-7229
▁renew	-7230
▁valid	-7231
ogether	-7232
▁agreed	-7233
▁divers	-7234
▁looked	-7235
▁metres	-7236
▁remove	-7237
▁Culture	-7238
istration	-7239
▁exercise	-7240
▁corporate	-7241
awn	-7242
fast	-7243
orph	-7244
rait	-7245
▁Ltd	-7246
▁fra	-7247
rator	-7248
uable	-7249
▁1939	-7250
▁Chen	-7251
▁mart	-7252
▁Prior	-7253
▁Sarah	-7254
▁Freder	-7255
▁Wednes	-7256
▁begins	-7257
▁franch	-7258
adelphia	-7259
▁divided	-7260
▁witness	-7261
▁entrance	-7262
▁partners	-7263
▁versions	-7264
▁Architect	-7265
▁reference	-7266
▁cricketers	-7267
▁Administration	-7268
vy	-7269
oba	-7270
▁EU	-7271
arma	-7272
elle	-7273
▁10.	-7274
opped	-7275
▁Mach	-7276
▁tend	-7277
▁Andre	-7278
▁Singh	-7279
▁flood	-7280
▁Bishop	-7281
▁Manche	-7282
▁Method	-7283
▁conven	-7284
▁covers	-7285
▁fought	-7286
▁rating	-7287
▁Singles	-7288
▁dropped	-7289
▁hearing	-7290
▁occasion	-7291
▁shooting	-7292
▁adventure	-7293
zo	-7294
▁au	-7295
anne	-7296
ivia	-7297
mosp	-7298
unct	-7299
hetic	-7300
ighth	-7301
▁1943	-7302
▁Mars	-7303
▁proud	-7304
▁waste	-7305
▁bright	-7306
▁speech	-7307
▁Digital	-7308
▁Lincoln	-7309
▁defined	-7310
▁Kentucky	-7311
▁functions	-7312
▁furniture	-7313
aked	-7314
fers	-7315
long	-7316
▁Ban	-7317
▁Wel	-7318
iliar	-7319
▁1900	-7320
▁1928	-7321
▁rear	-7322
▁ride	-7323
▁surg	-7324
person	-7325
▁Paint	-7326
▁raise	-7327
▁reput	-7328
▁arrang	-7329
▁depend	-7330
▁formal	-7331
▁organis	-7332
▁stating	-7333
▁accounts	-7334
▁announce	-7335
▁occurred	-7336
▁violence	-7337
▁delivered	-7338
▁resulting	-7339
▁residential	-7340
fe	-7341
ads	-7342
▁--	-7343
▁48	-7344
racy	-7345
▁26,	-7346
▁Six	-7347
color	-7348
ework	-7349
night	-7350
point	-7351
▁Anna	-7352
▁Fell	-7353
▁Fine	-7354
▁Race	-7355
▁teen	-7356
▁negot	-7357
▁column	-7358
▁causing	-7359
▁Thailand	-7360
▁competitive	-7361
▁description	-7362
▁technologies	-7363
Sh	-7364
oga	-7365
osh	-7366
rum	-7367
▁Ni	-7368
adow	-7369
iami	-7370
▁Ast	-7371
▁Bah	-7372
▁mil	-7373
▁spr	-7374
andom	-7375
▁José	-7376
▁Upon	-7377
▁sons	-7378
aments	-7379
▁2008,	-7380
▁rugby	-7381
▁Deputy	-7382
▁Michel	-7383
▁circum	-7384
▁praised	-7385
▁resulted	-7386
▁suffered	-7387
po	-7388
▁Ye	-7389
iley	-7390
osal	-7391
ownt	-7392
▁Dur	-7393
▁Ide	-7394
▁Mang	-7395
▁Wang	-7396
▁fill	-7397
profit	-7398
▁sympt	-7399
▁Morgan	-7400
▁campus	-7401
▁Classic	-7402
▁Hungarian	-7403
94	-7404
én	-7405
és	-7406
▁Fox	-7407
▁Yes	-7408
▁Room	-7409
▁Chess	-7410
▁Saudi	-7411
▁audio	-7412
▁haven	-7413
▁Forces	-7414
▁stores	-7415
▁titles	-7416
▁Vermont	-7417
▁welcome	-7418
▁comments	-7419
▁distinct	-7420
▁infrastructure	-7421
EM	-7422
uma	-7423
▁CS	-7424
▁Pa	-7425
▁id	-7426
bles	-7427
▁120	-7428
▁Uye	-7429
ateur	-7430
urers	-7431
▁Conf	-7432
inners	-7433
▁hired	-7434
▁stood	-7435
▁Vienna	-7436
▁facing	-7437
▁ingred	-7438
▁values	-7439
▁installation	-7440
▁Parliamentary	-7441
aire	-7442
▁Cou	-7443
▁Gab	-7444
▁god	-7445
▁unc	-7446
▁1977	-7447
▁Greg	-7448
▁Maur	-7449
▁item	-7450
▁2019)	-7451
▁Arthur	-7452
▁Doctor	-7453
▁widely	-7454
▁markets	-7455
▁walking	-7456
▁Thursday	-7457
▁supports	-7458
36	-7459
zi	-7460
ped	-7461
▁Ja	-7462
ista	-7463
▁Hal	-7464
▁Rio	-7465
▁Chem	-7466
▁Dall	-7467
▁elig	-7468
shaped	-7469
▁2005,	-7470
▁Miami	-7471
▁Trade	-7472
▁guard	-7473
▁mining	-7474
election	-7475
▁injured	-7476
▁Commonwealth	-7477
▁automatically	-7478
77	-7479
▁Box	-7480
▁Kur	-7481
▁Bras	-7482
▁Rank	-7483
▁Shah	-7484
▁diet	-7485
▁Allen	-7486
▁Armen	-7487
▁Mayor	-7488
▁optim	-7489
▁teach	-7490
ocation	-7491
▁medals	-7492
▁charges	-7493
▁Cultural	-7494
▁authority	-7495
▁suggested	-7496
▁frequently	-7497
CH	-7498
uez	-7499
▁Ot	-7500
comm	-7501
▁Vin	-7502
▁View	-7503
▁Domin	-7504
▁depth	-7505
▁maybe	-7506
▁veter	-7507
▁voted	-7508
hensive	-7509
▁Temple	-7510
▁handle	-7511
▁undert	-7512
▁offices	-7513
▁expanded	-7514
▁Collection	-7515
▁contributed	-7516
run	-7517
▁NY	-7518
▁Zh	-7519
▁Lam	-7520
▁roy	-7521
idden	-7522
▁Tues	-7523
ensity	-7524
▁leads	-7525
cluding	-7526
▁Greece	-7527
▁Player	-7528
▁minimum	-7529
▁protest	-7530
▁seeking	-7531
ropolitan	-7532
▁behavior	-7533
▁councill	-7534
▁Manchester	-7535
▁Legislative	-7536
▁Philadelphia	-7537
31	-7538
GA	-7539
OL	-7540
lem	-7541
rik	-7542
ski	-7543
▁ic	-7544
hent	-7545
inks	-7546
▁Kat	-7547
▁nob	-7548
▁Pack	-7549
▁tail	-7550
▁2011.	-7551
▁Alber	-7552
▁chain	-7553
▁drawn	-7554
▁brings	-7555
▁Chamber	-7556
▁Malaysia	-7557
▁possibly	-7558
▁rebounds	-7559
▁destroyed	-7560
arry	-7561
▁DNA	-7562
▁Kev	-7563
▁Sym	-7564
▁Ford	-7565
▁Next	-7566
▁burn	-7567
▁heav	-7568
▁lose	-7569
▁2023.	-7570
▁Small	-7571
▁alcohol	-7572
▁captain	-7573
▁settled	-7574
▁fighting	-7575
▁standing	-7576
/20	-7577
▁2:	-7578
▁Bat	-7579
▁Kon	-7580
▁flu	-7581
icial	-7582
▁1924	-7583
▁Prin	-7584
lahoma	-7585
▁Table	-7586
▁Bridge	-7587
▁server	-7588
▁wealth	-7589
hematics	-7590
▁employment	-7591
▁manufacturer	-7592
”,	-7593
-10	-7594
▁Na	-7595
▁od	-7596
ante	-7597
osph	-7598
▁Alp	-7599
▁Bou	-7600
▁Lib	-7601
▁Nob	-7602
▁era	-7603
icken	-7604
▁fold	-7605
▁kill	-7606
▁magn	-7607
▁plot	-7608
▁Based	-7609
▁Diego	-7610
▁pilot	-7611
▁subsc	-7612
viously	-7613
▁papers	-7614
▁poetry	-7615
▁battery	-7616
▁clinical	-7617
▁delivery	-7618
▁entering	-7619
▁suitable	-7620
▁decisions	-7621
▁philosophy	-7622
▁researchers	-7623
bar	-7624
▁AS	-7625
▁Od	-7626
ardo	-7627
rated	-7628
▁1961	-7629
▁1962	-7630
▁Whit	-7631
▁laid	-7632
▁mode	-7633
▁tack	-7634
▁warn	-7635
▁chose	-7636
▁tower	-7637
resents	-7638
▁forget	-7639
▁talking	-7640
▁visited	-7641
▁household	-7642
▁resistance	-7643
▁Independent	-7644
Cl	-7645
Se	-7646
Pro	-7647
agh	-7648
jan	-7649
▁ju	-7650
isms	-7651
star	-7652
▁lux	-7653
itime	-7654
▁Cond	-7655
▁duty	-7656
▁Jordan	-7657
▁broken	-7658
▁emphas	-7659
▁marked	-7660
▁alleged	-7661
▁Chairman	-7662
▁Exchange	-7663
▁instrument	-7664
▁nominations	-7665
DA	-7666
ls	-7667
=12	-7668
cies	-7669
▁300	-7670
▁Gon	-7671
▁Rub	-7672
▁nom	-7673
final	-7674
▁Male	-7675
▁synt	-7676
bourne	-7677
▁Sever	-7678
▁truth	-7679
▁Morris	-7680
▁caught	-7681
▁causes	-7682
▁orders	-7683
▁spaces	-7684
▁Fellows	-7685
▁Israeli	-7686
▁charged	-7687
▁degrees	-7688
▁seconds	-7689
▁churches	-7690
▁studying	-7691
ographical	-7692
▁participation	-7693
New	-7694
▁IP	-7695
elli	-7696
▁aid	-7697
▁flo	-7698
▁Unit	-7699
▁aged	-7700
▁Creat	-7701
▁illeg	-7702
▁casino	-7703
▁cooper	-7704
▁fabric	-7705
▁obtain	-7706
▁switch	-7707
▁tribut	-7708
▁weekly	-7709
itations	-7710
▁Private	-7711
▁Bachelor	-7712
▁Cemetery	-7713
▁Oklahoma	-7714
▁contrast	-7715
▁commitment	-7716
oa	-7717
bin	-7718
free	-7719
▁Nik	-7720
ouses	-7721
▁Cert	-7722
▁rein	-7723
▁Mixed	-7724
leyball	-7725
▁combat	-7726
▁Artists	-7727
▁attacks	-7728
▁explore	-7729
▁victims	-7730
▁examples	-7731
▁settings	-7732
▁Louisiana	-7733
▁northwest	-7734
▁Ay	-7735
▁tie	-7736
white	-7737
▁1959	-7738
▁Story	-7739
▁Uyezd	-7740
▁crowd	-7741
▁flows	-7742
▁vocal	-7743
▁Charts	-7744
▁Contin	-7745
▁Tigers	-7746
▁dating	-7747
▁ending	-7748
▁intern	-7749
▁disbanded	-7750
',	-7751
98	-7752
bal	-7753
hol	-7754
▁CN	-7755
ando	-7756
anim	-7757
▁mail	-7758
▁2009,	-7759
▁Stage	-7760
▁lists	-7761
▁topic	-7762
▁dinner	-7763
▁incred	-7764
▁arrival	-7765
▁athletes	-7766
▁entirely	-7767
▁Wednesday	-7768
▁languages	-7769
▁processing	-7770
▁organisation	-7771
100	-7772
bra	-7773
fts	-7774
iya	-7775
▁Kam	-7776
▁Maj	-7777
▁ele	-7778
ricts	-7779
▁acts	-7780
▁aren	-7781
▁isol	-7782
▁finds	-7783
▁grass	-7784
▁stick	-7785
▁button	-7786
▁narrow	-7787
inations	-7788
▁Mission	-7789
▁Studios	-7790
▁letters	-7791
▁shortly	-7792
▁Atlantic	-7793
▁bringing	-7794
▁extension	-7795
▁engagement	-7796
▁represents	-7797
▁composition	-7798
▁manufacturing	-7799
km	-7800
ushed	-7801
▁Balt	-7802
▁Front	-7803
▁Racing	-7804
▁couldn	-7805
▁gender	-7806
▁Writers	-7807
▁websites	-7808
▁Athletics	-7809
▁Buildings	-7810
▁qualifying	-7811
pson	-7812
ture	-7813
▁Pun	-7814
▁ord	-7815
▁ton	-7816
Saint	-7817
▁bomb	-7818
▁push	-7819
▁Where	-7820
▁chest	-7821
▁buying	-7822
▁marine	-7823
▁Anthony	-7824
▁engaged	-7825
▁activist	-7826
ortunately	-7827
▁worldwide	-7828
EE	-7829
RC	-7830
lier	-7831
mail	-7832
▁Fat	-7833
▁bon	-7834
angel	-7835
sters	-7836
▁1971	-7837
▁Burn	-7838
▁Conc	-7839
▁Copa	-7840
▁Bible	-7841
▁Harry	-7842
▁colle	-7843
▁decre	-7844
▁depos	-7845
▁brands	-7846
▁deploy	-7847
▁topics	-7848
▁abandon	-7849
▁parking	-7850
▁crossing	-7851
▁permanent	-7852
▁protected	-7853
bat	-7854
ión	-7855
lad	-7856
acle	-7857
▁Dub	-7858
▁Lad	-7859
raska	-7860
▁Mean	-7861
▁Trad	-7862
▁golf	-7863
ocracy	-7864
▁Moroc	-7865
▁Psych	-7866
▁chess	-7867
▁steam	-7868
ocument	-7869
▁atmosp	-7870
▁manner	-7871
▁Alexand	-7872
▁Control	-7873
▁Cricket	-7874
▁putting	-7875
▁incident	-7876
▁formation	-7877
▁practical	-7878
▁recordings	-7879
▁resolution	-7880
iva	-7881
▁38	-7882
▁Ko	-7883
▁NE	-7884
▁Say	-7885
▁ear	-7886
acent	-7887
ensed	-7888
grade	-7889
owned	-7890
▁subs	-7891
orough	-7892
▁sixth	-7893
▁justice	-7894
▁improved	-7895
▁meetings	-7896
▁headquarters	-7897
-7	-7898
RS	-7899
appy	-7900
icut	-7901
pret	-7902
▁178	-7903
▁sac	-7904
attan	-7905
mouth	-7906
▁1947	-7907
▁Cred	-7908
▁fest	-7909
▁Girls	-7910
▁Liver	-7911
▁grade	-7912
▁knows	-7913
▁pregn	-7914
▁races	-7915
▁Channel	-7916
▁chapter	-7917
▁eastern	-7918
▁illness	-7919
▁singing	-7920
▁Economic	-7921
▁relatively	-7922
▁effectively	-7923
TS	-7924
uis	-7925
▁Op	-7926
asks	-7927
–202	-7928
▁Ald	-7929
▁Cru	-7930
▁Cub	-7931
▁Dol	-7932
▁Nar	-7933
▁Set	-7934
▁bes	-7935
▁sud	-7936
verse	-7937
▁Gard	-7938
▁Gran	-7939
▁Chart	-7940
▁Dallas	-7941
▁motion	-7942
▁plenty	-7943
▁Release	-7944
▁assists	-7945
▁context	-7946
▁enjoyed	-7947
▁ranking	-7948
▁achieved	-7949
▁residence	-7950
▁succeeded	-7951
▁entreprene	-7952
▁Additionally	-7953
▁presidential	-7954
39	-7955
eri	-7956
gov	-7957
oni	-7958
▁1:	-7959
▁Pad	-7960
endar	-7961
idges	-7962
▁Salv	-7963
▁Word	-7964
▁adap	-7965
▁hero	-7966
▁ring	-7967
▁Tunis	-7968
▁broke	-7969
▁deals	-7970
▁liber	-7971
▁clearly	-7972
▁gallery	-7973
▁Nebraska	-7974
▁Romanian	-7975
▁artistic	-7976
▁landscape	-7977
▁journalists	-7978
▁entertainment	-7979
hus	-7980
▁tun	-7981
utely	-7982
▁1957	-7983
▁liqu	-7984
▁wins	-7985
▁Camer	-7986
▁Clean	-7987
mediate	-7988
▁Studio	-7989
BI	-7990
MC	-7991
xi	-7992
-12	-7993
lig	-7994
ups	-7995
▁Has	-7996
anned	-7997
▁Emer	-7998
▁fear	-7999
▁wire	-8000
annels	-8001
▁Stone	-8002
▁climb	-8003
▁cloud	-8004
▁Kazakh	-8005
▁Policy	-8006
▁rivers	-8007
▁journals	-8008
▁symptoms	-8009
▁expensive	-8010
▁regulations	-8011
49	-8012
ME	-8013
aza	-8014
lan	-8015
oda	-8016
sis	-8017
elve	-8018
oker	-8019
otal	-8020
▁Got	-8021
▁Ice	-8022
▁tur	-8023
▁wet	-8024
owder	-8025
▁anth	-8026
▁impr	-8027
ussels	-8028
▁2009.	-8029
▁Nepal	-8030
▁crown	-8031
graduate	-8032
▁database	-8033
▁confidence	-8034
▁inspiration	-8035
▁municipality	-8036
▁establishment	-8037
72	-8038
Lac	-8039
adi	-8040
▁Dra	-8041
▁swe	-8042
elson	-8043
ilton	-8044
▁1926	-8045
▁Anti	-8046
▁Epis	-8047
▁Rang	-8048
▁forg	-8049
▁schem	-8050
▁Queens	-8051
▁whilst	-8052
▁passing	-8053
▁birthday	-8054
▁villages	-8055
▁Artillery	-8056
▁franchise	-8057
▁advertising	-8058
eman	-8059
irus	-8060
▁Fal	-8061
▁Gas	-8062
▁Kan	-8063
▁Roc	-8064
▁Know	-8065
▁diam	-8066
▁hist	-8067
▁mine	-8068
▁About	-8069
ivalent	-8070
▁Albert	-8071
▁Square	-8072
▁sought	-8073
▁sudden	-8074
▁twenty	-8075
▁capture	-8076
▁excited	-8077
▁provider	-8078
▁upcoming	-8079
▁opposition	-8080
▁constructed	-8081
dc	-8082
eler	-8083
othe	-8084
▁Ron	-8085
clair	-8086
▁(191	-8087
▁Plus	-8088
▁celeb	-8089
▁Austin	-8090
▁Constit	-8091
▁outdoor	-8092
▁virtual	-8093
▁Aviation	-8094
▁Download	-8095
▁accompan	-8096
▁Connecticut	-8097
▁Hug	-8098
▁Hus	-8099
▁Vas	-8100
▁fil	-8101
othes	-8102
ureau	-8103
▁1949	-8104
▁Anim	-8105
▁ward	-8106
▁Apple	-8107
ropical	-8108
▁crisis	-8109
▁outlet	-8110
▁roster	-8111
▁thread	-8112
▁Brother	-8113
▁Instead	-8114
▁focuses	-8115
▁recover	-8116
▁employed	-8117
▁romantic	-8118
▁starring	-8119
▁Wrestling	-8120
▁anniversary	-8121
AF	-8122
wid	-8123
-01"	-8124
000.	-8125
rama	-8126
uese	-8127
vens	-8128
▁Bru	-8129
▁ster	-8130
father	-8131
▁Kevin	-8132
▁uncle	-8133
▁Castle	-8134
▁Schools	-8135
▁Several	-8136
▁attached	-8137
erg	-8138
▁Ow	-8139
cest	-8140
iche	-8141
iere	-8142
omer	-8143
oria	-8144
▁Mrs	-8145
▁Pit	-8146
▁Cinc	-8147
▁Hope	-8148
▁enem	-8149
▁suit	-8150
enberg	-8151
▁2007,	-8152
▁cheap	-8153
▁goalk	-8154
▁horse	-8155
owntown	-8156
▁Spirit	-8157
▁Walter	-8158
▁charts	-8159
▁willing	-8160
▁Imperial	-8161
▁assisted	-8162
▁existence	-8163
▁involving	-8164
▁controlled	-8165
▁collections	-8166
96	-8167
BB	-8168
▁…	-8169
lee	-8170
▁FA	-8171
erts	-8172
otes	-8173
race	-8174
aired	-8175
▁Para	-8176
▁shut	-8177
▁Rugby	-8178
▁Syria	-8179
▁filed	-8180
▁medic	-8181
▁decade	-8182
▁lovely	-8183
▁Frances	-8184
▁critics	-8185
▁factory	-8186
▁objects	-8187
▁Champion	-8188
▁attempts	-8189
▁circumst	-8190
▁greatest	-8191
▁perspective	-8192
▁replacement	-8193
▁comprehensive	-8194
2%	-8195
47	-8196
di	-8197
iki	-8198
nia	-8199
rate	-8200
▁Oak	-8201
▁hur	-8202
▁mob	-8203
▁mos	-8204
ensis	-8205
erman	-8206
ourse	-8207
▁1958	-8208
▁Pont	-8209
▁Rest	-8210
▁fulf	-8211
▁Schol	-8212
▁aired	-8213
▁regul	-8214
▁judges	-8215
▁submit	-8216
December	-8217
▁Atlanta	-8218
▁forming	-8219
▁Margaret	-8220
▁Lieutenant	-8221
▁restaurants	-8222
DF	-8223
III	-8224
▁MA	-8225
▁Om	-8226
aded	-8227
rell	-8228
sect	-8229
▁Alb	-8230
▁Cho	-8231
▁Ext	-8232
▁Put	-8233
▁Rud	-8234
▁nor	-8235
▁legs	-8236
▁grown	-8237
ificate	-8238
▁Philos	-8239
▁aggreg	-8240
▁dining	-8241
▁Tuesday	-8242
▁failure	-8243
▁Wildlife	-8244
▁postponed	-8245
'.	-8246
You	-8247
erk	-8248
omy	-8249
▁SP	-8250
burn	-8251
omes	-8252
wick	-8253
▁Dal	-8254
▁Kum	-8255
abled	-8256
▁Cher	-8257
▁Test	-8258
▁cant	-8259
▁dump	-8260
▁soul	-8261
▁Marie	-8262
▁Never	-8263
ternoon	-8264
▁Peters	-8265
▁asking	-8266
▁bacter	-8267
▁Faculty	-8268
▁Romania	-8269
▁awesome	-8270
▁closely	-8271
▁drawing	-8272
▁helpful	-8273
▁massive	-8274
▁package	-8275
▁painted	-8276
▁Pictures	-8277
▁approval	-8278
▁hundreds	-8279
▁instance	-8280
▁touchdown	-8281
aha	-8282
ige	-8283
▁Da	-8284
also	-8285
arus	-8286
ench	-8287
▁Ran	-8288
▁ign	-8289
arity	-8290
gener	-8291
▁1953	-8292
▁Dark	-8293
▁2010.	-8294
▁birds	-8295
▁brown	-8296
▁fixed	-8297
▁stret	-8298
▁taste	-8299
▁wooden	-8300
▁animated	-8301
▁intelligence	-8302
▁significantly	-8303
cht	-8304
cia	-8305
pat	-8306
▁DC	-8307
soft	-8308
▁Hou	-8309
▁Core	-8310
▁Juan	-8311
▁subd	-8312
utional	-8313
▁Territ	-8314
▁largely	-8315
ographers	-8316
▁Squadron	-8317
▁consumer	-8318
▁employee	-8319
▁substant	-8320
▁expressed	-8321
▁designated	-8322
▁maintained	-8323
▁settlement	-8324
▁implementation	-8325
Bl	-8326
sex	-8327
▁Fu	-8328
▁pm	-8329
ović	-8330
▁182	-8331
▁Gun	-8332
▁Jam	-8333
▁Yug	-8334
▁fee	-8335
riers	-8336
uther	-8337
▁1951	-8338
▁Bulg	-8339
▁Carm	-8340
▁soil	-8341
▁sole	-8342
▁trig	-8343
listed	-8344
▁Event	-8345
▁Using	-8346
▁hydro	-8347
▁Report	-8348
▁resign	-8349
▁stands	-8350
▁Defence	-8351
▁cabinet	-8352
▁complic	-8353
▁operate	-8354
▁substit	-8355
▁expertise	-8356
▁producers	-8357
▁translated	-8358
fol	-8359
argo	-8360
rage	-8361
▁Hab	-8362
▁Pap	-8363
▁Tak	-8364
▁1946	-8365
▁Ever	-8366
▁Manh	-8367
▁Tony	-8368
lights	-8369
umbent	-8370
▁cream	-8371
▁behalf	-8372
▁breath	-8373
▁lyrics	-8374
ospitals	-8375
▁martial	-8376
▁summary	-8377
ournaments	-8378
▁procedure	-8379
▁electronic	-8380
!!!	-8381
aho	-8382
▁75	-8383
▁Pi	-8384
ghan	-8385
itsu	-8386
oven	-8387
▁hun	-8388
arest	-8389
▁Brun	-8390
▁Gene	-8391
▁Karn	-8392
▁Tech	-8393
▁busy	-8394
▁surf	-8395
▁Again	-8396
▁Brand	-8397
▁Jimmy	-8398
▁goods	-8399
▁rough	-8400
▁tight	-8401
▁passes	-8402
▁Overall	-8403
▁ongoing	-8404
ibilities	-8405
▁reaching	-8406
▁watching	-8407
▁Argentine	-8408
▁districts	-8409
▁organised	-8410
▁streaming	-8411
▁Portuguese	-8412
▁photographer	-8413
imi	-8414
▁9.	-8415
▁Ru	-8416
ashi	-8417
icop	-8418
itat	-8419
▁Dep	-8420
▁Nap	-8421
▁ris	-8422
uster	-8423
▁Eric	-8424
▁Lith	-8425
▁Pika	-8426
▁shel	-8427
lation	-8428
▁2004,	-8429
▁herit	-8430
▁truck	-8431
▁Trophy	-8432
▁agents	-8433
aughters	-8434
▁Matthew	-8435
▁portion	-8436
▁consecut	-8437
▁Hollywood	-8438
▁outstanding	-8439
LE	-8440
NP	-8441
SC	-8442
jun	-8443
grad	-8444
▁Him	-8445
▁Syn	-8446
▁fer	-8447
chell	-8448
▁1955	-8449
▁Horn	-8450
▁Jess	-8451
▁acid	-8452
innati	-8453
ifinals	-8454
▁Though	-8455
▁Masters	-8456
▁Portugal	-8457
▁familiar	-8458
▁describes	-8459
▁lieutenant	-8460
48	-8461
xy	-8462
ité	-8463
aron	-8464
arsh	-8465
▁1929	-8466
▁Gord	-8467
▁tank	-8468
thlete	-8469
▁2006.	-8470
▁https	-8471
▁vision	-8472
▁diverse	-8473
▁fishing	-8474
▁happens	-8475
▁hosting	-8476
▁nations	-8477
▁Sinclair	-8478
▁disestab	-8479
▁formerly	-8480
▁properly	-8481
▁thoughts	-8482
▁valuable	-8483
▁attempted	-8484
▁wrestling	-8485
3).	-8486
Don	-8487
vas	-8488
▁1/	-8489
▁55	-8490
aria	-8491
riet	-8492
▁Veg	-8493
▁nav	-8494
eting	-8495
isory	-8496
▁100%	-8497
▁Cass	-8498
▁desk	-8499
▁mand	-8500
▁recru	-8501
lington	-8502
▁escape	-8503
▁scenes	-8504
▁Quarter	-8505
▁returns	-8506
▁segment	-8507
▁channels	-8508
▁heritage	-8509
▁Charlotte	-8510
▁Liverpool	-8511
▁suspended	-8512
▁distributed	-8513
▁introduction	-8514
68	-8515
alem	-8516
case	-8517
elsh	-8518
from	-8519
▁fat	-8520
atern	-8521
eling	-8522
istol	-8523
▁Dean	-8524
▁Dick	-8525
▁maps	-8526
▁plug	-8527
▁Beaut	-8528
▁Recip	-8529
▁doors	-8530
iability	-8531
▁confirm	-8532
▁purposes	-8533
▁speaking	-8534
▁Bulgarian	-8535
▁investors	-8536
▁integrated	-8537
▁organisations	-8538
IA	-8539
eo	-8540
mal	-8541
▁Py	-8542
mont	-8543
quis	-8544
▁Bry	-8545
▁Buy	-8546
▁Gil	-8547
▁Wol	-8548
▁kil	-8549
▁mic	-8550
iform	-8551
▁2006,	-8552
legiate	-8553
▁Access	-8554
▁Having	-8555
▁Samuel	-8556
▁bodies	-8557
▁priest	-8558
▁Natural	-8559
▁assumed	-8560
▁damaged	-8561
▁exciting	-8562
▁whatever	-8563
▁Americans	-8564
▁Manhattan	-8565
▁expansion	-8566
▁Cincinnati	-8567
▁provincial	-8568
DC	-8569
know	-8570
roke	-8571
▁Bes	-8572
uties	-8573
charge	-8574
▁2007.	-8575
▁Alban	-8576
▁displ	-8577
▁elder	-8578
igenous	-8579
▁Barcel	-8580
▁Custom	-8581
▁Nelson	-8582
▁stages	-8583
▁plastic	-8584
▁surgery	-8585
▁Industry	-8586
▁supposed	-8587
▁Assistant	-8588
▁Billboard	-8589
▁favourite	-8590
▁producing	-8591
▁spiritual	-8592
▁accessible	-8593
▁affordable	-8594
He	-8595
4),	-8596
lik	-8597
rog	-8598
▁AA	-8599
away	-8600
olit	-8601
rang	-8602
uros	-8603
▁Tol	-8604
▁mal	-8605
▁ski	-8606
icide	-8607
▁1937	-8608
▁Chan	-8609
▁menu	-8610
▁Croat	-8611
▁guess	-8612
▁Action	-8613
▁accused	-8614
▁facilit	-8615
▁organic	-8616
▁typical	-8617
▁Standard	-8618
▁arranged	-8619
▁attacked	-8620
▁repeated	-8621
▁sessions	-8622
▁municipal	-8623
▁platforms	-8624
▁accompanied	-8625
▁improvement	-8626
hard	-8627
ifts	-8628
orld	-8629
▁Inn	-8630
▁Sid	-8631
▁jew	-8632
▁1938	-8633
▁Clin	-8634
▁Fall	-8635
▁auto	-8636
ocolate	-8637
▁enable	-8638
▁honest	-8639
▁prompt	-8640
▁remind	-8641
▁Patrick	-8642
▁charity	-8643
▁agencies	-8644
▁restrict	-8645
▁depending	-8646
▁mountains	-8647
OD	-8648
▁37	-8649
▁64	-8650
▁vo	-8651
anni	-8652
anny	-8653
enne	-8654
osite	-8655
▁soph	-8656
▁tall	-8657
▁Agency	-8658
▁Howard	-8659
▁belief	-8660
▁desire	-8661
▁factor	-8662
▁violin	-8663
▁congreg	-8664
▁cooking	-8665
▁lawyers	-8666
▁apparent	-8667
▁entitled	-8668
▁activists	-8669
▁afternoon	-8670
▁competing	-8671
▁Publications	-8672
▁presentation	-8673
41	-8674
mo	-8675
see	-8676
izer	-8677
rena	-8678
ingly	-8679
stery	-8680
▁FIFA	-8681
▁Keep	-8682
▁Rain	-8683
▁boys	-8684
ounsel	-8685
unning	-8686
▁Heart	-8687
▁Kelly	-8688
▁Manit	-8689
▁Annual	-8690
▁severe	-8691
▁unless	-8692
▁finance	-8693
▁physics	-8694
▁seventh	-8695
▁toponym	-8696
attalions	-8697
▁childhood	-8698
As	-8699
uli	-8700
days	-8701
▁Hop	-8702
▁Peak	-8703
▁folk	-8704
▁lies	-8705
apolis	-8706
celand	-8707
stream	-8708
▁Hills	-8709
▁Trail	-8710
▁error	-8711
▁invas	-8712
▁loans	-8713
issions	-8714
▁Former	-8715
▁Madrid	-8716
▁podcast	-8717
▁therapy	-8718
forcement	-8719
▁Barcelona	-8720
▁concluded	-8721
▁strategies	-8722
▁competitors	-8723
Ex	-8724
Re	-8725
hit	-8726
oca	-8727
aran	-8728
atin	-8729
gress	-8730
icing	-8731
maker	-8732
▁0.1%	-8733
▁Bear	-8734
▁Bund	-8735
▁Code	-8736
▁Costa	-8737
▁Paulo	-8738
▁brick	-8739
▁discl	-8740
▁feels	-8741
▁inhab	-8742
▁plate	-8743
▁skill	-8744
▁Rights	-8745
▁assets	-8746
▁headed	-8747
▁venues	-8748
▁Finance	-8749
▁cutting	-8750
▁Colombia	-8751
▁Critical	-8752
▁consumers	-8753
▁submitted	-8754
▁discussion	-8755
▁ingredients	-8756
▁universities	-8757
▁circumstances	-8758
ín	-8759
ION	-8760
▁Lux	-8761
▁MEP	-8762
▁fly	-8763
▁inn	-8764
emble	-8765
▁pian	-8766
atched	-8767
igious	-8768
▁pione	-8769
▁listen	-8770
▁theore	-8771
▁Denmark	-8772
▁Springs	-8773
▁Theater	-8774
▁stopped	-8775
▁streets	-8776
▁totally	-8777
▁coaching	-8778
▁concrete	-8779
▁conflict	-8780
▁swimming	-8781
▁vacation	-8782
▁Socialist	-8783
▁initiative	-8784
▁references	-8785
eli	-8786
rak	-8787
▁km	-8788
ilty	-8789
ulum	-8790
▁bio	-8791
▁hem	-8792
▁Fact	-8793
▁dogs	-8794
▁nurs	-8795
▁synd	-8796
▁Kings	-8797
▁Route	-8798
▁Watch	-8799
▁venue	-8800
▁Alfred	-8801
▁trains	-8802
▁authors	-8803
▁compens	-8804
▁enhance	-8805
▁Brooklyn	-8806
▁Manitoba	-8807
▁painters	-8808
▁Melbourne	-8809
▁certified	-8810
▁personally	-8811
IG	-8812
iece	-8813
▁179	-8814
antha	-8815
trans	-8816
▁Page	-8817
▁Roll	-8818
▁wing	-8819
▁knock	-8820
▁wound	-8821
▁symbol	-8822
▁wouldn	-8823
▁Vietnam	-8824
▁appreci	-8825
▁opposed	-8826
▁updates	-8827
▁sections	-8828
▁fantastic	-8829
▁scientist	-8830
▁Convention	-8831
▁Recipients	-8832
▁components	-8833
▁reputation	-8834
▁consecutive	-8835
iu	-8836
rin	-8837
tis	-8838
▁CF	-8839
died	-8840
reams	-8841
▁Casc	-8842
▁Tamil	-8843
▁Those	-8844
▁molec	-8845
▁Munich	-8846
▁behavi	-8847
▁butter	-8848
▁cancel	-8849
▁recipe	-8850
▁Express	-8851
▁Trinity	-8852
▁Brussels	-8853
▁colonial	-8854
▁tournaments	-8855
▁recreational	-8856
emen	-8857
flix	-8858
quir	-8859
▁Ess	-8860
▁Lyn	-8861
▁que	-8862
ading	-8863
orian	-8864
▁Alan	-8865
▁Mack	-8866
▁Nort	-8867
▁Webs	-8868
▁exec	-8869
▁vert	-8870
▁Sudan	-8871
▁banks	-8872
▁royal	-8873
▁teeth	-8874
▁monthly	-8875
▁Financial	-8876
▁publishing	-8877
▁exhibitions	-8878
▁legislation	-8879
05	-8880
XXX	-8881
▁3-	-8882
▁XX	-8883
brid	-8884
uris	-8885
▁Sug	-8886
▁1921	-8887
▁fees	-8888
▁jack	-8889
azines	-8890
intend	-8891
▁Alger	-8892
▁Flora	-8893
▁Idaho	-8894
▁resid	-8895
▁Events	-8896
▁Palest	-8897
▁Walker	-8898
▁Yugosl	-8899
▁faster	-8900
▁output	-8901
▁random	-8902
▁terror	-8903
▁thesis	-8904
▁Iceland	-8905
▁Manager	-8906
▁freedom	-8907
▁Portland	-8908
▁confident	-8909
▁contested	-8910
▁classification	-8911
''	-8912
DS	-8913
–6	-8914
gow	-8915
▁Ug	-8916
Text	-8917
iors	-8918
▁(),	-8919
▁400	-8920
▁Fel	-8921
▁rib	-8922
▁tut	-8923
ambig	-8924
ultan	-8925
▁Holl	-8926
▁Swim	-8927
former	-8928
▁Welsh	-8929
▁manga	-8930
▁roads	-8931
▁Palace	-8932
▁observ	-8933
▁Lithuan	-8934
ographics	-8935
▁Computer	-8936
▁Students	-8937
▁machines	-8938
▁encourage	-8939
▁exclusive	-8940
▁southwest	-8941
▁differences	-8942
▁contribution	-8943
UN	-8944
but	-8945
die	-8946
▁Dyn	-8947
▁ham	-8948
▁urg	-8949
atoes	-8950
width	-8951
▁cann	-8952
▁info	-8953
▁Lions	-8954
▁brows	-8955
▁heads	-8956
▁integ	-8957
▁motiv	-8958
amental	-8959
▁breast	-8960
▁scores	-8961
▁wearing	-8962
▁diseases	-8963
▁youngest	-8964
▁Therefore	-8965
▁encounter	-8966
▁technique	-8967
▁containing	-8968
58	-8969
9%	-8970
Ne	-8971
–8	-8972
upp	-8973
ayan	-8974
este	-8975
roit	-8976
▁Lan	-8977
▁McK	-8978
▁lit	-8979
▁rub	-8980
eland	-8981
▁Thus	-8982
▁guys	-8983
▁resc	-8984
▁Catal	-8985
▁Dream	-8986
▁Fried	-8987
▁Opera	-8988
▁repro	-8989
▁rival	-8990
▁archae	-8991
▁missed	-8992
▁oldest	-8993
▁airport	-8994
▁sitting	-8995
▁forwards	-8996
▁patterns	-8997
▁Southeast	-8998
▁defending	-8999
▁transform	-9000
▁Metropolitan	-9001
WA	-9002
uz	-9003
sch	-9004
▁Ze	-9005
ippi	-9006
ping	-9007
stal	-9008
▁175	-9009
inter	-9010
▁1931	-9011
▁Coal	-9012
▁Hend	-9013
▁Mess	-9014
▁Past	-9015
▁Rose	-9016
▁Tele	-9017
▁soci	-9018
hentic	-9019
▁reign	-9020
▁simpl	-9021
iveness	-9022
ruption	-9023
▁Afghan	-9024
▁preced	-9025
▁Curling	-9026
▁qualify	-9027
▁imprison	-9028
▁instructions	-9029
Con	-9030
EFA	-9031
add	-9032
ahn	-9033
irk	-9034
type	-9035
▁Age	-9036
▁Cry	-9037
▁Kun	-9038
▁Rick	-9039
▁neut	-9040
▁Capit	-9041
▁Match	-9042
▁param	-9043
▁liquid	-9044
▁remote	-9045
▁strike	-9046
▁vessel	-9047
▁Netflix	-9048
▁explain	-9049
▁matters	-9050
▁privacy	-9051
▁readers	-9052
▁trading	-9053
▁anywhere	-9054
▁covering	-9055
▁networks	-9056
▁ourselves	-9057
▁situations	-9058
▁institution	-9059
lia	-9060
uru	-9061
▁Hi	-9062
iest	-9063
▁AND	-9064
▁Abu	-9065
▁Acc	-9066
▁iPh	-9067
▁Yale	-9068
▁gear	-9069
▁Jason	-9070
▁cable	-9071
▁input	-9072
▁shell	-9073
▁tests	-9074
▁Casino	-9075
▁Murray	-9076
▁Secret	-9077
▁Soccer	-9078
▁Travel	-9079
▁edited	-9080
▁ticket	-9081
fielders	-9082
▁Battery	-9083
▁Capital	-9084
▁Finally	-9085
▁Pikauba	-9086
▁Workers	-9087
▁athlete	-9088
▁dismiss	-9089
▁heavily	-9090
▁persons	-9091
▁theater	-9092
▁carrying	-9093
▁memories	-9094
▁protests	-9095
▁workshop	-9096
▁awareness	-9097
▁suffering	-9098
▁Commercial	-9099
EL	-9100
Sp	-9101
00,	-9102
iph	-9103
▁Ca	-9104
alia	-9105
hops	-9106
icit	-9107
▁31,	-9108
▁Ark	-9109
▁São	-9110
ooker	-9111
▁Bart	-9112
▁Pope	-9113
▁phen	-9114
▁Dance	-9115
▁Metro	-9116
▁boxes	-9117
▁virus	-9118
ilation	-9119
▁Fisher	-9120
▁excess	-9121
▁parish	-9122
▁stayed	-9123
▁twelve	-9124
▁conserv	-9125
▁presents	-9126
▁defensive	-9127
▁discussed	-9128
▁principal	-9129
▁Publishing	-9130
▁battalions	-9131
▁subsequent	-9132
▁participating	-9133
3%	-9134
-17	-9135
hin	-9136
jab	-9137
orf	-9138
▁Kw	-9139
athe	-9140
eneg	-9141
ghai	-9142
ilia	-9143
▁Syl	-9144
▁aer	-9145
▁gym	-9146
opher	-9147
▁1925	-9148
▁Cold	-9149
▁Diam	-9150
▁Duke	-9151
▁Vers	-9152
▁Price	-9153
fiction	-9154
writers	-9155
▁Female	-9156
▁Laurent	-9157
▁ministry	-9158
▁resource	-9159
▁improving	-9160
ambiguation	-9161
▁Statistics	-9162
▁independence	-9163
▁Environmental	-9164
Co	-9165
sa	-9166
ás	-9167
▁AD	-9168
▁Wa	-9169
▁CON	-9170
▁IBM	-9171
▁pun	-9172
after	-9173
opsis	-9174
using	-9175
▁Buck	-9176
▁Kath	-9177
▁Nash	-9178
▁Prad	-9179
▁myth	-9180
▁pure	-9181
▁Chand	-9182
▁Eston	-9183
▁Grant	-9184
▁Motor	-9185
▁abuse	-9186
▁divor	-9187
▁usual	-9188
borough	-9189
ictions	-9190
marines	-9191
▁Mobile	-9192
▁meters	-9193
▁rental	-9194
▁curling	-9195
▁debuted	-9196
▁supplies	-9197
▁Challenge	-9198
▁breakfast	-9199
▁delicious	-9200
▁providers	-9201
▁equivalent	-9202
▁specialist	-9203
▁strengthen	-9204
▁connections	-9205
42	-9206
oka	-9207
olt	-9208
▁Ry	-9209
arat	-9210
crib	-9211
▁Ecu	-9212
▁Imm	-9213
▁Pil	-9214
▁shr	-9215
eeper	-9216
itage	-9217
▁1910	-9218
▁Five	-9219
▁Gulf	-9220
▁Name	-9221
▁cous	-9222
▁2004.	-9223
▁Moore	-9224
▁sugar	-9225
▁Hawaii	-9226
▁Wright	-9227
▁ethnic	-9228
▁intent	-9229
▁occurs	-9230
▁picked	-9231
▁refuge	-9232
▁shares	-9233
▁temple	-9234
heastern	-9235
▁Jacques	-9236
▁derived	-9237
▁dynasty	-9238
▁admitted	-9239
▁indicate	-9240
▁religion	-9241
▁emotional	-9242
▁Historical	-9243
▁atmosphere	-9244
▁historians	-9245
▁considering	-9246
▁Contemporary	-9247
disambiguation	-9248
▁46	-9249
enny	-9250
eria	-9251
orus	-9252
▁Bac	-9253
▁Tit	-9254
▁gro	-9255
eters	-9256
ijing	-9257
▁(202	-9258
▁cruc	-9259
▁hosts	-9260
▁turns	-9261
▁worry	-9262
▁Albums	-9263
▁Lankan	-9264
▁eating	-9265
▁routes	-9266
▁transp	-9267
▁printed	-9268
▁raising	-9269
▁revenue	-9270
▁Language	-9271
▁Nicholas	-9272
▁credited	-9273
▁informed	-9274
▁injuries	-9275
▁subjects	-9276
▁Meanwhile	-9277
▁Submarine	-9278
▁attending	-9279
▁converted	-9280
▁daughters	-9281
▁Wellington	-9282
–3	-9283
▁?	-9284
acht	-9285
ardi	-9286
▁Eug	-9287
▁Moz	-9288
▁SSE	-9289
▁sad	-9290
▁tub	-9291
▁vit	-9292
quest	-9293
▁Pear	-9294
▁reco	-9295
▁2003,	-9296
▁2008.	-9297
▁Arena	-9298
▁Smart	-9299
▁alter	-9300
▁evalu	-9301
▁templ	-9302
sterdam	-9303
▁Return	-9304
▁carbon	-9305
▁recept	-9306
atherine	-9307
▁Barbara	-9308
▁dollars	-9309
▁earning	-9310
▁clothing	-9311
▁withdraw	-9312
▁temporary	-9313
▁revolution	-9314
▁communications	-9315
▁representatives	-9316
ün	-9317
oom	-9318
▁NBA	-9319
▁tab	-9320
asgow	-9321
lings	-9322
tical	-9323
▁Stew	-9324
▁till	-9325
corces	-9326
erness	-9327
▁Cuban	-9328
▁Right	-9329
▁meets	-9330
▁acquis	-9331
▁linked	-9332
▁Houston	-9333
▁Hungary	-9334
▁superior	-9335
▁newspapers	-9336
▁conversation	-9337
▁registration	-9338
EA	-9339
▁PS	-9340
iast	-9341
▁(17	-9342
▁Esp	-9343
asant	-9344
▁Benj	-9345
▁Does	-9346
▁Giov	-9347
▁Prop	-9348
▁Peace	-9349
▁Woman	-9350
▁sight	-9351
▁tasks	-9352
▁Hockey	-9353
▁Origin	-9354
▁copies	-9355
▁legend	-9356
▁styles	-9357
▁Circuit	-9358
▁Detroit	-9359
▁Mississ	-9360
▁farmers	-9361
▁signing	-9362
▁Écorces	-9363
▁managing	-9364
▁replacing	-9365
▁unsuccess	-9366
▁consisting	-9367
UK	-9368
éd	-9369
▁SA	-9370
ampa	-9371
cats	-9372
hyth	-9373
▁Jak	-9374
▁coc	-9375
▁1935	-9376
▁Rand	-9377
▁frag	-9378
itched	-9379
▁Filip	-9380
▁index	-9381
▁resol	-9382
▁shore	-9383
▁Garden	-9384
▁Mechan	-9385
▁nomine	-9386
▁stable	-9387
▁Regular	-9388
▁Russell	-9389
▁choices	-9390
▁savings	-9391
▁downtown	-9392
▁ministers	-9393
▁innovation	-9394
▁procedures	-9395
▁Politicians	-9396
bow	-9397
osy	-9398
oyd	-9399
ugs	-9400
city	-9401
▁800	-9402
▁Bed	-9403
▁Maz	-9404
▁bid	-9405
▁lib	-9406
amics	-9407
▁1914	-9408
▁Vari	-9409
▁crus	-9410
▁http	-9411
▁nick	-9412
▁weak	-9413
idance	-9414
▁Crime	-9415
▁Judge	-9416
▁Plant	-9417
▁Serge	-9418
▁Steel	-9419
▁moist	-9420
▁saved	-9421
▁Census	-9422
▁tables	-9423
▁tested	-9424
▁Contact	-9425
▁Ecuador	-9426
▁Serbian	-9427
▁extract	-9428
▁refused	-9429
▁treated	-9430
▁turning	-9431
▁warrant	-9432
▁weapons	-9433
▁Shanghai	-9434
▁explains	-9435
▁external	-9436
▁messages	-9437
▁reliable	-9438
▁Philippine	-9439
▁adaptation	-9440
▁healthcare	-9441
NI	-9442
Pl	-9443
aph	-9444
asa	-9445
iac	-9446
igs	-9447
uzz	-9448
zhou	-9449
▁12.	-9450
▁150	-9451
▁Ern	-9452
▁Sac	-9453
▁Wis	-9454
▁www	-9455
▁Berg	-9456
▁Mall	-9457
▁Mend	-9458
▁mini	-9459
▁seal	-9460
▁vary	-9461
ielder	-9462
stract	-9463
▁2000,	-9464
▁Brian	-9465
▁Evans	-9466
▁adopt	-9467
▁anime	-9468
▁drugs	-9469
▁falls	-9470
ificial	-9471
▁Dakota	-9472
▁Floren	-9473
▁Hunter	-9474
▁cinema	-9475
▁inters	-9476
▁negoti	-9477
▁paying	-9478
▁visits	-9479
▁Website	-9480
▁centers	-9481
▁circuit	-9482
▁portray	-9483
including	-9484
▁Baseball	-9485
▁Planning	-9486
▁scholarship	-9487
rot	-9488
aman	-9489
aser	-9490
brew	-9491
made	-9492
▁Sha	-9493
▁Tar	-9494
▁ber	-9495
▁1922	-9496
▁Bath	-9497
▁gate	-9498
▁vast	-9499
ennial	-9500
▁Maybe	-9501
▁boost	-9502
▁cited	-9503
▁ocean	-9504
▁signs	-9505
▁(2019)	-9506
▁movies	-9507
▁saving	-9508
▁moments	-9509
▁Electric	-9510
▁survived	-9511
▁dangerous	-9512
▁categories	-9513
▁collecting	-9514
▁traditions	-9515
56	-9516
’.	-9517
bel	-9518
iri	-9519
yer	-9520
agan	-9521
high	-9522
rons	-9523
wall	-9524
–198	-9525
▁13.	-9526
▁Sor	-9527
▁Ult	-9528
▁Vik	-9529
ching	-9530
▁Gonz	-9531
▁Hold	-9532
▁Hunt	-9533
▁Yang	-9534
▁gene	-9535
▁1999,	-9536
▁Lanka	-9537
▁rated	-9538
▁towns	-9539
olished	-9540
▁acknow	-9541
▁cheese	-9542
▁duties	-9543
▁proved	-9544
▁refers	-9545
▁realize	-9546
▁Politics	-9547
▁Together	-9548
▁averaged	-9549
▁Amsterdam	-9550
▁Frederick	-9551
▁Robertson	-9552
▁incidents	-9553
▁reduction	-9554
▁Protection	-9555
▁possibility	-9556
dh	-9557
izz	-9558
uka	-9559
▁(3	-9560
▁HD	-9561
oked	-9562
sole	-9563
▁Cov	-9564
▁Lis	-9565
▁SEA	-9566
issue	-9567
peror	-9568
▁Buff	-9569
▁Expl	-9570
▁Ryan	-9571
▁obst	-9572
engers	-9573
iology	-9574
▁bless	-9575
▁lakes	-9576
▁Karnat	-9577
▁Signal	-9578
▁permit	-9579
▁rounds	-9580
▁summit	-9581
▁knowing	-9582
▁rapidly	-9583
▁Giovanni	-9584
▁payments	-9585
▁emigrants	-9586
▁sponsored	-9587
▁implemented	-9588
97	-9589
bot	-9590
pir	-9591
you	-9592
alks	-9593
furt	-9594
rett	-9595
team	-9596
▁Aqu	-9597
▁tex	-9598
March	-9599
backs	-9600
build	-9601
▁(188	-9602
▁Fame	-9603
▁Garc	-9604
▁Gian	-9605
▁Lang	-9606
▁Site	-9607
▁rabb	-9608
making	-9609
▁Daily	-9610
▁proof	-9611
animous	-9612
ossible	-9613
▁Carlos	-9614
▁funded	-9615
▁guilty	-9616
▁planet	-9617
▁powder	-9618
▁runner	-9619
▁subsid	-9620
▁Writing	-9621
▁affairs	-9622
▁illegal	-9623
▁altitude	-9624
▁Authority	-9625
▁Personnel	-9626
▁abandoned	-9627
▁reporting	-9628
▁Scientific	-9629
▁absolutely	-9630
▁challenging	-9631
4%	-9632
?"	-9633
gun	-9634
▁(,	-9635
abad	-9636
inos	-9637
ivic	-9638
uits	-9639
▁Arn	-9640
▁Bak	-9641
▁Joy	-9642
▁NFL	-9643
▁les	-9644
5,000	-9645
ocket	-9646
▁1933	-9647
▁Patt	-9648
▁beer	-9649
inding	-9650
intage	-9651
▁1942,	-9652
▁2005.	-9653
▁Years	-9654
▁shops	-9655
▁Gordon	-9656
▁Paragu	-9657
▁engage	-9658
▁reward	-9659
▁Musical	-9660
▁Village	-9661
▁adapted	-9662
▁Paintings	-9663
▁Relations	-9664
▁standings	-9665
▁completing	-9666
▁efficiency	-9667
▁Mississippi	-9668
▁agricultural	-9669
HA	-9670
ör	-9671
she	-9672
uki	-9673
▁Az	-9674
ethe	-9675
▁Lev	-9676
▁Rav	-9677
▁joy	-9678
imore	-9679
power	-9680
▁MEPs	-9681
▁Shop	-9682
▁bran	-9683
enders	-9684
gorith	-9685
▁Vegas	-9686
▁doubt	-9687
igrated	-9688
therton	-9689
uscript	-9690
▁Future	-9691
▁lights	-9692
▁seemed	-9693
▁Working	-9694
irmingham	-9695
▁Ghanaian	-9696
▁calendar	-9697
▁retained	-9698
▁strongly	-9699
▁Technical	-9700
▁component	-9701
▁concerned	-9702
▁exception	-9703
▁guarantee	-9704
▁interpret	-9705
▁movements	-9706
▁Operations	-9707
▁industries	-9708
▁Distribution	-9709
SW	-9710
TM	-9711
▁Ll	-9712
hall	-9713
odge	-9714
song	-9715
▁Cer	-9716
▁YOU	-9717
eties	-9718
owing	-9719
▁1934	-9720
▁Edin	-9721
▁Sang	-9722
▁UEFA	-9723
▁Wake	-9724
▁caps	-9725
ellite	-9726
gcolor	-9727
▁Patri	-9728
▁camps	-9729
▁immun	-9730
▁worst	-9731
fielder	-9732
▁arrive	-9733
▁insect	-9734
▁statue	-9735
▁themes	-9736
▁brigade	-9737
▁convent	-9738
▁underst	-9739
▁Florence	-9740
▁eligible	-9741
▁opposite	-9742
▁recovery	-9743
▁Karnataka	-9744
▁Orchestra	-9745
▁explained	-9746
▁Agriculture	-9747
OV	-9748
1).	-9749
cat	-9750
gel	-9751
▁(5	-9752
▁Ga	-9753
▁RS	-9754
urse	-9755
▁Ele	-9756
▁Lov	-9757
▁Sad	-9758
andal	-9759
ppers	-9760
ropod	-9761
woman	-9762
▁Boys	-9763
▁Rena	-9764
▁Tank	-9765
▁appl	-9766
▁dish	-9767
eepers	-9768
iatric	-9769
istani	-9770
▁Still	-9771
▁aimed	-9772
▁marks	-9773
▁prime	-9774
▁trips	-9775
illiant	-9776
▁Kosovo	-9777
▁Select	-9778
▁garage	-9779
▁iPhone	-9780
idelines	-9781
liminary	-9782
ordinary	-9783
▁closing	-9784
▁fitness	-9785
▁lessons	-9786
▁stadium	-9787
▁Logistic	-9788
▁lighting	-9789
▁defenders	-9790
▁Birmingham	-9791
▁colleagues	-9792
▁impressive	-9793
Be	-9794
Is	-9795
MO	-9796
oj	-9797
eas	-9798
har	-9799
igi	-9800
iji	-9801
▁65	-9802
▁ID	-9803
▁Mi	-9804
itis	-9805
obby	-9806
érie	-9807
▁170	-9808
▁Hav	-9809
aceae	-9810
miral	-9811
onomy	-9812
▁Chel	-9813
▁Made	-9814
▁meat	-9815
▁sick	-9816
▁tier	-9817
irates	-9818
▁2001,	-9819
▁Pitts	-9820
▁tries	-9821
▁Bureau	-9822
▁Excell	-9823
▁Punjab	-9824
▁abroad	-9825
▁enthus	-9826
▁remark	-9827
Saguenay	-9828
▁Beijing	-9829
▁delight	-9830
▁paralle	-9831
▁Document	-9832
▁Hamilton	-9833
▁adjacent	-9834
▁hardware	-9835
▁artillery	-9836
▁inaugural	-9837
▁increases	-9838
▁tributary	-9839
▁Ambassador	-9840
▁affiliated	-9841
▁Communications	-9842
!"	-9843
CE	-9844
VD	-9845
mi	-9846
oro	-9847
osm	-9848
usc	-9849
▁|}	-9850
iden	-9851
ulse	-9852
▁181	-9853
▁lie	-9854
▁mac	-9855
▁Moon	-9856
▁Nunc	-9857
▁deck	-9858
▁eleg	-9859
▁empt	-9860
resses	-9861
▁admin	-9862
▁exped	-9863
▁inher	-9864
▁sizes	-9865
▁tours	-9866
▁width	-9867
holders	-9868
▁chapel	-9869
▁answers	-9870
▁killing	-9871
▁Campaign	-9872
▁Columbus	-9873
▁Decision	-9874
▁Robinson	-9875
▁occupied	-9876
▁Microsoft	-9877
▁continuing	-9878
▁interviews	-9879
▁transportation	-9880
IL	-9881
 °	-9882
bul	-9883
cut	-9884
rez	-9885
▁NP	-9886
▁Ian	-9887
▁Stu	-9888
▁Ivan	-9889
▁Pant	-9890
▁batt	-9891
▁mask	-9892
▁subt	-9893
apping	-9894
▁2000.	-9895
▁Activ	-9896
▁Happy	-9897
▁Innov	-9898
▁Roger	-9899
▁Speed	-9900
▁fleet	-9901
▁giant	-9902
claimed	-9903
▁Bulgar	-9904
▁Mother	-9905
ictional	-9906
▁Belarus	-9907
▁Climate	-9908
▁briefly	-9909
▁nuclear	-9910
▁scholar	-9911
▁suspect	-9912
▁assembly	-9913
▁chemical	-9914
▁premiere	-9915
▁Economics	-9916
▁Sometimes	-9917
▁chemistry	-9918
▁evolution	-9919
▁workshops	-9920
▁completion	-9921
▁influenced	-9922
▁popularity	-9923
▁supplement	-9924
▁involvement	-9925
▁midfielders	-9926
▁photographs	-9927
hl	-9928
▁@	-9929
-11	-9930
ido	-9931
▁voy	-9932
aware	-9933
break	-9934
elect	-9935
▁Andy	-9936
▁ages	-9937
▁boot	-9938
▁logo	-9939
▁pray	-9940
▁unus	-9941
ishers	-9942
▁Henri	-9943
▁prove	-9944
▁vital	-9945
▁crimes	-9946
▁humans	-9947
▁powers	-9948
▁relief	-9949
▁voters	-9950
▁Kennedy	-9951
▁Kitchen	-9952
▁bgcolor	-9953
▁portfol	-9954
▁viewers	-9955
▁Fighting	-9956
▁exposure	-9957
▁feedback	-9958
▁exhibited	-9959
▁Exhibition	-9960
▁criticized	-9961
▁personality	-9962
▁translation	-9963
OO	-9964
ht	-9965
agi	-9966
how	-9967
new	-9968
▁Wu	-9969
airo	-9970
cycl	-9971
emor	-9972
ikes	-9973
▁Pip	-9974
▁guy	-9975
otive	-9976
▁Cand	-9977
▁Carn	-9978
▁Mind	-9979
▁milk	-9980
▁tied	-9981
makers	-9982
▁André	-9983
▁Forum	-9984
▁Quest	-9985
▁Change	-9986
▁Nature	-9987
▁Twenty	-9988
▁batter	-9989
▁bishop	-9990
▁limits	-9991
▁Systems	-9992
▁assault	-9993
▁ceiling	-9994
▁Advanced	-9995
▁Material	-9996
▁Mitchell	-9997
▁bachelor	-9998
▁describe	-9999
▁rejected	-10000
▁carefully	-10001
▁contained	-10002
▁recipient	-10003
▁destination	-10004
▁capabilities	-10005
GP	-10006
ég	-10007
▁>	-10008
="0	-10009
West	-10010
bean	-10011
erto	-10012
jord	-10013
olen	-10014
olly	-10015
▁Did	-10016
▁IMF	-10017
▁Kil	-10018
▁Mes	-10019
▁Mik	-10020
▁NOT	-10021
▁hat	-10022
▁Cant	-10023
▁Gary	-10024
▁Poly	-10025
▁Shir	-10026
▁gard	-10027
▁hill	-10028
▁lift	-10029
▁root	-10030
▁Chang	-10031
▁bands	-10032
▁pitch	-10033
▁Father	-10034
▁eighth	-10035
▁resort	-10036
▁ruling	-10037
ertation	-10038
▁speaker	-10039
▁telling	-10040
▁guidance	-10041
▁sciences	-10042
▁suggests	-10043
▁Edinburgh	-10044
▁Venezuela	-10045
▁celebrate	-10046
▁incumbent	-10047
▁indicates	-10048
▁ownership	-10049
▁strategic	-10050
▁Indonesian	-10051
Af	-10052
fa	-10053
00.	-10054
This	-10055
cole	-10056
inus	-10057
omic	-10058
▁Hud	-10059
▁Isa	-10060
▁NAS	-10061
▁rig	-10062
▁tea	-10063
berry	-10064
ifies	-10065
ulous	-10066
▁Schn	-10067
▁mold	-10068
▁spir	-10069
avirus	-10070
▁Milan	-10071
▁blind	-10072
▁bonus	-10073
▁codes	-10074
▁comed	-10075
▁faces	-10076
▁inner	-10077
▁lunch	-10078
entures	-10079
▁denied	-10080
▁orient	-10081
▁voting	-10082
▁Madison	-10083
▁chamber	-10084
▁Franklin	-10085
▁Software	-10086
▁surprise	-10087
▁Instagram	-10088
▁electoral	-10089
▁neighbour	-10090
▁promoting	-10091
▁researcher	-10092
▁Performance	-10093
▁Architecture	-10094
▁contributing	-10095
▁representation	-10096
Am	-10097
lu	-10098
lag	-10099
pop	-10100
vet	-10101
▁CB	-10102
▁ax	-10103
alog	-10104
ocal	-10105
pons	-10106
rets	-10107
▁Bey	-10108
▁Cow	-10109
▁Dog	-10110
▁Ref	-10111
ariat	-10112
chers	-10113
rency	-10114
▁Lane	-10115
▁Such	-10116
▁Wend	-10117
▁bear	-10118
▁cake	-10119
▁pill	-10120
ishops	-10121
orable	-10122
▁Along	-10123
▁Store	-10124
▁Upper	-10125
▁Voice	-10126
▁grows	-10127
▁luxury	-10128
▁merged	-10129
▁Limited	-10130
▁creates	-10131
▁accurate	-10132
▁struggle	-10133
▁classroom	-10134
▁consistent	-10135
▁constantly	-10136
▁restoration	-10137
▁Demographics	-10138
▁manufacturers	-10139
-9	-10140
cho	-10141
omo	-10142
uda	-10143
▁(8	-10144
▁66	-10145
▁DJ	-10146
▁Iv	-10147
....	-10148
aved	-10149
dale	-10150
just	-10151
olia	-10152
▁15.	-10153
▁Fig	-10154
▁Lif	-10155
▁rid	-10156
▁sou	-10157
igate	-10158
orous	-10159
ourag	-10160
▁Golf	-10161
▁Jenn	-10162
▁none	-10163
▁moves	-10164
▁neuro	-10165
▁Cinema	-10166
▁honors	-10167
▁indeed	-10168
▁shower	-10169
▁strict	-10170
▁string	-10171
▁Bernard	-10172
▁Bristol	-10173
▁Liberal	-10174
▁vessels	-10175
▁Atherton	-10176
▁Stanford	-10177
▁everyday	-10178
▁proteins	-10179
▁reserves	-10180
▁Baltimore	-10181
▁coalition	-10182
▁passenger	-10183
ugh	-10184
▁PA	-10185
cons	-10186
rank	-10187
stic	-10188
▁Beg	-10189
▁Lag	-10190
▁Nan	-10191
▁bot	-10192
arner	-10193
illes	-10194
▁(190	-10195
▁1915	-10196
▁1927	-10197
▁Need	-10198
▁coat	-10199
hedral	-10200
▁Lower	-10201
▁Merit	-10202
▁coron	-10203
▁Graham	-10204
▁Hebrew	-10205
▁Sultan	-10206
▁rising	-10207
▁signal	-10208
▁spoken	-10209
▁targets	-10210
▁Bulgaria	-10211
▁compiled	-10212
▁sentence	-10213
▁sequence	-10214
▁defeating	-10215
▁ambassador	-10216
▁occupation	-10217
▁respective	-10218
▁sufficient	-10219
▁surrounded	-10220
SU	-10221
-15	-10222
gon	-10223
tha	-10224
▁(4	-10225
eals	-10226
enda	-10227
▁Eff	-10228
▁Roh	-10229
▁hyp	-10230
▁lad	-10231
▁Nord	-10232
▁Trib	-10233
▁bold	-10234
▁neck	-10235
▁1998,	-10236
▁Lists	-10237
▁armed	-10238
▁shock	-10239
▁Search	-10240
▁argued	-10241
▁genera	-10242
▁Colonel	-10243
▁Stewart	-10244
▁chicken	-10245
▁doubles	-10246
▁trouble	-10247
▁worship	-10248
▁Heritage	-10249
▁Jonathan	-10250
▁Marshall	-10251
▁Movement	-10252
▁focusing	-10253
▁observed	-10254
▁operates	-10255
▁somewhat	-10256
▁Engineers	-10257
▁diversity	-10258
▁offensive	-10259
▁regiments	-10260
▁southeast	-10261
▁contribute	-10262
▁Competition	-10263
Ad	-10264
Ed	-10265
TH	-10266
7).	-10267
helm	-10268
▁Rou	-10269
▁cro	-10270
entle	-10271
▁Beck	-10272
▁Tang	-10273
▁Ward	-10274
▁bike	-10275
▁dies	-10276
▁salt	-10277
▁suff	-10278
outimi	-10279
vision	-10280
▁Crown	-10281
▁drums	-10282
▁Altern	-10283
▁Athens	-10284
▁Bright	-10285
▁surviv	-10286
▁Collect	-10287
▁Individ	-10288
▁demands	-10289
▁Superior	-10290
▁drinking	-10291
▁chocolate	-10292
▁convicted	-10293
▁opponents	-10294
▁monitoring	-10295
▁submarines	-10296
▁sustainable	-10297
KO	-10298
Sc	-10299
….	-10300
tic	-10301
▁(6	-10302
inch	-10303
okes	-10304
oshi	-10305
▁16.	-10306
▁HAA	-10307
▁Wes	-10308
agers	-10309
orses	-10310
otton	-10311
▁1932	-10312
▁Kids	-10313
▁Pain	-10314
▁Soph	-10315
▁eggs	-10316
▁Caith	-10317
▁Rural	-10318
▁coupl	-10319
▁magic	-10320
▁poets	-10321
ensions	-10322
winning	-10323
▁closer	-10324
▁layout	-10325
▁mosque	-10326
▁worker	-10327
▁Vincent	-10328
▁banking	-10329
▁continu	-10330
▁engines	-10331
▁grounds	-10332
▁histone	-10333
▁infantry	-10334
▁doctorate	-10335
▁preferred	-10336
▁diplomatic	-10337
▁encouraged	-10338
▁increasingly	-10339
RP	-10340
’,	-10341
aji	-10342
▁tu	-10343
ding	-10344
page	-10345
pher	-10346
serv	-10347
▁14.	-10348
▁Gib	-10349
▁Lic	-10350
▁Lie	-10351
▁Obl	-10352
▁Sak	-10353
ciate	-10354
▁Foot	-10355
▁Gate	-10356
▁Math	-10357
▁Reid	-10358
▁bout	-10359
▁hung	-10360
▁meal	-10361
▁stim	-10362
ricted	-10363
terior	-10364
▁2002,	-10365
▁Achie	-10366
▁Carib	-10367
▁Grade	-10368
▁Ships	-10369
▁charm	-10370
▁intel	-10371
▁wrest	-10372
anthrop	-10373
▁Marath	-10374
▁Orange	-10375
▁debate	-10376
▁domain	-10377
▁varian	-10378
▁Seattle	-10379
▁delayed	-10380
▁donated	-10381
▁retreat	-10382
▁Benjamin	-10383
▁Johannes	-10384
▁Salvador	-10385
▁Thompson	-10386
▁algorith	-10387
▁congress	-10388
▁Caithness	-10389
▁intention	-10390
▁searching	-10391
▁accomplish	-10392
▁experimental	-10393
VP	-10394
iot	-10395
▁2-	-10396
▁68	-10397
▁Ce	-10398
aver	-10399
bing	-10400
chen	-10401
comp	-10402
phan	-10403
▁Nev	-10404
▁Ori	-10405
▁Pod	-10406
▁sky	-10407
immer	-10408
jiang	-10409
▁Beat	-10410
▁Cycl	-10411
▁Gast	-10412
▁Kirk	-10413
▁aims	-10414
▁cock	-10415
▁pays	-10416
▁wond	-10417
gments	-10418
▁Birth	-10419
▁Seven	-10420
▁Stars	-10421
▁Urban	-10422
▁roots	-10423
▁shift	-10424
ulating	-10425
▁Holmes	-10426
▁Should	-10427
▁horror	-10428
▁hotels	-10429
▁losses	-10430
▁reader	-10431
▁tenure	-10432
▁Montreal	-10433
▁believes	-10434
▁educator	-10435
▁authentic	-10436
▁magazines	-10437
▁requested	-10438
▁traveling	-10439
▁electrical	-10440
OC	-10441
uy	-10442
9),	-10443
Ind	-10444
raf	-10445
amer	-10446
host	-10447
irms	-10448
tery	-10449
▁1.5	-10450
▁Chi	-10451
ouver	-10452
▁Cole	-10453
▁ther	-10454
League	-10455
usalem	-10456
▁2002.	-10457
▁Franz	-10458
▁Villa	-10459
▁bench	-10460
▁poems	-10461
▁sheet	-10462
writing	-10463
▁Clarke	-10464
▁profit	-10465
▁defence	-10466
▁locally	-10467
▁Hawaiian	-10468
▁formally	-10469
▁licensed	-10470
▁thorough	-10471
▁Pakistani	-10472
▁sentenced	-10473
▁Literature	-10474
▁midfielder	-10475
▁celebration	-10476
71	-10477
EST	-10478
Mar	-10479
haw	-10480
rip	-10481
▁CM	-10482
▁Ny	-10483
▁TO	-10484
ctic	-10485
ects	-10486
ifer	-10487
kers	-10488
name	-10489
opal	-10490
zing	-10491
▁11.	-10492
▁Bag	-10493
▁Tob	-10494
▁Vel	-10495
ashed	-10496
story	-10497
▁Cann	-10498
▁Case	-10499
▁Magn	-10500
▁unex	-10501
pector	-10502
ported	-10503
▁Enjoy	-10504
▁Movie	-10505
▁ruled	-10506
▁Applic	-10507
▁Chapel	-10508
▁Weekly	-10509
▁eleven	-10510
▁frozen	-10511
▁scheme	-10512
▁triang	-10513
▁upgrad	-10514
▁Android	-10515
▁Liberty	-10516
▁islands	-10517
▁Arkansas	-10518
▁Princess	-10519
▁receives	-10520
▁engineers	-10521
▁generated	-10522
▁Chicoutimi	-10523
▁governments	-10524
DR	-10525
,18	-10526
And	-10527
hua	-10528
▁49	-10529
▁PM	-10530
foot	-10531
xual	-10532
▁Fab	-10533
▁Laz	-10534
▁Nad	-10535
▁Unf	-10536
▁lac	-10537
▁wra	-10538
child	-10539
▁crop	-10540
▁mile	-10541
ultane	-10542
▁Barry	-10543
▁plane	-10544
▁Employ	-10545
▁Ground	-10546
▁victim	-10547
▁premium	-10548
▁removal	-10549
▁volumes	-10550
▁Citations	-10551
▁Jerusalem	-10552
▁designers	-10553
▁conclusion	-10554
▁expression	-10555
▁functional	-10556
▁legislative	-10557
▁Representative	-10558
 –	-10559
20)	-10560
oya	-10561
wig	-10562
zon	-10563
▁LA	-10564
▁Yu	-10565
seud	-10566
thod	-10567
▁Alt	-10568
▁Gor	-10569
▁dub	-10570
▁fal	-10571
comes	-10572
otten	-10573
▁Deep	-10574
▁Luis	-10575
▁Tell	-10576
▁hang	-10577
▁turb	-10578
▁Draft	-10579
▁flash	-10580
▁keeps	-10581
▁loves	-10582
▁spots	-10583
issance	-10584
▁Knight	-10585
▁Raphit	-10586
▁bigger	-10587
▁discip	-10588
▁nutrit	-10589
▁trends	-10590
▁clothes	-10591
▁dispute	-10592
▁branches	-10593
▁breaking	-10594
▁ensuring	-10595
▁printing	-10596
▁reviewed	-10597
▁thriller	-10598
▁campaigns	-10599
▁centuries	-10600
▁Petersburg	-10601
▁approaches	-10602
▁grandfather	-10603
▁characteristics	-10604
/1	-10605
är	-10606
él	-10607
–4	-10608
▁Fa	-10609
▁fo	-10610
anes	-10611
uezd	-10612
▁Beh	-10613
▁Bog	-10614
▁Kle	-10615
▁tap	-10616
▁unw	-10617
▁var	-10618
duces	-10619
hythm	-10620
verty	-10621
▁Fres	-10622
▁Pool	-10623
▁Ship	-10624
▁Sony	-10625
▁foss	-10626
▁rose	-10627
length	-10628
letter	-10629
▁Citiz	-10630
▁Laura	-10631
▁Leban	-10632
▁Pract	-10633
▁solar	-10634
uckland	-10635
▁Johnny	-10636
▁Oliver	-10637
▁Warren	-10638
▁courts	-10639
▁2018–19	-10640
▁Platoon	-10641
▁Profile	-10642
▁descend	-10643
▁poverty	-10644
▁constant	-10645
▁employer	-10646
▁immediate	-10647
▁separated	-10648
▁seriously	-10649
▁Liberation	-10650
▁immigrants	-10651
▁laboratory	-10652
▁conservation	-10653
▁entrepreneur	-10654
CP	-10655
IR	-10656
La	-10657
-16	-10658
Man	-10659
ede	-10660
lew	-10661
rac	-10662
–21	-10663
▁4:	-10664
▁ON	-10665
hour	-10666
izza	-10667
otta	-10668
umer	-10669
umps	-10670
ylon	-10671
▁Kap	-10672
▁Mig	-10673
▁UFC	-10674
▁cul	-10675
▁hip	-10676
▁rac	-10677
annah	-10678
paper	-10679
ulner	-10680
▁3:00	-10681
▁Join	-10682
▁Lock	-10683
ceived	-10684
ushing	-10685
▁1,000	-10686
▁2003.	-10687
▁Guine	-10688
▁Tower	-10689
▁releg	-10690
▁dishes	-10691
▁extreme	-10692
▁Brothers	-10693
▁Maritime	-10694
▁merchant	-10695
▁parallel	-10696
▁Caribbean	-10697
▁intellect	-10698
▁perfectly	-10699
▁physician	-10700
▁volunteer	-10701
▁concerning	-10702
▁journalism	-10703
▁passengers	-10704
▁businessman	-10705
▁preparation	-10706
▁improvements	-10707
BO	-10708
IF	-10709
cm	-10710
auk	-10711
gio	-10712
nik	-10713
uin	-10714
▁$2	-10715
▁Aw	-10716
ourg	-10717
acles	-10718
adors	-10719
front	-10720
isted	-10721
ottom	-10722
▁Init	-10723
▁Peru	-10724
▁rend	-10725
inking	-10726
▁Initi	-10727
▁Mahar	-10728
country	-10729
▁Bosnia	-10730
▁Turner	-10731
▁Greater	-10732
▁amongst	-10733
▁anthrop	-10734
▁biology	-10735
▁inhabit	-10736
▁Campbell	-10737
▁reducing	-10738
▁syndrome	-10739
▁framework	-10740
▁provision	-10741
▁Queensland	-10742
▁appreciate	-10743
2).	-10744
irs	-10745
obb	-10746
wer	-10747
acon	-10748
uted	-10749
▁(16	-10750
▁Kit	-10751
▁Pav	-10752
▁Tas	-10753
▁amp	-10754
ifted	-10755
ricks	-10756
▁Beth	-10757
▁Bush	-10758
cessor	-10759
▁Banks	-10760
▁Epich	-10761
▁Maine	-10762
▁Plate	-10763
▁moder	-10764
▁solve	-10765
▁surre	-10766
▁texts	-10767
▁Clevel	-10768
▁margin	-10769
▁pursue	-10770
▁reveal	-10771
▁struck	-10772
friendly	-10773
▁Glasgow	-10774
▁Reading	-10775
▁capable	-10776
▁Auckland	-10777
▁Stafford	-10778
▁graphics	-10779
▁relation	-10780
▁Operation	-10781
▁influential	-10782
▁compensation	-10783
▁configuration	-10784
▁qualification	-10785
▁internationally	-10786
54	-10787
ér	-10788
For	-10789
ema	-10790
ohn	-10791
sea	-10792
olph	-10793
–201	-10794
▁Ing	-10795
▁mit	-10796
▁Mort	-10797
▁bond	-10798
▁boss	-10799
▁tact	-10800
▁twin	-10801
holder	-10802
▁Glory	-10803
▁Obama	-10804
▁Symph	-10805
▁forth	-10806
athered	-10807
quarter	-10808
theless	-10809
▁Arabia	-10810
▁Dragon	-10811
▁accomp	-10812
▁casual	-10813
▁cousin	-10814
▁decent	-10815
▁manual	-10816
▁sailed	-10817
▁Welcome	-10818
▁counsel	-10819
▁obvious	-10820
▁penalty	-10821
▁periods	-10822
▁recruit	-10823
▁trailer	-10824
▁Armenian	-10825
▁controll	-10826
▁proposal	-10827
▁supplied	-10828
▁Cleveland	-10829
▁Frankfurt	-10830
▁conscious	-10831
▁discovery	-10832
▁Industrial	-10833
▁attributed	-10834
▁consultant	-10835
▁convenient	-10836
▁circulation	-10837
▁specialized	-10838
▁Distinguished	-10839
▁concentration	-10840
%.	-10841
"),	-10842
="#	-10843
abe	-10844
loë	-10845
nai	-10846
nan	-10847
▁58	-10848
▁Dj	-10849
▁GP	-10850
▁Ki	-10851
edge	-10852
opes	-10853
▁Len	-10854
▁Sah	-10855
▁Sit	-10856
▁scr	-10857
liest	-10858
otion	-10859
▁Dund	-10860
▁Fish	-10861
▁Path	-10862
▁apps	-10863
▁scor	-10864
itches	-10865
▁1999.	-10866
▁Berke	-10867
▁Drive	-10868
▁Month	-10869
▁Muham	-10870
▁Musik	-10871
▁clock	-10872
▁comic	-10873
▁fraud	-10874
▁likes	-10875
▁noise	-10876
▁pharm	-10877
▁quiet	-10878
▁Credit	-10879
▁Double	-10880
▁Editor	-10881
▁ancest	-10882
▁Borough	-10883
▁Winners	-10884
▁advisor	-10885
▁crosses	-10886
▁desired	-10887
▁highway	-10888
▁repairs	-10889
▁Attorney	-10890
▁Particip	-10891
▁withdrew	-10892
▁allocated	-10893
▁interface	-10894
▁manuscript	-10895
▁substitute	-10896
▁Furthermore	-10897
▁lightweight	-10898
ém	-10899
aba	-10900
bai	-10901
▁39	-10902
▁47	-10903
▁SW	-10904
acre	-10905
athy	-10906
gart	-10907
holm	-10908
isch	-10909
▁AFC	-10910
▁Hil	-10911
▁Nav	-10912
▁Toy	-10913
▁Unt	-10914
group	-10915
inces	-10916
▁Dead	-10917
▁Term	-10918
▁stem	-10919
ranean	-10920
teenth	-10921
▁1993,	-10922
▁1996,	-10923
▁Heavy	-10924
▁cargo	-10925
▁chron	-10926
▁gorge	-10927
▁locks	-10928
▁tough	-10929
▁Denver	-10930
▁Venice	-10931
▁exists	-10932
▁grants	-10933
▁waived	-10934
▁Edwards	-10935
▁Princip	-10936
▁Revival	-10937
▁convert	-10938
▁crucial	-10939
▁landing	-10940
▁visible	-10941
organized	-10942
▁Confeder	-10943
▁Election	-10944
▁Epichloë	-10945
▁interact	-10946
▁lecturer	-10947
▁suddenly	-10948
▁sculpture	-10949
▁Kazakhstan	-10950
▁assessment	-10951
▁connecting	-10952
▁volleyball	-10953
▁instruction	-10954
▁transmission	-10955
▁corresponding	-10956
dem	-10957
ici	-10958
lla	-10959
rav	-10960
roe	-10961
▁MD	-10962
▁VI	-10963
-200	-10964
stad	-10965
udes	-10966
▁168	-10967
▁Fed	-10968
▁phr	-10969
ented	-10970
▁Bull	-10971
▁Come	-10972
▁Fant	-10973
▁drew	-10974
▁spin	-10975
▁tons	-10976
called	-10977
elfare	-10978
▁2001.	-10979
▁Adela	-10980
▁begun	-10981
▁cinem	-10982
▁kinds	-10983
▁meals	-10984
achment	-10985
onymous	-10986
▁Marvel	-10987
▁Survey	-10988
▁bottle	-10989
▁exceed	-10990
▁hidden	-10991
▁serial	-10992
▁vector	-10993
▁Highway	-10994
▁credits	-10995
▁fantasy	-10996
▁starred	-10997
▁flexible	-10998
▁freshman	-10999
▁involves	-11000
▁Broadcast	-11001
▁Musicians	-11002
▁educators	-11003
▁festivals	-11004
▁narrative	-11005
▁celebrated	-11006
▁conversion	-11007
▁statements	-11008
UC	-11009
acc	-11010
asi	-11011
rov	-11012
▁mm	-11013
othy	-11014
▁Mom	-11015
▁Sig	-11016
▁Sof	-11017
▁Teh	-11018
▁Hous	-11019
▁Soci	-11020
▁Vanc	-11021
▁fasc	-11022
▁thin	-11023
▁Franç	-11024
▁Model	-11025
▁acety	-11026
▁talks	-11027
▁Roster	-11028
▁Single	-11029
▁driven	-11030
▁sample	-11031
▁spokes	-11032
icopters	-11033
▁Biology	-11034
▁doctors	-11035
▁argument	-11036
▁millions	-11037
▁password	-11038
▁phenomen	-11039
▁realized	-11040
▁targeted	-11041
▁continuous	-11042
▁councillor	-11043
▁formations	-11044
▁announcement	-11045
▁congregation	-11046
sl	-11047
-01	-11048
00"	-11049
Eng	-11050
arr	-11051
mat	-11052
vol	-11053
zes	-11054
▁$3	-11055
enos	-11056
inen	-11057
ipur	-11058
irds	-11059
isan	-11060
orig	-11061
tics	-11062
▁Map	-11063
▁Ric	-11064
▁Try	-11065
▁Was	-11066
▁err	-11067
ascul	-11068
ellor	-11069
liers	-11070
otype	-11071
▁Baby	-11072
▁Bach	-11073
▁Burg	-11074
▁Iron	-11075
▁Isab	-11076
▁Mail	-11077
▁Mong	-11078
▁rebu	-11079
▁Blood	-11080
▁Cloud	-11081
▁Grace	-11082
▁Guide	-11083
▁Learn	-11084
▁Malta	-11085
▁Mario	-11086
▁Total	-11087
▁ranks	-11088
▁theat	-11089
▁Cambod	-11090
▁Deaths	-11091
▁Proper	-11092
▁mixing	-11093
▁upload	-11094
▁anticip	-11095
▁density	-11096
▁enables	-11097
▁reaches	-11098
▁Universe	-11099
▁encourag	-11100
▁invasion	-11101
▁Companies	-11102
▁decorated	-11103
▁economics	-11104
▁happening	-11105
▁telephone	-11106
▁Laboratory	-11107
▁Pittsburgh	-11108
▁collective	-11109
▁structural	-11110
▁dissertation	-11111
▁incorporated	-11112
53	-11113
ск	-11114
").	-11115
dess	-11116
eper	-11117
pent	-11118
▁250	-11119
▁Amy	-11120
▁ESP	-11121
▁Had	-11122
▁Wyn	-11123
▁yes	-11124
▁Lion	-11125
▁Vlad	-11126
▁gast	-11127
▁jury	-11128
▁stab	-11129
▁yard	-11130
ctuary	-11131
▁1897,	-11132
▁Being	-11133
▁Billy	-11134
▁Monte	-11135
▁breed	-11136
onomous	-11137
▁Stuart	-11138
▁panels	-11139
▁writes	-11140
▁Freedom	-11141
▁Machine	-11142
▁Primary	-11143
▁amateur	-11144
▁drafted	-11145
▁leather	-11146
▁Filipino	-11147
▁occasions	-11148
▁incredible	-11149
▁investigate	-11150
CD	-11151
IO	-11152
MH	-11153
6),	-11154
aja	-11155
asp	-11156
▁ca	-11157
apos	-11158
auge	-11159
boat	-11160
card	-11161
fish	-11162
rost	-11163
▁18.	-11164
▁Opp	-11165
ieval	-11166
leans	-11167
▁Belt	-11168
▁Hamb	-11169
▁Latv	-11170
▁Sail	-11171
▁dual	-11172
▁grey	-11173
boards	-11174
ortion	-11175
▁Categ	-11176
▁Griff	-11177
▁Krist	-11178
▁Mason	-11179
▁Which	-11180
▁milit	-11181
▁opens	-11182
▁stake	-11183
istical	-11184
▁Artist	-11185
▁Finals	-11186
▁Puerto	-11187
▁Episode	-11188
▁Physics	-11189
▁Student	-11190
▁genetic	-11191
bassadors	-11192
▁commemor	-11193
▁normally	-11194
▁Insurance	-11195
▁brilliant	-11196
▁composers	-11197
▁cricketer	-11198
▁listening	-11199
▁portfolio	-11200
▁submarine	-11201
▁contractor	-11202
▁delivering	-11203
▁mathematics	-11204
▁Commissioner	-11205
▁Intermediate	-11206
43	-11207
UP	-11208
UT	-11209
iko	-11210
lob	-11211
ugu	-11212
▁CH	-11213
fare	-11214
imid	-11215
inda	-11216
oyal	-11217
▁Lud	-11218
▁Neg	-11219
▁por	-11220
encer	-11221
named	-11222
▁Angl	-11223
▁Date	-11224
▁Kate	-11225
▁Luke	-11226
▁glad	-11227
castle	-11228
estone	-11229
ricane	-11230
▁Falls	-11231
▁Tampa	-11232
▁fired	-11233
▁layer	-11234
▁taxes	-11235
▁Govern	-11236
▁Justin	-11237
▁Recent	-11238
▁Within	-11239
▁prayer	-11240
▁thirty	-11241
▁Alberta	-11242
▁Buffalo	-11243
▁Janeiro	-11244
▁Orleans	-11245
▁Without	-11246
▁airline	-11247
▁colours	-11248
▁decline	-11249
▁routine	-11250
▁sisters	-11251
▁Creative	-11252
▁choosing	-11253
▁expenses	-11254
▁isolated	-11255
▁segments	-11256
▁stunning	-11257
▁aggregate	-11258
▁computing	-11259
▁displayed	-11260
▁distribut	-11261
▁enterprise	-11262
▁impossible	-11263
▁principles	-11264
▁Filmography	-11265
▁enforcement	-11266
▁immigration	-11267
▁arrangements	-11268
91	-11269
Or	-11270
cf	-11271
All	-11272
kov	-11273
umi	-11274
▁IL	-11275
▁Wi	-11276
agar	-11277
amps	-11278
eled	-11279
feld	-11280
igue	-11281
ilet	-11282
ints	-11283
leep	-11284
rica	-11285
tail	-11286
▁ABC	-11287
▁Jen	-11288
▁Mak	-11289
▁Mou	-11290
▁gal	-11291
▁sed	-11292
aping	-11293
icate	-11294
ubert	-11295
▁Benn	-11296
▁chat	-11297
▁chef	-11298
earing	-11299
phones	-11300
▁1991,	-11301
▁1994,	-11302
▁1997,	-11303
▁Deleg	-11304
▁liked	-11305
▁naval	-11306
▁Philip	-11307
▁endors	-11308
esterday	-11309
▁dealing	-11310
▁imagine	-11311
▁insight	-11312
▁mixture	-11313
▁museums	-11314
▁Berkeley	-11315
▁handling	-11316
▁behaviour	-11317
▁hospitals	-11318
▁comparison	-11319
▁programmes	-11320
▁wheelchair	-11321
▁acquisition	-11322
SR	-11323
si	-11324
amo	-11325
imp	-11326
▁41	-11327
▁76	-11328
illo	-11329
owed	-11330
▁Bot	-11331
▁Hom	-11332
▁Oil	-11333
▁Yam	-11334
▁Yet	-11335
▁ads	-11336
▁fol	-11337
▁hal	-11338
▁sib	-11339
month	-11340
olulu	-11341
owski	-11342
▁Conn	-11343
▁Host	-11344
▁Soul	-11345
▁hire	-11346
▁tone	-11347
▁wick	-11348
inated	-11349
lessly	-11350
▁Armed	-11351
▁Impact	-11352
▁blocks	-11353
▁detect	-11354
▁golden	-11355
▁honour	-11356
▁hoping	-11357
▁phosph	-11358
▁Cabinet	-11359
▁Commons	-11360
▁Pradesh	-11361
▁Process	-11362
▁Weather	-11363
▁exposed	-11364
▁lawsuit	-11365
▁longest	-11366
▁proport	-11367
▁sending	-11368
ustration	-11369
▁alliance	-11370
▁priority	-11371
▁Nashville	-11372
▁Vancouver	-11373
▁complement	-11374
▁highlights	-11375
▁reportedly	-11376
▁Discography	-11377
▁maintaining	-11378
▁Agricultural	-11379
▁Organization	-11380
Me	-11381
Te	-11382
tz	-11383
6).	-11384
8).	-11385
cul	-11386
▁(7	-11387
▁Sz	-11388
agre	-11389
arta	-11390
geon	-11391
irts	-11392
ords	-11393
rams	-11394
▁Buc	-11395
▁Kas	-11396
▁Kay	-11397
▁Tes	-11398
insky	-11399
mates	-11400
scale	-11401
▁Canc	-11402
▁Cell	-11403
▁Gret	-11404
▁Java	-11405
▁Prag	-11406
▁Ring	-11407
▁anch	-11408
▁clar	-11409
idency	-11410
uisine	-11411
▁1995,	-11412
▁Below	-11413
▁Delhi	-11414
▁Fjord	-11415
▁Helen	-11416
▁dated	-11417
▁react	-11418
▁Bengal	-11419
▁Ladies	-11420
▁Warsaw	-11421
▁copper	-11422
aturally	-11423
▁Quality	-11424
▁acceler	-11425
▁graphic	-11426
▁greatly	-11427
▁passage	-11428
▁Adelaide	-11429
▁actively	-11430
▁annually	-11431
▁honorary	-11432
▁lifetime	-11433
▁thousand	-11434
▁tropical	-11435
▁Elections	-11436
▁Friedrich	-11437
▁Municipal	-11438
▁Resources	-11439
▁Provincial	-11440
▁volunteers	-11441
93	-11442
emed	-11443
erie	-11444
icas	-11445
▁Cut	-11446
▁Daw	-11447
▁Fam	-11448
▁Ful	-11449
▁Kab	-11450
▁LLC	-11451
▁Opt	-11452
▁Pho	-11453
▁Pok	-11454
▁bay	-11455
▁orn	-11456
avier	-11457
brook	-11458
eston	-11459
etics	-11460
ochem	-11461
▁1912	-11462
▁1923	-11463
▁Lost	-11464
▁bars	-11465
cribed	-11466
igrant	-11467
ussion	-11468
▁Ahmad	-11469
▁Clara	-11470
▁Names	-11471
▁adequ	-11472
▁overw	-11473
▁scope	-11474
▁spark	-11475
▁toler	-11476
▁worse	-11477
▁Luxemb	-11478
▁flavor	-11479
▁flying	-11480
▁prohib	-11481
▁sequel	-11482
▁trials	-11483
▁Century	-11484
▁Consult	-11485
▁extinct	-11486
▁noticed	-11487
▁deployed	-11488
▁diameter	-11489
▁portrait	-11490
▁reaction	-11491
▁Universal	-11492
▁academics	-11493
▁execution	-11494
▁responded	-11495
▁uncertain	-11496
▁Individual	-11497
▁unexpected	-11498
▁interactions	-11499
gs	-11500
Que	-11501
fan	-11502
▁56	-11503
▁Kö	-11504
▁Vo	-11505
▁19.	-11506
▁Iss	-11507
▁Mey	-11508
▁VII	-11509
▁Vic	-11510
isson	-11511
▁Bowl	-11512
▁Hell	-11513
▁bowl	-11514
▁tech	-11515
▁uezd	-11516
▁vacc	-11517
raphic	-11518
▁Autom	-11519
▁Boris	-11520
▁Herze	-11521
▁Sales	-11522
▁Study	-11523
▁lingu	-11524
▁wider	-11525
osystem	-11526
▁Eagles	-11527
▁Making	-11528
▁Motors	-11529
▁Unlike	-11530
▁rapper	-11531
▁Besides	-11532
▁Chilean	-11533
▁amounts	-11534
▁dynamic	-11535
▁fastest	-11536
▁publicly	-11537
▁relative	-11538
iterranean	-11539
▁Directors	-11540
▁departure	-11541
▁sensitive	-11542
▁simultane	-11543
▁developers	-11544
▁eliminated	-11545
▁regulation	-11546
▁Afghanistan	-11547
▁fundamental	-11548
▁illustrated	-11549
▁consideration	-11550
▁extraordinary	-11551
)"	-11552
=9	-11553
UR	-11554
eur	-11555
▁52	-11556
▁OF	-11557
disc	-11558
oved	-11559
rice	-11560
▁Bil	-11561
▁Fav	-11562
▁hen	-11563
▁tip	-11564
being	-11565
style	-11566
▁Body	-11567
▁Very	-11568
govina	-11569
▁Adams	-11570
▁Chron	-11571
▁blank	-11572
▁hopes	-11573
▁remod	-11574
▁risks	-11575
▁shots	-11576
enhagen	-11577
inction	-11578
▁Arabic	-11579
▁fairly	-11580
▁finals	-11581
▁finest	-11582
▁lowest	-11583
▁viewed	-11584
▁Contest	-11585
▁Friends	-11586
▁Looking	-11587
▁diagram	-11588
▁promise	-11589
struction	-11590
▁Currently	-11591
▁lifestyle	-11592
▁Throughout	-11593
▁substantial	-11594
▁intervention	-11595
2"	-11596
Can	-11597
emp	-11598
▁iP	-11599
▁ok	-11600
asha	-11601
atsu	-11602
elry	-11603
gage	-11604
phis	-11605
tech	-11606
▁McL	-11607
▁Tab	-11608
▁cer	-11609
▁fur	-11610
▁pub	-11611
books	-11612
cycle	-11613
quake	-11614
▁ESPN	-11615
▁Kick	-11616
▁bare	-11617
acular	-11618
author	-11619
ronics	-11620
▁1944,	-11621
▁Lloyd	-11622
▁bread	-11623
▁Dennis	-11624
▁Olympi	-11625
▁Safety	-11626
▁resume	-11627
▁stored	-11628
▁venture	-11629
▁Anglican	-11630
▁Muhammad	-11631
▁gathered	-11632
▁regarded	-11633
▁wireless	-11634
▁addressed	-11635
▁indicated	-11636
▁signature	-11637
▁guidelines	-11638
▁percentage	-11639
▁agriculture	-11640
▁operational	-11641
▁consequences	-11642
▁Transportation	-11643
Br	-11644
cal	-11645
née	-11646
▁Aj	-11647
▁MC	-11648
▁fa	-11649
▁ri	-11650
▁Ana	-11651
▁Fif	-11652
▁Pel	-11653
erted	-11654
leges	-11655
odium	-11656
▁1000	-11657
▁Goth	-11658
▁Gust	-11659
▁Inte	-11660
▁Much	-11661
▁Salt	-11662
▁Thai	-11663
▁mild	-11664
▁sang	-11665
▁sees	-11666
▁sung	-11667
ilarly	-11668
▁1942.	-11669
▁Ahmed	-11670
▁Dubai	-11671
▁aside	-11672
▁cabin	-11673
▁laugh	-11674
itional	-11675
▁Estate	-11676
▁breaks	-11677
▁debuts	-11678
▁riding	-11679
▁voyage	-11680
▁vulner	-11681
▁artwork	-11682
▁healing	-11683
▁referee	-11684
▁suicide	-11685
▁unusual	-11686
▁watched	-11687
▁feminist	-11688
▁outbreak	-11689
▁ultimate	-11690
vironments	-11691
▁Secondary	-11692
▁commented	-11693
▁Copenhagen	-11694
afe	-11695
log	-11696
▁ML	-11697
▁NC	-11698
atus	-11699
cket	-11700
date	-11701
issa	-11702
quet	-11703
▁177	-11704
▁Esc	-11705
▁dur	-11706
▁fru	-11707
eenth	-11708
umbai	-11709
▁Hein	-11710
▁Mold	-11711
▁Want	-11712
▁hook	-11713
▁peer	-11714
▁pink	-11715
▁tast	-11716
▁vend	-11717
ewhere	-11718
orious	-11719
urring	-11720
yright	-11721
▁1990.	-11722
▁1995.	-11723
▁Blues	-11724
▁Coach	-11725
▁Qatar	-11726
▁Wisbe	-11727
▁genre	-11728
▁seeds	-11729
▁Archae	-11730
▁Course	-11731
▁Mandal	-11732
▁Screen	-11733
▁extend	-11734
▁reserv	-11735
▁slowly	-11736
▁torped	-11737
▁Cameron	-11738
▁Hamburg	-11739
▁charter	-11740
▁crossed	-11741
ipitation	-11742
▁Slovakia	-11743
▁concepts	-11744
▁founders	-11745
▁overview	-11746
▁Associate	-11747
▁appearing	-11748
▁criticism	-11749
▁Originally	-11750
▁definition	-11751
▁potentially	-11752
▁restrictions	-11753
TP	-11754
bek	-11755
def	-11756
eff	-11757
kar	-11758
ogg	-11759
▁Ib	-11760
dcdc	-11761
emon	-11762
game	-11763
rous	-11764
▁Gur	-11765
▁pup	-11766
bound	-11767
genre	-11768
oming	-11769
party	-11770
▁1917	-11771
▁Brig	-11772
▁Dipl	-11773
▁Gang	-11774
▁luck	-11775
▁slot	-11776
icance	-11777
insula	-11778
master	-11779
▁1945,	-11780
▁1992,	-11781
▁1993.	-11782
▁1998.	-11783
▁Eagle	-11784
▁Hindi	-11785
▁Treat	-11786
▁chore	-11787
▁empty	-11788
▁enemy	-11789
▁merch	-11790
through	-11791
▁(2017)	-11792
▁Guinea	-11793
▁Hughes	-11794
▁Legion	-11795
▁Sloven	-11796
ificance	-11797
▁forests	-11798
▁formula	-11799
▁gaining	-11800
▁samples	-11801
▁synthes	-11802
▁whereas	-11803
▁Handball	-11804
▁dialogue	-11805
▁memorial	-11806
▁Methodist	-11807
▁Stockholm	-11808
▁objective	-11809
▁stability	-11810
▁cooperation	-11811
▁inhabitants	-11812
▁demonstrated	-11813
▁expectations	-11814
▁undergraduate	-11815
8%	-11816
92	-11817
On	-11818
eh	-11819
rí	-11820
5),	-11821
Col	-11822
atz	-11823
xit	-11824
ichi	-11825
iler	-11826
oard	-11827
▁Ens	-11828
▁Lil	-11829
▁Osc	-11830
iking	-11831
oking	-11832
ontin	-11833
▁Batt	-11834
▁Semi	-11835
▁Type	-11836
▁Virt	-11837
▁loop	-11838
▁refr	-11839
ancers	-11840
icting	-11841
▁1968,	-11842
▁Alice	-11843
▁Deuts	-11844
▁Gabri	-11845
▁Susan	-11846
▁Warri	-11847
▁alive	-11848
▁honey	-11849
▁Oblast	-11850
▁Rodrig	-11851
▁Rotter	-11852
▁carpet	-11853
▁castle	-11854
▁extent	-11855
▁filmed	-11856
▁harass	-11857
▁patrol	-11858
missions	-11859
▁Wisbech	-11860
▁flights	-11861
▁secured	-11862
▁Scholars	-11863
▁advocate	-11864
▁defended	-11865
▁holidays	-11866
▁petition	-11867
▁releases	-11868
▁traveled	-11869
▁Catherine	-11870
▁Territory	-11871
▁suspension	-11872
▁Herzegovina	-11873
▁communicate	-11874
▁complicated	-11875
▁exceptional	-11876
▁goalkeepers	-11877
▁businesspeople	-11878
PG	-11879
fo	-11880
Est	-11881
ned	-11882
obs	-11883
pay	-11884
▁5:	-11885
▁85	-11886
▁Ri	-11887
▁Sr	-11888
▁XV	-11889
dest	-11890
inyl	-11891
rise	-11892
▁Bod	-11893
▁Kid	-11894
▁Nak	-11895
▁sin	-11896
▁1911	-11897
▁Craw	-11898
▁Grow	-11899
▁Side	-11900
▁bird	-11901
verage	-11902
▁Bears	-11903
▁Phill	-11904
▁cater	-11905
▁chrom	-11906
▁funny	-11907
▁ratio	-11908
▁usage	-11909
ocratic	-11910
riculum	-11911
tingham	-11912
▁Fresno	-11913
▁Diamond	-11914
▁backing	-11915
▁devoted	-11916
▁kilomet	-11917
▁nearest	-11918
▁sailing	-11919
▁enrolled	-11920
▁handball	-11921
▁reporter	-11922
▁Dominican	-11923
▁Ministers	-11924
▁Standings	-11925
▁emissions	-11926
▁prisoners	-11927
▁responses	-11928
▁assignment	-11929
▁graduation	-11930
▁practition	-11931
▁examination	-11932
▁exclusively	-11933
▁initiatives	-11934
▁collaborated	-11935
▁environments	-11936
▁Mediterranean	-11937
AD	-11938
Win	-11939
cie	-11940
elo	-11941
idi	-11942
igo	-11943
ivo	-11944
ocy	-11945
xic	-11946
▁$5	-11947
▁Ti	-11948
auth	-11949
eras	-11950
mate	-11951
mits	-11952
rine	-11953
▁Deb	-11954
▁FRE	-11955
▁Hat	-11956
▁Lak	-11957
▁fib	-11958
anion	-11959
ensen	-11960
oints	-11961
▁Feng	-11962
▁Link	-11963
▁Mast	-11964
▁ties	-11965
tracks	-11966
▁2000)	-11967
▁Divis	-11968
▁Lakes	-11969
▁Rabbi	-11970
▁Stein	-11971
▁deter	-11972
▁stead	-11973
▁surve	-11974
atorial	-11975
▁(2020)	-11976
▁Advent	-11977
▁assume	-11978
▁rarely	-11979
▁triple	-11980
▁Present	-11981
▁Wilhelm	-11982
▁runners	-11983
▁Manufact	-11984
▁abstract	-11985
▁disorder	-11986
▁doctoral	-11987
▁requests	-11988
▁Newcastle	-11989
▁accompany	-11990
▁relocated	-11991
▁satellite	-11992
▁somewhere	-11993
▁successor	-11994
▁surprised	-11995
▁Initiative	-11996
▁executives	-11997
▁permission	-11998
▁Christopher	-11999
▁distinguished	-12000
.-	-12001
=|	-12002
RL	-12003
hn	-12004
ahr	-12005
kan	-12006
ref	-12007
▁4-	-12008
▁44	-12009
aska	-12010
imen	-12011
imir	-12012
lass	-12013
▁(15	-12014
▁17.	-12015
▁Nat	-12016
▁Wag	-12017
▁cod	-12018
artet	-12019
etary	-12020
▁1916	-12021
▁Buch	-12022
▁Coin	-12023
▁sket	-12024
manuel	-12025
umbing	-12026
▁1992.	-12027
▁1999)	-12028
▁Kumar	-12029
▁Legal	-12030
▁Level	-12031
▁Treas	-12032
▁false	-12033
▁prest	-12034
▁resum	-12035
▁(2018)	-12036
▁Carter	-12037
▁Nevada	-12038
▁Torres	-12039
▁buyers	-12040
▁dreams	-12041
▁phones	-12042
▁therap	-12043
National	-12044
▁Bolivia	-12045
▁recipes	-12046
▁roughly	-12047
▁Literary	-12048
▁applying	-12049
▁claiming	-12050
▁emerging	-12051
▁modified	-12052
▁overlook	-12053
▁batteries	-12054
▁developer	-12055
▁packaging	-12056
▁classified	-12057
▁supporters	-12058
▁resignation	-12059
▁Unfortunately	-12060
▁controversial	-12061
My	-12062
eu	-12063
ku	-12064
ät	-12065
aws	-12066
bes	-12067
rix	-12068
▁5-	-12069
▁IF	-12070
="99	-12071
elia	-12072
ento	-12073
mund	-12074
▁130	-12075
▁Cav	-12076
▁Nam	-12077
isers	-12078
polit	-12079
▁Bond	-12080
▁dust	-12081
▁libr	-12082
▁nose	-12083
course	-12084
icking	-12085
▁1989.	-12086
▁Intro	-12087
▁Petit	-12088
▁Robin	-12089
▁pairs	-12090
quality	-12091
▁(1943)	-12092
▁Leader	-12093
▁fundra	-12094
▁hybrid	-12095
▁induct	-12096
▁proven	-12097
▁Morocco	-12098
▁depends	-12099
▁notably	-12100
▁posting	-12101
▁restore	-12102
▁skilled	-12103
▁upgrade	-12104
▁vintage	-12105
▁Symphony	-12106
▁earliest	-12107
▁engaging	-12108
▁ordinary	-12109
▁refriger	-12110
▁whenever	-12111
▁Coalition	-12112
▁Democrats	-12113
▁abilities	-12114
▁automatic	-12115
▁evaluation	-12116
▁renovation	-12117
▁restricted	-12118
▁integration	-12119
▁interaction	-12120
GE	-12121
eto	-12122
▁MI	-12123
▁Ms	-12124
▁ib	-12125
arel	-12126
beat	-12127
iffs	-12128
math	-12129
rane	-12130
rust	-12131
vere	-12132
ébec	-12133
▁Cla	-12134
▁Coc	-12135
▁Own	-12136
▁Rah	-12137
ische	-12138
owner	-12139
▁Bash	-12140
▁Gray	-12141
▁Loss	-12142
▁Reed	-12143
▁Shar	-12144
▁hack	-12145
▁hole	-12146
ittees	-12147
▁1996.	-12148
▁Ideas	-12149
▁Kenya	-12150
▁acted	-12151
▁facts	-12152
▁marry	-12153
ishment	-12154
pection	-12155
raction	-12156
▁Luther	-12157
▁Mumbai	-12158
▁Panama	-12159
▁Steven	-12160
▁Volume	-12161
▁Watson	-12162
▁astron	-12163
▁enroll	-12164
▁legacy	-12165
▁orange	-12166
▁rebell	-12167
▁tissue	-12168
▁falling	-12169
▁neither	-12170
▁estimate	-12171
▁monument	-12172
▁prospect	-12173
▁stronger	-12174
▁subscrib	-12175
▁ecosystem	-12176
▁publisher	-12177
▁recognize	-12178
▁arrangement	-12179
▁instruments	-12180
▁conservative	-12181
▁recommendations	-12182
, 	-12183
▁<	-12184
.),	-12185
/18	-12186
4).	-12187
eav	-12188
ieu	-12189
rus	-12190
who	-12191
bast	-12192
eded	-12193
▁Gay	-12194
▁Haz	-12195
▁Kot	-12196
▁kit	-12197
ammad	-12198
erals	-12199
imize	-12200
lette	-12201
ocene	-12202
omore	-12203
world	-12204
▁Bark	-12205
▁Gott	-12206
▁Spec	-12207
▁grab	-12208
▁sacr	-12209
▁torn	-12210
avalry	-12211
minute	-12212
ointed	-12213
thodox	-12214
▁Campe	-12215
▁Given	-12216
▁Roche	-12217
▁absor	-12218
▁parks	-12219
▁princ	-12220
rection	-12221
▁Around	-12222
▁Choice	-12223
▁Kerala	-12224
▁Prague	-12225
▁assemb	-12226
▁pulled	-12227
▁Protest	-12228
▁advised	-12229
▁borders	-12230
▁convinc	-12231
▁feather	-12232
▁refresh	-12233
▁uniform	-12234
▁decrease	-12235
▁donation	-12236
▁literally	-12237
▁challenged	-12238
▁songwriter	-12239
▁attractions	-12240
▁conferences	-12241
63	-12242
EX	-12243
bus	-12244
eta	-12245
omi	-12246
▁AG	-12247
▁EN	-12248
▁XI	-12249
ania	-12250
asse	-12251
rand	-12252
▁$20	-12253
▁Zur	-12254
▁asc	-12255
andin	-12256
charg	-12257
etown	-12258
lando	-12259
offic	-12260
opath	-12261
quiry	-12262
▁1890	-12263
▁Emma	-12264
▁Hack	-12265
▁dict	-12266
arians	-12267
getown	-12268
iances	-12269
▁Bruce	-12270
▁Krish	-12271
▁Magic	-12272
▁Prest	-12273
▁fewer	-12274
▁radar	-12275
▁sharp	-12276
▁yield	-12277
elected	-12278
urities	-12279
▁Butler	-12280
▁Poetry	-12281
▁explos	-12282
▁export	-12283
▁layers	-12284
▁testim	-12285
▁weapon	-12286
▁Fashion	-12287
▁compris	-12288
▁mystery	-12289
▁privile	-12290
▁wounded	-12291
ilitation	-12292
▁Graduate	-12293
▁boundary	-12294
▁overwhel	-12295
▁terminal	-12296
▁Rotterdam	-12297
▁liability	-12298
▁afterwards	-12299
▁compliance	-12300
▁describing	-12301
▁reasonable	-12302
▁Educational	-12303
▁accessories	-12304
▁establishing	-12305
▁manufactured	-12306
7%	-12307
9:	-12308
El	-12309
▁у	-12310
cfc	-12311
hal	-12312
ukh	-12313
▁.4	-12314
▁43	-12315
▁Gö	-12316
▁SO	-12317
bage	-12318
cker	-12319
ieri	-12320
ront	-12321
town	-12322
umph	-12323
▁2.0	-12324
press	-12325
▁Bass	-12326
▁Crus	-12327
▁Dest	-12328
▁Ober	-12329
▁Qing	-12330
▁asks	-12331
▁garn	-12332
▁seam	-12333
▁zero	-12334
▁1997.	-12335
▁Actor	-12336
▁Adult	-12337
▁Horse	-12338
▁manif	-12339
▁shoes	-12340
▁trash	-12341
ailable	-12342
founder	-12343
redited	-12344
▁Parker	-12345
▁Visual	-12346
▁dental	-12347
▁fitted	-12348
▁silent	-12349
▁Cornell	-12350
▁empower	-12351
▁failing	-12352
▁funeral	-12353
▁intense	-12354
▁rolling	-12355
▁servers	-12356
▁Guardian	-12357
▁Olympiad	-12358
▁bacteria	-12359
▁concerts	-12360
▁disaster	-12361
▁displays	-12362
▁elevated	-12363
▁generate	-12364
▁gorgeous	-12365
▁measured	-12366
▁relating	-12367
▁affiliate	-12368
▁dismissed	-12369
▁highlighted	-12370
▁preliminary	-12371
▁requirement	-12372
▁underground	-12373
▁availability	-12374
▁consultation	-12375
▁championships	-12376
RT	-12377
sm	-12378
–5	-12379
9).	-12380
ahl	-12381
axy	-12382
rah	-12383
▁42	-12384
▁– 	-12385
=";"	-12386
What	-12387
▁Lap	-12388
▁Row	-12389
▁Sie	-12390
▁Tah	-12391
▁Vil	-12392
▁Vit	-12393
Gener	-12394
alypt	-12395
borne	-12396
haust	-12397
isure	-12398
onato	-12399
▁Folk	-12400
▁Lamb	-12401
▁Left	-12402
▁belt	-12403
▁gran	-12404
▁rect	-12405
linary	-12406
▁1945.	-12407
▁1987.	-12408
▁1988,	-12409
▁1994.	-12410
▁Flash	-12411
▁Yorks	-12412
▁array	-12413
▁crash	-12414
▁drain	-12415
▁juris	-12416
▁manip	-12417
▁ninth	-12418
▁oblig	-12419
▁vinyl	-12420
▁Comedy	-12421
▁Miguel	-12422
▁Resort	-12423
▁banana	-12424
▁census	-12425
▁neighb	-12426
▁pastor	-12427
communic	-12428
▁Rangers	-12429
▁Shortly	-12430
▁Stanley	-12431
▁honours	-12432
▁ranging	-12433
▁Commerce	-12434
▁enjoying	-12435
▁executed	-12436
▁forecast	-12437
▁investor	-12438
rimination	-12439
▁certificate	-12440
▁compilation	-12441
▁productions	-12442
▁achievements	-12443
5"	-12444
MB	-12445
Wh	-12446
ei	-12447
ags	-12448
lov	-12449
mid	-12450
▁EM	-12451
▁IC	-12452
▁PR	-12453
asts	-12454
▁15-	-12455
▁Hir	-12456
▁Lav	-12457
▁Occ	-12458
▁Sou	-12459
▁Uez	-12460
▁gor	-12461
▁nam	-12462
encia	-12463
oples	-12464
tures	-12465
utter	-12466
▁Aber	-12467
▁Must	-12468
▁Pink	-12469
▁Priv	-12470
▁Ster	-12471
▁gang	-12472
▁oral	-12473
▁pour	-12474
▁stir	-12475
ellers	-12476
▁1941,	-12477
▁1980,	-12478
▁Baker	-12479
▁Joint	-12480
▁explo	-12481
▁forum	-12482
▁tooth	-12483
connect	-12484
▁define	-12485
▁holder	-12486
▁implic	-12487
▁indoor	-12488
▁partly	-12489
building	-12490
▁Cardiff	-12491
▁absence	-12492
▁acquire	-12493
▁careful	-12494
▁cartoon	-12495
▁cuisine	-12496
▁forever	-12497
▁printer	-12498
▁Honolulu	-12499
▁Learning	-12500
▁Remember	-12501
▁feelings	-12502
▁preserve	-12503
▁Yorkshire	-12504
▁acknowled	-12505
▁preparing	-12506
▁remainder	-12507
▁Campeonato	-12508
▁attractive	-12509
▁directions	-12510
▁consumption	-12511
▁departments	-12512
▁electricity	-12513
En	-12514
If	-12515
SL	-12516
Com	-12517
aca	-12518
Part	-12519
eton	-12520
hend	-12521
ingo	-12522
▁DVD	-12523
▁Obs	-12524
▁Por	-12525
▁für	-12526
chnum	-12527
pense	-12528
▁1908	-12529
▁Cele	-12530
▁Late	-12531
▁Pick	-12532
▁Sale	-12533
▁Tree	-12534
▁glac	-12535
family	-12536
omorph	-12537
▁Metal	-12538
▁Parks	-12539
▁Storm	-12540
▁lucky	-12541
founded	-12542
hematic	-12543
playing	-12544
▁Bronze	-12545
▁Reform	-12546
▁Santos	-12547
▁colony	-12548
▁compat	-12549
▁cruise	-12550
▁cultiv	-12551
▁floors	-12552
▁landsc	-12553
▁Knights	-12554
▁Memphis	-12555
▁Ottoman	-12556
▁Prefect	-12557
▁citizen	-12558
▁coastal	-12559
▁decides	-12560
▁emerged	-12561
▁mounted	-12562
▁powered	-12563
▁pricing	-12564
▁staying	-12565
▁veteran	-12566
▁Advisory	-12567
▁Analysis	-12568
▁Democrat	-12569
▁accuracy	-12570
▁currency	-12571
▁dumpster	-12572
▁generals	-12573
▁renowned	-12574
▁restored	-12575
▁Colombian	-12576
▁Northwest	-12577
▁animation	-12578
▁athletics	-12579
▁designing	-12580
▁suppliers	-12581
▁Excellence	-12582
▁depression	-12583
▁physicians	-12584
▁associations	-12585
▁intellectual	-12586
▁transactions	-12587
6%	-12588
hh	-12589
ár	-12590
Jan	-12591
anz	-12592
iago	-12593
unes	-12594
▁duo	-12595
▁pul	-12596
Queen	-12597
There	-12598
inist	-12599
rique	-12600
▁Brew	-12601
▁Comb	-12602
▁Lanc	-12603
▁Pitt	-12604
▁dent	-12605
▁drum	-12606
▁prev	-12607
▁reun	-12608
▁Jerry	-12609
▁crazy	-12610
▁nurse	-12611
▁plain	-12612
▁viral	-12613
▁zones	-12614
ainless	-12615
aternal	-12616
▁Carpet	-12617
▁Shadow	-12618
▁Valent	-12619
▁alumin	-12620
▁banned	-12621
▁immune	-12622
▁inches	-12623
▁retain	-12624
▁seller	-12625
atriates	-12626
▁2020–21	-12627
▁Chennai	-12628
▁Montana	-12629
▁Persian	-12630
▁auction	-12631
▁editing	-12632
▁elegant	-12633
▁neutral	-12634
hematical	-12635
▁proceeds	-12636
▁Electoral	-12637
▁employers	-12638
▁infection	-12639
▁screening	-12640
▁Christians	-12641
▁Leadership	-12642
▁Lithuanian	-12643
▁administer	-12644
▁disability	-12645
▁threatened	-12646
▁architectural	-12647
.;	-12648
07	-12649
=2	-12650
44-	-12651
aru	-12652
bie	-12653
eor	-12654
pic	-12655
▁59	-12656
▁AI	-12657
▁BM	-12658
▁CR	-12659
▁Ek	-12660
▁Gw	-12661
▁Mé	-12662
▁RC	-12663
Best	-12664
bach	-12665
hill	-12666
idal	-12667
ller	-12668
omon	-12669
osta	-12670
wear	-12671
▁Dew	-12672
▁Dif	-12673
▁Leo	-12674
▁Lor	-12675
▁pip	-12676
▁sau	-12677
iscal	-12678
ivian	-12679
print	-12680
▁Shin	-12681
▁Trip	-12682
▁Vick	-12683
▁clan	-12684
▁ease	-12685
▁sear	-12686
▁1990,	-12687
▁Uezds	-12688
▁Wayne	-12689
▁curve	-12690
▁gross	-12691
▁slave	-12692
▁treas	-12693
▁tribe	-12694
ascular	-12695
▁Brexit	-12696
▁circle	-12697
▁frustr	-12698
▁poster	-12699
▁safely	-12700
▁skiing	-12701
▁Commiss	-12702
▁Meeting	-12703
▁flowing	-12704
▁hunting	-12705
▁pianist	-12706
▁reveals	-12707
▁sectors	-12708
▁survive	-12709
▁Honorary	-12710
▁exterior	-12711
▁Palestine	-12712
▁divisions	-12713
▁donations	-12714
▁exercises	-12715
▁Additional	-12716
▁Venezuelan	-12717
▁architects	-12718
▁mechanisms	-12719
▁philanthrop	-12720
▁Intelligence	-12721
▁difficulties	-12722
__	-12723
ml	-12724
rs	-12725
(18	-12726
-23	-12727
IST	-12728
esc	-12729
onc	-12730
sts	-12731
tel	-12732
▁#1	-12733
▁54	-12734
▁62	-12735
▁Ig	-12736
▁Um	-12737
▁na	-12738
heng	-12739
isha	-12740
leys	-12741
▁50%	-12742
▁Blu	-12743
▁Hit	-12744
▁Ord	-12745
▁RNA	-12746
▁dim	-12747
aptop	-12748
ashes	-12749
oslov	-12750
raits	-12751
▁1896	-12752
▁Neil	-12753
▁cute	-12754
▁cuts	-12755
▁jazz	-12756
doctor	-12757
mother	-12758
▁1987,	-12759
▁1989,	-12760
▁Craig	-12761
▁Elite	-12762
▁Sweet	-12763
▁Veter	-12764
▁Yemen	-12765
▁acres	-12766
▁blues	-12767
▁quote	-12768
▁setup	-12769
endment	-12770
▁Alpini	-12771
▁Cancer	-12772
▁Hudson	-12773
▁Shield	-12774
▁housed	-12775
▁perpet	-12776
ensively	-12777
▁bridges	-12778
▁browser	-12779
▁coached	-12780
▁combine	-12781
▁outcome	-12782
▁Moreover	-12783
▁Paraguay	-12784
▁Previous	-12785
▁Railroad	-12786
▁colleges	-12787
▁opponent	-12788
▁overseas	-12789
▁pregnant	-12790
▁wildlife	-12791
▁diagnosed	-12792
▁frequency	-12793
▁introduce	-12794
▁Georgetown	-12795
▁Luxembourg	-12796
▁Nottingham	-12797
▁networking	-12798
▁recognised	-12799
▁treatments	-12800
▁populations	-12801
▁transaction	-12802
AB	-12803
aa	-12804
May	-12805
aze	-12806
uta	-12807
–16	-12808
▁AV	-12809
aris	-12810
esis	-12811
gate	-12812
raid	-12813
rape	-12814
ught	-12815
yler	-12816
▁Duo	-12817
▁tum	-12818
anded	-12819
apped	-12820
rants	-12821
▁1909	-12822
▁Azer	-12823
▁Bert	-12824
▁Fitz	-12825
▁Nazi	-12826
▁Soon	-12827
▁tort	-12828
="999.	-12829
church	-12830
ession	-12831
rators	-12832
screen	-12833
▁1984.	-12834
▁Abdul	-12835
▁Pedro	-12836
▁Sofia	-12837
▁coins	-12838
▁foods	-12839
▁gifts	-12840
iscopal	-12841
▁Grande	-12842
▁Manila	-12843
▁Québec	-12844
▁Rachel	-12845
▁autumn	-12846
▁backup	-12847
▁deeper	-12848
▁explan	-12849
▁landed	-12850
▁peaked	-12851
▁sheets	-12852
▁subdiv	-12853
▁Collins	-12854
▁Perfect	-12855
▁Reviews	-12856
▁academy	-12857
▁belongs	-12858
▁editors	-12859
▁entries	-12860
▁premises	-12861
▁reflects	-12862
▁Materials	-12863
▁basically	-12864
▁pregnancy	-12865
▁preserved	-12866
▁workplace	-12867
▁Alexandria	-12868
▁Innovation	-12869
▁biological	-12870
▁regulatory	-12871
▁demonstrate	-12872
▁generations	-12873
▁neighboring	-12874
▁compositions	-12875
▁considerable	-12876
▁significance	-12877
▁accommodation	-12878
–7	-12879
dep	-12880
fly	-12881
opy	-12882
orp	-12883
ríg	-12884
▁77	-12885
▁LP	-12886
▁NJ	-12887
Conn	-12888
East	-12889
empl	-12890
ifle	-12891
pine	-12892
rose	-12893
step	-12894
▁(10	-12895
▁600	-12896
▁Cad	-12897
▁Eli	-12898
▁LED	-12899
▁Vij	-12900
▁rum	-12901
eness	-12902
inian	-12903
▁1880	-12904
▁1904	-12905
▁1906	-12906
▁1907	-12907
▁Fast	-12908
▁Gren	-12909
▁Stri	-12910
▁Talk	-12911
▁adds	-12912
▁evil	-12913
▁lady	-12914
▁shed	-12915
iddish	-12916
ríguez	-12917
▁Congo	-12918
▁Extra	-12919
▁Jerem	-12920
▁Leeds	-12921
▁Pearl	-12922
▁bills	-12923
▁firms	-12924
service	-12925
▁Higher	-12926
▁Legacy	-12927
▁Syrian	-12928
▁muscle	-12929
▁settle	-12930
▁tempor	-12931
▁Emperor	-12932
▁Perhaps	-12933
▁compare	-12934
▁disturb	-12935
▁filling	-12936
▁removing	-12937
▁swimmers	-12938
▁Rodríguez	-12939
▁identical	-12940
▁Burlington	-12941
▁delegation	-12942
▁difficulty	-12943
▁purchasing	-12944
▁discussions	-12945
▁heavyweight	-12946
▁investments	-12947
▁intersection	-12948
▁subdivisions	-12949
▁temperatures	-12950
Qu	-12951
5).	-12952
asm	-12953
irie	-12954
ishi	-12955
olds	-12956
orns	-12957
▁Ave	-12958
▁Fra	-12959
▁Lun	-12960
▁unp	-12961
ifier	-12962
inery	-12963
–2019	-12964
▁Alph	-12965
▁Cars	-12966
▁Mann	-12967
▁Ming	-12968
▁Poll	-12969
▁Ruth	-12970
▁Samb	-12971
▁pace	-12972
▁quit	-12973
▁recy	-12974
▁tape	-12975
▁1981,	-12976
▁Aaron	-12977
▁Buddh	-12978
▁Cairo	-12979
▁Guild	-12980
▁Malay	-12981
▁Photo	-12982
▁Rider	-12983
▁Ridge	-12984
▁blend	-12985
▁horiz	-12986
▁noble	-12987
▁pride	-12988
▁pseud	-12989
▁reven	-12990
inating	-12991
itative	-12992
▁Alpine	-12993
▁Leslie	-12994
▁Ottawa	-12995
▁condem	-12996
▁deeply	-12997
▁essays	-12998
▁finger	-12999
▁nights	-13000
▁Species	-13001
▁Tourism	-13002
▁Yiddish	-13003
▁default	-13004
▁fellows	-13005
▁fighter	-13006
▁harvest	-13007
▁pleased	-13008
▁stretch	-13009
sequently	-13010
▁Emirates	-13011
▁Orthodox	-13012
▁controls	-13013
▁declined	-13014
▁playoffs	-13015
▁travelled	-13016
▁Fellowship	-13017
▁earthquake	-13018
▁instructor	-13019
▁Outstanding	-13020
▁supervision	-13021
▁illustrations	-13022
iop	-13023
mel	-13024
uum	-13025
ски	-13026
▁.3	-13027
▁Ax	-13028
▁SH	-13029
▁  	-13030
erse	-13031
esty	-13032
roph	-13033
▁176	-13034
▁Guy	-13035
▁Inv	-13036
▁Tru	-13037
▁arc	-13038
▁tel	-13039
▁wer	-13040
adian	-13041
chaft	-13042
first	-13043
raham	-13044
▁Hass	-13045
▁Tall	-13046
▁Thir	-13047
▁puts	-13048
▁wave	-13049
ashtra	-13050
bishop	-13051
bridge	-13052
▁Ident	-13053
▁Tesla	-13054
▁legit	-13055
written	-13056
▁10,000	-13057
▁Branch	-13058
▁Franco	-13059
▁Louise	-13060
▁Mining	-13061
▁Repair	-13062
▁Saints	-13063
▁Serbia	-13064
▁Tennis	-13065
▁anyway	-13066
▁citing	-13067
▁coupon	-13068
▁phrase	-13069
▁unions	-13070
▁Formula	-13071
▁battles	-13072
▁deposit	-13073
▁habitat	-13074
▁pointed	-13075
▁threats	-13076
▁utility	-13077
ictionary	-13078
▁Forestry	-13079
▁Interior	-13080
▁Moroccan	-13081
▁climbing	-13082
▁predomin	-13083
▁Animation	-13084
▁expanding	-13085
▁exploring	-13086
▁inclusion	-13087
▁initiated	-13088
▁sustained	-13089
▁guaranteed	-13090
▁vegetables	-13091
▁accommodate	-13092
▁assignments	-13093
▁controversy	-13094
▁governorate	-13095
";	-13096
51	-13097
LP	-13098
UTC	-13099
had	-13100
jud	-13101
▁TC	-13102
▁ru	-13103
atas	-13104
aton	-13105
inia	-13106
ixed	-13107
only	-13108
ouss	-13109
▁20.	-13110
▁Bav	-13111
▁Tat	-13112
▁gap	-13113
▁ore	-13114
anmar	-13115
antin	-13116
apest	-13117
archy	-13118
women	-13119
▁Agre	-13120
▁Bonn	-13121
▁Dame	-13122
▁Hond	-13123
▁Surv	-13124
astics	-13125
herent	-13126
▁1943.	-13127
▁1985,	-13128
▁1985.	-13129
▁Block	-13130
▁Lucas	-13131
▁Nancy	-13132
▁march	-13133
▁pizza	-13134
▁reass	-13135
limited	-13136
▁counts	-13137
▁genome	-13138
▁memoir	-13139
▁pounds	-13140
▁Edition	-13141
▁Summary	-13142
▁archive	-13143
▁comprom	-13144
▁elderly	-13145
▁footage	-13146
▁reforms	-13147
lementary	-13148
▁Everyone	-13149
▁Rankings	-13150
▁produces	-13151
▁analytics	-13152
▁mechanism	-13153
▁Ecological	-13154
▁beneficial	-13155
▁coronavirus	-13156
▁councillors	-13157
▁disestablished	-13158
:2	-13159
SS	-13160
cz	-13161
ña	-13162
iev	-13163
ogo	-13164
sur	-13165
ukk	-13166
▁67	-13167
▁py	-13168
alph	-13169
ente	-13170
ivan	-13171
ogan	-13172
oons	-13173
oves	-13174
post	-13175
quer	-13176
that	-13177
▁().	-13178
▁Aer	-13179
▁Lar	-13180
▁Lia	-13181
▁Lip	-13182
▁agg	-13183
edded	-13184
itate	-13185
ocese	-13186
ogami	-13187
ucker	-13188
▁Bent	-13189
▁FREE	-13190
▁Insp	-13191
▁Rica	-13192
▁Save	-13193
▁Wing	-13194
▁Wong	-13195
▁amid	-13196
▁bags	-13197
▁poem	-13198
▁vent	-13199
▁yoga	-13200
direct	-13201
ferred	-13202
oustic	-13203
▁1986,	-13204
▁2019–	-13205
▁Baron	-13206
▁Bobby	-13207
▁Ghost	-13208
▁Hyper	-13209
▁Minor	-13210
▁Quinn	-13211
▁choir	-13212
▁fiber	-13213
▁liver	-13214
▁nutri	-13215
▁shade	-13216
▁showc	-13217
▁trick	-13218
▁Inside	-13219
▁Things	-13220
▁handed	-13221
▁inject	-13222
▁mirror	-13223
▁patron	-13224
▁walked	-13225
ognition	-13226
▁Chapter	-13227
▁Croatia	-13228
▁Latvian	-13229
▁Orlando	-13230
▁exhibit	-13231
▁filming	-13232
▁fulfill	-13233
▁resolve	-13234
▁strange	-13235
imination	-13236
▁Consider	-13237
▁Tunisian	-13238
▁aviation	-13239
▁feminine	-13240
▁judgment	-13241
▁speakers	-13242
▁contracts	-13243
▁fictional	-13244
▁naturally	-13245
▁watershed	-13246
▁Presidents	-13247
▁regardless	-13248
▁Bangladeshi	-13249
▁contractors	-13250
▁expatriates	-13251
▁Constitution	-13252
▁developments	-13253
▁transformation	-13254
":	-13255
Ju	-13256
tr	-13257
CAF	-13258
agg	-13259
dal	-13260
dra	-13261
izh	-13262
oft	-13263
zed	-13264
best	-13265
iday	-13266
itus	-13267
▁Arc	-13268
▁Kol	-13269
▁MLA	-13270
▁NHL	-13271
▁Poz	-13272
▁Ted	-13273
▁cha	-13274
▁lip	-13275
essed	-13276
olves	-13277
ospel	-13278
▁1889	-13279
▁1913	-13280
▁Brom	-13281
▁Lisa	-13282
▁Nurs	-13283
▁fung	-13284
▁jail	-13285
▁mood	-13286
abetes	-13287
atches	-13288
ayette	-13289
cluded	-13290
icular	-13291
rupted	-13292
▁1975,	-13293
▁1986.	-13294
▁1991.	-13295
▁Grove	-13296
▁Oscar	-13297
▁inequ	-13298
▁overl	-13299
▁rehab	-13300
▁rises	-13301
General	-13302
clusive	-13303
minster	-13304
▁(2016)	-13305
▁Uganda	-13306
▁assass	-13307
▁borrow	-13308
▁carved	-13309
▁incent	-13310
▁physic	-13311
▁Account	-13312
▁Sanders	-13313
▁Stevens	-13314
▁carries	-13315
▁closure	-13316
▁cycling	-13317
▁ensures	-13318
▁Cleaning	-13319
▁consolid	-13320
▁overcome	-13321
▁rankings	-13322
▁tracking	-13323
ordination	-13324
▁Beautiful	-13325
▁Icelandic	-13326
▁partially	-13327
▁yesterday	-13328
▁attendance	-13329
▁impression	-13330
▁newsletter	-13331
▁sculptures	-13332
▁Conservation	-13333
▁negotiations	-13334
▁satisfaction	-13335
NC	-13336
gt	-13337
-21	-13338
Aug	-13339
hyn	-13340
low	-13341
ppe	-13342
ttp	-13343
–17	-13344
▁$4	-13345
▁.0	-13346
▁1-	-13347
▁2)	-13348
▁BA	-13349
akov	-13350
asis	-13351
cure	-13352
enix	-13353
fire	-13354
held	-13355
idad	-13356
ixon	-13357
ouch	-13358
uffy	-13359
uine	-13360
–199	-13361
▁(2)	-13362
▁Dad	-13363
▁Dim	-13364
▁Hey	-13365
▁Mam	-13366
▁Ole	-13367
▁Suz	-13368
▁los	-13369
▁Emil	-13370
▁Glen	-13371
▁Schw	-13372
▁beds	-13373
▁lets	-13374
▁symp	-13375
akespe	-13376
urious	-13377
▁1982,	-13378
▁1983,	-13379
▁Keith	-13380
▁Lingu	-13381
▁Siena	-13382
▁Spect	-13383
▁Theod	-13384
▁accum	-13385
▁asset	-13386
▁dozen	-13387
English	-13388
▁Gasper	-13389
▁Indies	-13390
▁Murphy	-13391
▁Parish	-13392
▁Strong	-13393
▁curler	-13394
▁filter	-13395
▁jurisd	-13396
▁loving	-13397
▁noting	-13398
▁ranges	-13399
▁sensor	-13400
doctoral	-13401
▁Critics	-13402
▁booking	-13403
▁cellist	-13404
▁dancing	-13405
▁divorce	-13406
▁kingdom	-13407
▁nominee	-13408
▁revised	-13409
▁arriving	-13410
▁diplomat	-13411
▁prosecut	-13412
▁siblings	-13413
▁Chemistry	-13414
▁Highlands	-13415
▁Structure	-13416
▁Taiwanese	-13417
▁belonging	-13418
▁computers	-13419
▁institute	-13420
▁specified	-13421
▁apparently	-13422
▁attempting	-13423
▁everywhere	-13424
▁soundtrack	-13425
▁Independence	-13426
▁interpretation	-13427
▁�	-13428
eda	-13429
ibi	-13430
ono	-13431
▁.5	-13432
▁88	-13433
▁Cu	-13434
▁Cz	-13435
▁VT	-13436
agog	-13437
etta	-13438
onne	-13439
ools	-13440
size	-13441
▁140	-13442
▁Cec	-13443
▁Jal	-13444
▁Ple	-13445
▁dil	-13446
▁els	-13447
▁hes	-13448
▁pad	-13449
ffiti	-13450
ouche	-13451
techn	-13452
▁Auto	-13453
▁Cros	-13454
▁Days	-13455
▁Sean	-13456
▁Snow	-13457
▁hull	-13458
▁knee	-13459
▁worn	-13460
athlon	-13461
reated	-13462
ussian	-13463
▁1982.	-13464
▁Bulld	-13465
▁Marco	-13466
▁Sugar	-13467
▁Zhang	-13468
▁abund	-13469
▁poker	-13470
oslovak	-13471
▁Claire	-13472
▁García	-13473
▁Legend	-13474
▁Summit	-13475
▁Sussex	-13476
▁Switch	-13477
▁Warner	-13478
▁dollar	-13479
▁loaded	-13480
▁unlike	-13481
ancellor	-13482
▁Myanmar	-13483
▁quantum	-13484
▁Delaware	-13485
▁Mohammad	-13486
▁canceled	-13487
▁dramatic	-13488
▁frequent	-13489
▁operator	-13490
▁supplier	-13491
▁survival	-13492
▁Cathedral	-13493
▁Initially	-13494
▁Malaysian	-13495
▁commanded	-13496
▁discontin	-13497
▁elsewhere	-13498
▁gradually	-13499
▁survivors	-13500
▁Scientists	-13501
▁Yugoslavia	-13502
▁creativity	-13503
▁influences	-13504
▁travelling	-13505
▁limitations	-13506
▁supplements	-13507
▁Christchurch	-13508
HP	-13509
hum	-13510
ibe	-13511
kok	-13512
obi	-13513
âte	-13514
alam	-13515
atty	-13516
onut	-13517
ovic	-13518
pert	-13519
▁Bin	-13520
▁Das	-13521
▁Lem	-13522
▁Liu	-13523
▁Lob	-13524
▁NHS	-13525
▁Rac	-13526
▁Saw	-13527
▁pin	-13528
asebo	-13529
oting	-13530
reens	-13531
stock	-13532
▁Cash	-13533
▁Corp	-13534
▁Jazz	-13535
▁Palm	-13536
▁Piet	-13537
▁Swan	-13538
▁Tick	-13539
▁bone	-13540
▁exch	-13541
▁icon	-13542
▁tiny	-13543
heimer	-13544
ifting	-13545
–2020)	-13546
▁Aires	-13547
▁Faith	-13548
▁Georg	-13549
▁boats	-13550
▁conve	-13551
▁folks	-13552
▁laser	-13553
▁remed	-13554
develop	-13555
unction	-13556
▁Copper	-13557
▁Manuel	-13558
▁Regard	-13559
▁Sasebo	-13560
▁Wagner	-13561
▁cannab	-13562
▁clause	-13563
▁emails	-13564
▁labels	-13565
▁merger	-13566
▁namely	-13567
▁refund	-13568
▁Azerbai	-13569
▁Economy	-13570
▁Evangel	-13571
▁Leonard	-13572
▁Muslims	-13573
▁fifteen	-13574
▁interim	-13575
▁manages	-13576
▁predict	-13577
▁ratings	-13578
▁Shakespe	-13579
▁criteria	-13580
▁interpre	-13581
▁switched	-13582
▁elevation	-13583
▁impressed	-13584
▁inventory	-13585
▁measuring	-13586
▁molecular	-13587
▁rebellion	-13588
▁facilitate	-13589
▁mathematic	-13590
▁struggling	-13591
▁touchdowns	-13592
▁Ambassadors	-13593
isp	-13594
pie	-13595
▁1)	-13596
▁HP	-13597
▁RE	-13598
000,	-13599
anti	-13600
fund	-13601
prof	-13602
than	-13603
▁Gov	-13604
▁Rey	-13605
▁Sul	-13606
▁cow	-13607
="200	-13608
aceut	-13609
anged	-13610
▁Blog	-13611
▁Fest	-13612
▁Fras	-13613
▁Roth	-13614
▁Shaw	-13615
▁Stra	-13616
▁exit	-13617
▁grid	-13618
▁hits	-13619
▁hurt	-13620
▁palm	-13621
▁rely	-13622
▁rust	-13623
comple	-13624
ometry	-13625
prises	-13626
▁1944.	-13627
▁1984,	-13628
▁Estab	-13629
▁Templ	-13630
▁arbit	-13631
▁picks	-13632
▁rever	-13633
▁rocks	-13634
▁screw	-13635
▁steal	-13636
▁École	-13637
stanbul	-13638
▁Plants	-13639
▁afraid	-13640
▁dancer	-13641
▁gaming	-13642
▁resemb	-13643
▁stolen	-13644
▁tackle	-13645
▁tender	-13646
original	-13647
▁Dundalk	-13648
▁Gardens	-13649
▁beating	-13650
▁minimal	-13651
▁utilize	-13652
▁Albanian	-13653
▁Broadway	-13654
▁Citizens	-13655
▁Investig	-13656
▁Township	-13657
▁Wildcats	-13658
▁emotions	-13659
▁mattress	-13660
▁outcomes	-13661
▁surnames	-13662
▁Peninsula	-13663
▁principle	-13664
▁accordance	-13665
▁elementary	-13666
▁nationwide	-13667
▁Czechoslovak	-13668
▁photographers	-13669
08	-13670
NS	-13671
ès	-13672
eon	-13673
gam	-13674
iaz	-13675
rec	-13676
▁04	-13677
▁AB	-13678
▁SM	-13679
▁Va	-13680
▁WC	-13681
▁cm	-13682
asia	-13683
auer	-13684
onna	-13685
▁Hob	-13686
▁Ign	-13687
▁Jag	-13688
▁Mét	-13689
▁Pow	-13690
▁Rai	-13691
▁nep	-13692
▁raw	-13693
anted	-13694
aurus	-13695
oglob	-13696
oning	-13697
▁Furn	-13698
▁Jama	-13699
▁Josh	-13700
▁Poss	-13701
▁Sard	-13702
▁sits	-13703
▁trim	-13704
ambers	-13705
caster	-13706
leased	-13707
▁(2000	-13708
▁Loren	-13709
▁Paper	-13710
▁Recon	-13711
▁Wheel	-13712
▁Worth	-13713
▁patri	-13714
▁sauce	-13715
▁tenth	-13716
▁yours	-13717
itarian	-13718
▁Alaska	-13719
▁Desert	-13720
▁Foster	-13721
▁Marcel	-13722
▁chairs	-13723
▁danger	-13724
▁horses	-13725
▁myster	-13726
▁pushed	-13727
stration	-13728
▁Jenkins	-13729
▁apprent	-13730
▁erected	-13731
▁exhaust	-13732
▁hitting	-13733
▁leagues	-13734
▁origins	-13735
▁placing	-13736
▁viewing	-13737
▁wealthy	-13738
▁findings	-13739
▁tomorrow	-13740
▁Jefferson	-13741
▁achieving	-13742
▁addresses	-13743
▁container	-13744
▁orchestra	-13745
▁provinces	-13746
▁sophomore	-13747
▁surviving	-13748
▁wallpaper	-13749
▁Enterprise	-13750
▁boundaries	-13751
▁corruption	-13752
▁excellence	-13753
▁friendship	-13754
▁mechanical	-13755
▁Maharashtra	-13756
▁extensively	-13757
▁disestablish	-13758
▁unsuccessful	-13759
HF	-13760
TF	-13761
dan	-13762
iba	-13763
▁WW	-13764
apse	-13765
mill	-13766
stop	-13767
▁21.	-13768
▁ALL	-13769
▁Ara	-13770
▁Aub	-13771
▁Aur	-13772
▁Sic	-13773
▁liv	-13774
▁pap	-13775
▁sor	-13776
aning	-13777
lined	-13778
ullah	-13779
▁Cool	-13780
▁Cruz	-13781
▁Rush	-13782
▁Slav	-13783
▁Tsun	-13784
▁hell	-13785
▁toll	-13786
usters	-13787
▁1997)	-13788
▁Arsen	-13789
▁Cover	-13790
▁Danny	-13791
▁botan	-13792
▁semin	-13793
rowspan	-13794
▁Andrea	-13795
▁Buenos	-13796
▁Combat	-13797
▁Merced	-13798
▁Prison	-13799
▁laptop	-13800
▁shaped	-13801
▁chronic	-13802
▁torpedo	-13803
imensions	-13804
▁Athletes	-13805
▁Estonian	-13806
▁François	-13807
▁Products	-13808
▁Vladimir	-13809
▁athletic	-13810
▁duration	-13811
▁opinions	-13812
▁pleasure	-13813
▁railroad	-13814
imensional	-13815
▁Agreement	-13816
▁Southwest	-13817
▁Victorian	-13818
▁attracted	-13819
▁favorable	-13820
▁permitted	-13821
▁artificial	-13822
▁prevention	-13823
▁surprising	-13824
▁Laurentides	-13825
▁conventional	-13826
▁characterized	-13827
Fi	-13828
PA	-13829
uh	-13830
alm	-13831
ław	-13832
▁..	-13833
▁63	-13834
▁OS	-13835
▁UP	-13836
achi	-13837
artz	-13838
gang	-13839
iane	-13840
inas	-13841
nels	-13842
oque	-13843
rary	-13844
▁10%	-13845
▁FCC	-13846
▁Gir	-13847
▁Nas	-13848
▁Rat	-13849
acked	-13850
atics	-13851
atile	-13852
atiya	-13853
grand	-13854
leted	-13855
onies	-13856
shore	-13857
urban	-13858
▁Deaf	-13859
▁Gill	-13860
▁Give	-13861
▁Hast	-13862
▁Hels	-13863
▁Hess	-13864
▁Pret	-13865
▁Self	-13866
▁fert	-13867
▁fled	-13868
▁inch	-13869
ounced	-13870
ustain	-13871
wright	-13872
▁Chase	-13873
▁Param	-13874
▁Princ	-13875
▁Share	-13876
▁Visit	-13877
▁edges	-13878
▁engra	-13879
▁wides	-13880
itively	-13881
▁Comics	-13882
▁Fusion	-13883
▁Houses	-13884
▁gentle	-13885
▁prints	-13886
▁trucks	-13887
iplinary	-13888
riptions	-13889
▁Bennett	-13890
▁Charlie	-13891
▁Spencer	-13892
▁arrives	-13893
▁cameras	-13894
▁curlers	-13895
▁murders	-13896
▁Budapest	-13897
▁Cambodia	-13898
▁Original	-13899
▁absolute	-13900
▁departed	-13901
▁emphasis	-13902
▁fighters	-13903
▁insights	-13904
▁medieval	-13905
▁minority	-13906
▁reserved	-13907
▁sculptor	-13908
▁surfaces	-13909
▁celebrity	-13910
▁dominated	-13911
▁pollution	-13912
▁prevented	-13913
▁discipline	-13914
▁incredibly	-13915
▁objectives	-13916
▁Mandalorian	-13917
▁achievement	-13918
▁interactive	-13919
▁Nevertheless	-13920
.:	-13921
67	-13922
HC	-13923
fi	-13924
arf	-13925
imo	-13926
two	-13927
▁Ng	-13928
baie	-13929
gree	-13930
liga	-13931
site	-13932
unci	-13933
▁Cha	-13934
▁Eld	-13935
▁Fly	-13936
▁Ost	-13937
▁Tad	-13938
▁Taj	-13939
▁wre	-13940
adows	-13941
ocent	-13942
▁1901	-13943
▁Kamp	-13944
▁Prec	-13945
▁Xbox	-13946
▁buds	-13947
▁glob	-13948
▁oven	-13949
▁pear	-13950
acious	-13951
arents	-13952
ensing	-13953
rapeut	-13954
struct	-13955
▁1980.	-13956
▁Apart	-13957
▁Belle	-13958
▁Canal	-13959
▁Crist	-13960
▁Impro	-13961
▁Julia	-13962
▁Maxim	-13963
▁Mills	-13964
▁Notre	-13965
▁Siber	-13966
▁Think	-13967
▁crack	-13968
▁drove	-13969
▁flour	-13970
▁grace	-13971
▁patio	-13972
▁prede	-13973
▁trigg	-13974
chester	-13975
fulness	-13976
imental	-13977
▁Cities	-13978
▁Geneva	-13979
▁Guards	-13980
▁Yellow	-13981
▁checks	-13982
▁deemed	-13983
▁newest	-13984
▁palace	-13985
▁regime	-13986
▁sledge	-13987
▁strain	-13988
▁voices	-13989
▁Anthrop	-13990
▁Concert	-13991
▁colonel	-13992
▁desktop	-13993
▁gardens	-13994
▁impulse	-13995
▁priests	-13996
▁Bulldogs	-13997
▁Fernando	-13998
▁Overview	-13999
▁Schubert	-14000
▁confront	-14001
▁drawings	-14002
▁fountain	-14003
▁moisture	-14004
▁alternate	-14005
▁struggles	-14006
▁applicable	-14007
▁expedition	-14008
▁harassment	-14009
▁passionate	-14010
▁performers	-14011
▁subsidiary	-14012
▁appreciated	-14013
▁inscription	-14014
▁Broadcasting	-14015
BE	-14016
OM	-14017
RD	-14018
ART	-14019
ENT	-14020
She	-14021
aku	-14022
eni	-14023
ilo	-14024
lez	-14025
ubs	-14026
▁GB	-14027
▁WA	-14028
▁уе	-14029
ader	-14030
aldi	-14031
atro	-14032
lain	-14033
▁McD	-14034
▁Raf	-14035
▁Rut	-14036
ocate	-14037
robin	-14038
store	-14039
uting	-14040
▁1870	-14041
▁Gand	-14042
▁Grey	-14043
▁Lect	-14044
▁Tong	-14045
▁aest	-14046
▁brew	-14047
▁hide	-14048
▁sour	-14049
▁wash	-14050
alties	-14051
assion	-14052
ottage	-14053
rieved	-14054
urrent	-14055
▁Guang	-14056
▁Image	-14057
▁Isaac	-14058
▁Knock	-14059
▁María	-14060
▁Seeds	-14061
▁Woods	-14062
▁Would	-14063
▁brush	-14064
▁coinc	-14065
▁mouse	-14066
▁outer	-14067
▁peaks	-14068
▁rally	-14069
▁trunk	-14070
Coaches	-14071
intendo	-14072
selling	-14073
ucalypt	-14074
▁Fraser	-14075
▁Nation	-14076
▁Telugu	-14077
▁apolog	-14078
▁errors	-14079
▁frames	-14080
▁fruits	-14081
▁salary	-14082
▁versus	-14083
ographed	-14084
▁Against	-14085
▁Hurling	-14086
▁Install	-14087
▁crusher	-14088
▁farming	-14089
▁hanging	-14090
▁patches	-14091
▁soldier	-14092
▁Partners	-14093
▁compound	-14094
▁enlisted	-14095
▁pleasant	-14096
▁universe	-14097
▁Francesco	-14098
▁biography	-14099
▁discharge	-14100
▁estimates	-14101
▁financing	-14102
▁neighbors	-14103
▁requiring	-14104
▁Prefecture	-14105
▁Volleyball	-14106
▁Mathematics	-14107
▁Republicans	-14108
▁coordinator	-14109
▁spectacular	-14110
▁Staffordshire	-14111
.'	-14112
PM	-14113
Pr	-14114
mn	-14115
xx	-14116
One	-14117
azi	-14118
edu	-14119
far	-14120
pez	-14121
was	-14122
▁!!	-14123
▁6-	-14124
▁mg	-14125
iper	-14126
–197	-14127
▁160	-14128
▁169	-14129
▁Kor	-14130
▁Pul	-14131
▁ibn	-14132
asted	-14133
chief	-14134
onian	-14135
▁Mord	-14136
▁Moss	-14137
▁Nice	-14138
▁Sold	-14139
▁cats	-14140
▁hate	-14141
▁keys	-14142
▁tent	-14143
▁wars	-14144
astery	-14145
enegro	-14146
roscop	-14147
▁Alleg	-14148
▁Emily	-14149
▁Glass	-14150
▁Natal	-14151
▁Perry	-14152
▁Pharm	-14153
▁digit	-14154
▁habit	-14155
▁reads	-14156
▁stops	-14157
▁swing	-14158
▁wings	-14159
January	-14160
▁Angela	-14161
▁Border	-14162
▁Harvey	-14163
▁Sebast	-14164
▁Wesley	-14165
▁endeav	-14166
▁pedest	-14167
▁plates	-14168
▁runoff	-14169
▁Actress	-14170
▁Bengali	-14171
▁Factory	-14172
▁Housing	-14173
▁Sisters	-14174
▁arrange	-14175
▁bottles	-14176
▁handled	-14177
▁heading	-14178
▁liberal	-14179
▁publish	-14180
▁stepped	-14181
▁wanting	-14182
▁warning	-14183
▁Institut	-14184
▁retiring	-14185
▁Principal	-14186
▁algorithm	-14187
▁contacted	-14188
▁followers	-14189
▁gathering	-14190
▁realistic	-14191
▁reflected	-14192
▁apartments	-14193
▁Westminster	-14194
▁progressive	-14195
▁Communication	-14196
su	-14197
auf	-14198
ayo	-14199
isi	-14200
lli	-14201
sor	-14202
▁Au	-14203
▁NZ	-14204
▁TX	-14205
bery	-14206
ourt	-14207
rien	-14208
this	-14209
week	-14210
▁Ask	-14211
▁Fol	-14212
▁Liv	-14213
▁Mul	-14214
▁hol	-14215
▁vic	-14216
amese	-14217
iated	-14218
rible	-14219
▁Doll	-14220
▁Ferr	-14221
▁Joan	-14222
▁Merc	-14223
▁Owen	-14224
▁Sche	-14225
▁Varg	-14226
▁Zimb	-14227
▁cust	-14228
▁dock	-14229
▁mamm	-14230
Donald	-14231
abling	-14232
ampton	-14233
ateral	-14234
▁1939,	-14235
▁1998)	-14236
▁Burns	-14237
▁Carlo	-14238
▁Eight	-14239
▁Goals	-14240
▁Luigi	-14241
▁Olive	-14242
▁Purch	-14243
▁Until	-14244
▁civic	-14245
▁metre	-14246
atories	-14247
rington	-14248
▁Nathan	-14249
▁Tasman	-14250
▁aboard	-14251
▁beaten	-14252
▁crafts	-14253
▁desper	-14254
▁embark	-14255
▁housem	-14256
▁outfit	-14257
▁wheels	-14258
children	-14259
▁Abraham	-14260
▁Doubles	-14261
▁Picture	-14262
▁Playing	-14263
▁impacts	-14264
▁seating	-14265
▁violent	-14266
▁Midlands	-14267
▁Officers	-14268
▁Physical	-14269
▁Santiago	-14270
▁Teaching	-14271
▁bankrupt	-14272
▁cemetery	-14273
▁chapters	-14274
▁confused	-14275
▁explored	-14276
▁reformed	-14277
▁correctly	-14278
▁inherited	-14279
▁nonprofit	-14280
▁relegated	-14281
▁sophistic	-14282
▁Eurovision	-14283
▁Everything	-14284
▁Indigenous	-14285
▁authorized	-14286
▁complaints	-14287
▁criticised	-14288
▁curriculum	-14289
▁physically	-14290
▁remarkable	-14291
▁occasionally	-14292
▁independently	-14293
▁identification	-14294
▁professionally	-14295
2-	-14296
Bo	-14297
UM	-14298
kt	-14299
……	-14300
-03	-14301
20.	-14302
Dec	-14303
esa	-14304
||0	-14305
▁(9	-14306
▁51	-14307
▁BB	-14308
▁MO	-14309
▁OK	-14310
atta	-14311
bbbb	-14312
dles	-14313
irhy	-14314
rano	-14315
such	-14316
▁1.0	-14317
▁110	-14318
▁ACC	-14319
▁Din	-14320
▁FOR	-14321
▁Fri	-14322
▁Gul	-14323
▁Kis	-14324
▁Liz	-14325
▁Yah	-14326
▁aqu	-14327
▁cad	-14328
ammed	-14329
ethyl	-14330
oland	-14331
onymy	-14332
ophys	-14333
pread	-14334
xiety	-14335
▁encl	-14336
▁sofa	-14337
▁tube	-14338
ateful	-14339
cester	-14340
giving	-14341
ocaust	-14342
▁1979.	-14343
▁Bella	-14344
▁Drama	-14345
▁Greta	-14346
▁Hindu	-14347
▁Logan	-14348
▁Minne	-14349
▁Nicol	-14350
▁Ralph	-14351
▁Seoul	-14352
▁cyber	-14353
▁steep	-14354
▁winds	-14355
-01-01"	-14356
ductive	-14357
irhytis	-14358
▁Arnold	-14359
▁Beauty	-14360
▁Choose	-14361
▁Fourth	-14362
▁Others	-14363
▁broker	-14364
▁comply	-14365
▁drains	-14366
▁equity	-14367
▁rebels	-14368
▁repeat	-14369
▁wishes	-14370
junction	-14371
▁Bangkok	-14372
▁Defunct	-14373
▁casting	-14374
▁precise	-14375
▁scatter	-14376
▁Caroline	-14377
▁Category	-14378
▁Criminal	-14379
▁Kenogami	-14380
▁Nintendo	-14381
▁Richmond	-14382
▁defender	-14383
▁editions	-14384
▁inducted	-14385
▁murdered	-14386
▁vertical	-14387
▁warranty	-14388
▁disorders	-14389
▁referring	-14390
▁transfers	-14391
▁Montenegro	-14392
▁approached	-14393
▁destroyers	-14394
▁possession	-14395
▁protecting	-14396
▁Callirhytis	-14397
▁imprisonment	-14398
▁investigated	-14399
59	-14400
FI	-14401
800	-14402
aft	-14403
eno	-14404
him	-14405
jin	-14406
kel	-14407
ymn	-14408
–22	-14409
▁LE	-14410
▁PT	-14411
Star	-14412
amas	-14413
colm	-14414
ilda	-14415
omed	-14416
émon	-14417
▁CBS	-14418
▁Ges	-14419
▁Jin	-14420
▁Ply	-14421
▁Wak	-14422
▁Wei	-14423
▁nic	-14424
green	-14425
icher	-14426
▁1892	-14427
▁1905	-14428
▁Mats	-14429
▁Mull	-14430
▁Nova	-14431
▁Pall	-14432
▁Samp	-14433
▁bark	-14434
▁beam	-14435
▁iPad	-14436
▁keen	-14437
▁pole	-14438
▁visa	-14439
August	-14440
ropods	-14441
strong	-14442
▁1948,	-14443
▁1983.	-14444
▁Cohen	-14445
▁Large	-14446
▁Teleg	-14447
▁alarm	-14448
▁corps	-14449
▁depot	-14450
▁diver	-14451
▁globe	-14452
▁overt	-14453
▁persu	-14454
▁spare	-14455
▁walks	-14456
▁Candid	-14457
▁Ernest	-14458
▁Insole	-14459
▁Somers	-14460
▁farmer	-14461
▁heaven	-14462
▁invite	-14463
▁packed	-14464
▁purple	-14465
pectives	-14466
▁Ancient	-14467
▁Complex	-14468
▁Holland	-14469
▁Nothing	-14470
▁chances	-14471
▁regards	-14472
▁scandal	-14473
▁shouldn	-14474
▁symbols	-14475
orporated	-14476
▁Swimming	-14477
▁balanced	-14478
▁basement	-14479
▁comedian	-14480
▁dynamics	-14481
▁hometown	-14482
▁novelist	-14483
▁portable	-14484
▁refugees	-14485
▁talented	-14486
▁Marketing	-14487
▁defendant	-14488
▁diagnosis	-14489
▁purchases	-14490
▁Elementary	-14491
▁presenting	-14492
▁filmography	-14493
▁additionally	-14494
▁productivity	-14495
▁discrimination	-14496
-09	-14497
18.	-14498
Ang	-14499
Sec	-14500
Ste	-14501
abi	-14502
gal	-14503
mus	-14504
▁BW	-14505
▁DO	-14506
▁Rs	-14507
▁ox	-14508
azed	-14509
folk	-14510
rovi	-14511
sted	-14512
▁10-	-14513
▁12-	-14514
▁1–0	-14515
▁Fut	-14516
▁ICC	-14517
▁Kom	-14518
▁Laf	-14519
▁Mut	-14520
▁Pom	-14521
▁Sta	-14522
▁Tib	-14523
▁Yak	-14524
▁ble	-14525
▁wis	-14526
ación	-14527
dated	-14528
gorod	-14529
iones	-14530
oween	-14531
▁Baie	-14532
▁Belf	-14533
▁Bird	-14534
▁Clay	-14535
▁Gael	-14536
▁Heat	-14537
▁Targ	-14538
▁bell	-14539
▁doct	-14540
ceased	-14541
ifinal	-14542
isting	-14543
itters	-14544
unders	-14545
urated	-14546
▁Hutch	-14547
▁Maced	-14548
▁Papua	-14549
▁Solid	-14550
▁Stutt	-14551
▁genes	-14552
▁ports	-14553
▁smile	-14554
▁weigh	-14555
regular	-14556
▁(2006)	-14557
▁(2012)	-14558
▁(2015)	-14559
▁Animal	-14560
▁Contra	-14561
▁Easter	-14562
▁Gerald	-14563
▁Valour	-14564
▁Wander	-14565
▁pocket	-14566
▁recall	-14567
▁Manipur	-14568
▁Matches	-14569
▁Mohamed	-14570
▁Roberto	-14571
▁enemies	-14572
▁rewards	-14573
▁streams	-14574
▁tribute	-14575
▁trusted	-14576
▁Councill	-14577
▁Resident	-14578
▁Starting	-14579
▁Synopsis	-14580
▁authored	-14581
▁checking	-14582
▁mortgage	-14583
songwriter	-14584
▁Episcopal	-14585
▁audiences	-14586
▁happiness	-14587
▁inspiring	-14588
▁legendary	-14589
▁overnight	-14590
▁satisfied	-14591
▁Philosophy	-14592
▁addressing	-14593
▁conviction	-14594
▁indigenous	-14595
▁psychology	-14596
▁semifinals	-14597
▁Certificate	-14598
▁Minneapolis	-14599
▁Photography	-14600
▁allegations	-14601
▁proceedings	-14602
▁promotional	-14603
▁suggestions	-14604
▁territories	-14605
▁experiencing	-14606
▁collaborative	-14607
!)	-14608
%,	-14609
At	-14610
Big	-14611
TER	-14612
awi	-14613
bas	-14614
jar	-14615
pin	-14616
rio	-14617
thy	-14618
▁79	-14619
▁DI	-14620
▁Dé	-14621
▁NG	-14622
▁oz	-14623
chou	-14624
enti	-14625
itic	-14626
oine	-14627
ondo	-14628
urst	-14629
wait	-14630
ylum	-14631
▁(1)	-14632
▁Kre	-14633
▁Yas	-14634
▁jaw	-14635
▁rit	-14636
▁sew	-14637
▁zip	-14638
algia	-14639
alore	-14640
aying	-14641
▁Help	-14642
▁Herz	-14643
▁Less	-14644
▁Pand	-14645
▁Pere	-14646
▁Trav	-14647
▁Winn	-14648
▁vibr	-14649
employ	-14650
ferent	-14651
forced	-14652
olving	-14653
ooting	-14654
ophone	-14655
stroke	-14656
▁Basel	-14657
▁Bened	-14658
▁Drake	-14659
▁gauge	-14660
▁laund	-14661
▁seeks	-14662
▁stuck	-14663
▁sworn	-14664
▁traff	-14665
▁verte	-14666
acional	-14667
million	-14668
rations	-14669
▁Norman	-14670
▁nephew	-14671
▁recycl	-14672
▁rhythm	-14673
▁trails	-14674
secution	-14675
▁Malbaie	-14676
▁Malcolm	-14677
▁centres	-14678
▁confess	-14679
▁evident	-14680
▁examine	-14681
▁pioneer	-14682
▁tackles	-14683
▁tension	-14684
▁theorem	-14685
▁tourist	-14686
ilization	-14687
▁Colonial	-14688
▁División	-14689
▁Villages	-14690
▁enhanced	-14691
▁explores	-14692
▁appliance	-14693
▁eliminate	-14694
▁obtaining	-14695
▁reactions	-14696
▁Psychology	-14697
▁demolished	-14698
▁imprisoned	-14699
▁inspection	-14700
▁variations	-14701
▁measurement	-14702
▁constitution	-14703
▁instrumental	-14704
▁functionality	-14705
/4	-14706
06	-14707
1:	-14708
85	-14709
BN	-14710
sg	-14711
8),	-14712
Ber	-14713
Nov	-14714
anu	-14715
bet	-14716
chy	-14717
mun	-14718
oko	-14719
rud	-14720
–23	-14721
▁97	-14722
▁ta	-14723
chin	-14724
elin	-14725
eted	-14726
inae	-14727
isse	-14728
larg	-14729
onso	-14730
uran	-14731
walk	-14732
▁Aus	-14733
▁Dod	-14734
▁Eye	-14735
▁Muk	-14736
▁USB	-14737
▁bib	-14738
▁bin	-14739
▁haz	-14740
comed	-14741
enzie	-14742
jitsu	-14743
later	-14744
orted	-14745
rowse	-14746
uling	-14747
▁Boot	-14748
▁Malt	-14749
▁Pred	-14750
▁Suff	-14751
▁burg	-14752
▁mari	-14753
▁outs	-14754
▁pron	-14755
French	-14756
agogue	-14757
esting	-14758
ischer	-14759
owners	-14760
▁Chant	-14761
▁Hydro	-14762
▁Jiang	-14763
▁buyer	-14764
▁inhib	-14765
▁ninet	-14766
▁Herman	-14767
▁Joshua	-14768
▁ballot	-14769
▁clinic	-14770
▁drinks	-14771
▁hiring	-14772
▁merely	-14773
▁praise	-14774
▁rescue	-14775
▁tunnel	-14776
elligent	-14777
▁Pokémon	-14778
▁beaches	-14779
▁cinemat	-14780
▁existed	-14781
▁goddess	-14782
▁massage	-14783
▁touring	-14784
▁Americas	-14785
▁Cameroon	-14786
▁Churches	-14787
▁Croatian	-14788
▁Highland	-14789
▁embedded	-14790
▁referend	-14791
▁shoulder	-14792
▁Henderson	-14793
▁Inspector	-14794
▁Stuttgart	-14795
▁editorial	-14796
▁investing	-14797
▁recovered	-14798
outheastern	-14799
▁committees	-14800
▁repeatedly	-14801
▁widespread	-14802
▁necessarily	-14803
communications	-14804
▁Qualification	-14805
▁certification	-14806
▁quarterfinals	-14807
▁simultaneously	-14808
Feb	-14809
How	-14810
Sch	-14811
bir	-14812
▁6–	-14813
▁96	-14814
▁FR	-14815
▁Fo	-14816
abwe	-14817
aler	-14818
anka	-14819
aque	-14820
assy	-14821
atha	-14822
avan	-14823
bone	-14824
inst	-14825
izon	-14826
llon	-14827
rock	-14828
umen	-14829
unda	-14830
vity	-14831
ylan	-14832
▁Mol	-14833
▁NEW	-14834
▁Pic	-14835
▁Sax	-14836
▁mor	-14837
bling	-14838
marks	-14839
▁1860	-14840
▁Bhar	-14841
▁Dise	-14842
▁Kash	-14843
▁Wals	-14844
▁brig	-14845
▁calm	-14846
▁maid	-14847
▁unve	-14848
▁ware	-14849
United	-14850
anking	-14851
▁1979,	-14852
▁Abbey	-14853
▁Analy	-14854
▁Champ	-14855
▁Schne	-14856
▁Train	-14857
▁conce	-14858
▁hyper	-14859
▁orche	-14860
▁patch	-14861
▁Adrian	-14862
▁Dayton	-14863
▁Hearts	-14864
▁Zurich	-14865
▁canvas	-14866
▁cotton	-14867
▁dubbed	-14868
▁eldest	-14869
official	-14870
▁Armenia	-14871
▁Capitol	-14872
▁Prairie	-14873
▁Raymond	-14874
▁Success	-14875
▁electro	-14876
▁equally	-14877
▁escaped	-14878
▁magical	-14879
▁nursing	-14880
▁renewed	-14881
▁Jennifer	-14882
▁Warriors	-14883
▁Yugoslav	-14884
▁Zimbabwe	-14885
▁civilian	-14886
▁cultures	-14887
▁matching	-14888
▁welcomed	-14889
▁Published	-14890
▁Rodriguez	-14891
▁compounds	-14892
▁democracy	-14893
▁operators	-14894
▁socialist	-14895
▁utilizing	-14896
▁Supporting	-14897
▁customized	-14898
▁indicating	-14899
▁organizing	-14900
▁recipients	-14901
▁thereafter	-14902
▁decorations	-14903
▁interviewed	-14904
▁prestigious	-14905
▁Presidential	-14906
▁administrator	-14907
?”	-14908
TR	-14909
mb	-14910
ów	-14911
ben	-14912
exp	-14913
iox	-14914
oso	-14915
whe	-14916
▁6:	-14917
▁72	-14918
▁AU	-14919
▁SU	-14920
▁ma	-14921
Cent	-14922
athi	-14923
hero	-14924
lett	-14925
rugu	-14926
▁$1.	-14927
▁Baj	-14928
▁Gaz	-14929
▁Lah	-14930
▁Mog	-14931
▁Tul	-14932
Press	-14933
arlic	-14934
atche	-14935
plant	-14936
racks	-14937
uated	-14938
utton	-14939
▁1903	-14940
▁Bess	-14941
▁Luck	-14942
▁Near	-14943
▁Nico	-14944
▁clay	-14945
▁moon	-14946
▁nail	-14947
▁node	-14948
▁quot	-14949
▁soup	-14950
minton	-14951
onomic	-14952
▁2019:	-14953
▁Alexa	-14954
▁Iraqi	-14955
▁Miles	-14956
▁della	-14957
▁locom	-14958
▁maker	-14959
▁penet	-14960
▁slots	-14961
olition	-14962
▁(2005)	-14963
▁Durham	-14964
▁Gender	-14965
▁Harbor	-14966
▁Mosque	-14967
▁Talbot	-14968
▁Tehran	-14969
▁fossil	-14970
▁guides	-14971
▁harder	-14972
▁skiers	-14973
▁talked	-14974
clesiast	-14975
ognitive	-14976
▁Admiral	-14977
▁Coaches	-14978
▁Geology	-14979
▁Lebanon	-14980
▁applies	-14981
▁dancers	-14982
▁enabled	-14983
▁insects	-14984
▁prosper	-14985
▁workout	-14986
▁Features	-14987
▁Practice	-14988
▁attitude	-14989
▁keyboard	-14990
▁quantity	-14991
▁Protected	-14992
▁affecting	-14993
▁dissolved	-14994
▁dedication	-14995
▁Achievement	-14996
▁incorporate	-14997
▁traditionally	-14998
HL	-14999
KE	-15000
-14	-15001
/10	-15002
=2|	-15003
dig	-15004
var	-15005
▁98	-15006
▁Uz	-15007
Cart	-15008
June	-15009
ablo	-15010
half	-15011
harm	-15012
▁166	-15013
▁Ble	-15014
▁Ein	-15015
[...]
