<unk>	0
<s>	0
</s>	0
<pad>	0
<0x00>	0
<0x01>	0
<0x02>	0
<0x03>	0
<0x04>	0
<0x05>	0
<0x06>	0
<0x07>	0
<0x08>	0
<0x09>	0
<0x0A>	0
<0x0B>	0
<0x0C>	0
<0x0D>	0
<0x0E>	0
<0x0F>	0
<0x10>	0
<0x11>	0
<0x12>	0
<0x13>	0
<0x14>	0
<0x15>	0
<0x16>	0
<0x17>	0
<0x18>	0
<0x19>	0
<0x1A>	0
<0x1B>	0
<0x1C>	0
<0x1D>	0
<0x1E>	0
<0x1F>	0
<0x20>	0
<0x21>	0
<0x22>	0
<0x23>	0
<0x24>	0
<0x25>	0
<0x26>	0
<0x27>	0
<0x28>	0
<0x29>	0
<0x2A>	0
<0x2B>	0
<0x2C>	0
<0x2D>	0
<0x2E>	0
<0x2F>	0
<0x30>	0
<0x31>	0
<0x32>	0
<0x33>	0
<0x34>	0
<0x35>	0
<0x36>	0
<0x37>	0
<0x38>	0
<0x39>	0
<0x3A>	0
<0x3B>	0
<0x3C>	0
<0x3D>	0
<0x3E>	0
<0x3F>	0
<0x40>	0
<0x41>	0
<0x42>	0
<0x43>	0
<0x44>	0
<0x45>	0
<0x46>	0
<0x47>	0
<0x48>	0
<0x49>	0
<0x4A>	0
<0x4B>	0
<0x4C>	0
<0x4D>	0
<0x4E>	0
<0x4F>	0
<0x50>	0
<0x51>	0
<0x52>	0
<0x53>	0
<0x54>	0
<0x55>	0
<0x56>	0
<0x57>	0
<0x58>	0
<0x59>	0
<0x5A>	0
<0x5B>	0
<0x5C>	0
<0x5D>	0
<0x5E>	0
<0x5F>	0
<0x60>	0
<0x61>	0
<0x62>	0
<0x63>	0
<0x64>	0
<0x65>	0
<0x66>	0
<0x67>	0
<0x68>	0
<0x69>	0
<0x6A>	0
<0x6B>	0
<0x6C>	0
<0x6D>	0
<0x6E>	0
<0x6F>	0
<0x70>	0
<0x71>	0
<0x72>	0
<0x73>	0
<0x74>	0
<0x75>	0
<0x76>	0
<0x77>	0
<0x78>	0
<0x79>	0
<0x7A>	0
<0x7B>	0
<0x7C>	0
<0x7D>	0
<0x7E>	0
<0x7F>	0
<0x80>	0
<0x81>	0
<0x82>	0
<0x83>	0
<0x84>	0
<0x85>	0
<0x86>	0
<0x87>	0
<0x88>	0
<0x89>	0
<0x8A>	0
<0x8B>	0
<0x8C>	0
<0x8D>	0
<0x8E>	0
<0x8F>	0
<0x90>	0
<0x91>	0
<0x92>	0
<0x93>	0
<0x94>	0
<0x95>	0
<0x96>	0
<0x97>	0
<0x98>	0
<0x99>	0
<0x9A>	0
<0x9B>	0
<0x9C>	0
<0x9D>	0
<0x9E>	0
<0x9F>	0
<0xA0>	0
<0xA1>	0
<0xA2>	0
<0xA3>	0
<0xA4>	0
<0xA5>	0
<0xA6>	0
<0xA7>	0
<0xA8>	0
<0xA9>	0
<0xAA>	0
<0xAB>	0
<0xAC>	0
<0xAD>	0
<0xAE>	0
<0xAF>	0
<0xB0>	0
<0xB1>	0
<0xB2>	0
<0xB3>	0
<0xB4>	0
<0xB5>	0
<0xB6>	0
<0xB7>	0
<0xB8>	0
<0xB9>	0
<0xBA>	0
<0xBB>	0
<0xBC>	0
<0xBD>	0
<0xBE>	0
<0xBF>	0
<0xC0>	0
<0xC1>	0
<0xC2>	0
<0xC3>	0
<0xC4>	0
<0xC5>	0
<0xC6>	0
<0xC7>	0
<0xC8>	0
<0xC9>	0
<0xCA>	0
<0xCB>	0
<0xCC>	0
<0xCD>	0
<0xCE>	0
<0xCF>	0
<0xD0>	0
<0xD1>	0
<0xD2>	0
<0xD3>	0
<0xD4>	0
<0xD5>	0
<0xD6>	0
<0xD7>	0
<0xD8>	0
<0xD9>	0
<0xDA>	0
<0xDB>	0
<0xDC>	0
<0xDD>	0
<0xDE>	0
<0xDF>	0
<0xE0>	0
<0xE1>	0
<0xE2>	0
<0xE3>	0
<0xE4>	0
<0xE5>	0
<0xE6>	0
<0xE7>	0
<0xE8>	0
<0xE9>	0
<0xEA>	0
<0xEB>	0
<0xEC>	0
<0xED>	0
<0xEE>	0
<0xEF>	0
<0xF0>	0
<0xF1>	0
<0xF2>	0
<0xF3>	0
<0xF4>	0
<0xF5>	0
<0xF6>	0
<0xF7>	0
<0xF8>	0
<0xF9>	0
<0xFA>	0
<0xFB>	0
<0xFC>	0
<0xFD>	0
<0xFE>	0
<0xFF>	0
▁t	-0
▁a	-1
in	-2
he	-3
re	-4
on	-5
er	-6
▁the	-7
▁s	-8
▁w	-9
or	-10
at	-11
nd	-12
ou	-13
▁c	-14
it	-15
es	-16
▁f	-17
is	-18
en	-19
▁p	-20
ing	-21
▁b	-22
▁o	-23
an	-24
al	-25
ed	-26
ar	-27
▁to	-28
▁and	-29
▁in	-30
▁m	-31
▁of	-32
ic	-33
▁d	-34
le	-35
om	-36
as	-37
ion	-38
▁h	-39
il	-40
▁th	-41
▁T	-42
▁y	-43
ent	-44
▁l	-45
ro	-46
st	-47
ve	-48
▁re	-49
▁I	-50
▁e	-51
▁S	-52
▁you	-53
ct	-54
▁n	-55
et	-56
▁A	-57
▁g	-58
▁C	-59
▁is	-60
ly	-61
▁for	-62
▁on	-63
ol	-64
id	-65
▁be	-66
ot	-67
ay	-68
ow	-69
ce	-70
ra	-71
us	-72
ig	-73
ch	-74
▁M	-75
ith	-76
el	-77
im	-78
ver	-79
ation	-80
am	-81
▁st	-82
ur	-83
▁P	-84
▁with	-85
ut	-86
▁B	-87
ad	-88
ir	-89
▁W	-90
▁The	-91
▁that	-92
ers	-93
▁al	-94
▁H	-95
ul	-96
▁it	-97
ill	-98
▁he	-99
▁pro	-100
▁as	-101
un	-102
▁D	-103
▁an	-104
▁F	-105
▁are	-106
▁1	-107
ge	-108
ter	-109
▁R	-110
se	-111
if	-112
our	-113
▁wh	-114
out	-115
ke	-116
oo	-117
▁2	-118
▁at	-119
▁con	-120
▁we	-121
▁com	-122
ess	-123
▁ha	-124
▁L	-125
ate	-126
est	-127
pp	-128
▁or	-129
▁your	-130
ab	-131
▁fr	-132
ac	-133
ment	-134
▁G	-135
her	-136
ist	-137
▁E	-138
▁N	-139
ort	-140
ore	-141
ure	-142
▁se	-143
op	-144
igh	-145
▁(	-146
ri	-147
▁ne	-148
qu	-149
▁ex	-150
▁O	-151
em	-152
ity	-153
▁v	-154
um	-155
▁was	-156
ant	-157
art	-158
▁from	-159
ld	-160
▁de	-161
pe	-162
ive	-163
oc	-164
all	-165
ust	-166
▁can	-167
and	-168
▁by	-169
ain	-170
th	-171
▁have	-172
os	-173
ies	-174
nt	-175
▁us	-176
▁r	-177
▁ch	-178
▁this	-179
▁sh	-180
▁will	-181
up	-182
ard	-183
▁pl	-184
ud	-185
res	-186
▁20	-187
ome	-188
ight	-189
iv	-190
▁J	-191
ie	-192
▁le	-193
▁su	-194
ial	-195
ide	-196
te	-197
fe	-198
ost	-199
▁wor	-200
▁not	-201
ag	-202
od	-203
rou	-204
▁all	-205
age	-206
ine	-207
▁Th	-208
ast	-209
ak	-210
▁ab	-211
▁In	-212
gh	-213
▁U	-214
ice	-215
red	-216
▁comp	-217
ear	-218
per	-219
ction	-220
▁j	-221
ip	-222
▁has	-223
og	-224
ks	-225
ell	-226
▁ad	-227
ould	-228
▁k	-229
▁our	-230
pt	-231
able	-232
▁K	-233
ry	-234
▁en	-235
▁Y	-236
ated	-237
ind	-238
ake	-239
are	-240
ich	-241
ite	-242
▁whe	-243
▁do	-244
du	-245
ally	-246
ber	-247
▁cl	-248
▁up	-249
ack	-250
▁out	-251
ong	-252
▁so	-253
00	-254
ther	-255
for	-256
one	-257
cc	-258
▁their	-259
so	-260
ia	-261
very	-262
ime	-263
▁me	-264
ail	-265
iz	-266
ook	-267
▁but	-268
ous	-269
ood	-270
▁te	-271
ign	-272
pl	-273
▁more	-274
▁201	-275
ance	-276
ans	-277
▁19	-278
ll	-279
▁im	-280
▁St	-281
▁V	-282
ions	-283
▁We	-284
ire	-285
▁cont	-286
erv	-287
▁It	-288
ach	-289
▁un	-290
▁one	-291
cl	-292
ap	-293
ace	-294
▁app	-295
▁man	-296
ase	-297
ree	-298
reat	-299
ue	-300
▁qu	-301
act	-302
▁they	-303
ult	-304
▁off	-305
ub	-306
▁res	-307
ren	-308
▁also	-309
▁fe	-310
ass	-311
und	-312
ations	-313
▁Re	-314
ib	-315
▁about	-316
ike	-317
▁Ch	-318
ary	-319
▁which	-320
▁work	-321
▁my	-322
ick	-323
ove	-324
ame	-325
ne	-326
av	-327
ount	-328
form	-329
▁This	-330
ish	-331
ile	-332
▁per	-333
▁sp	-334
▁"	-335
▁year	-336
▁who	-337
▁int	-338
ff	-339
▁time	-340
ical	-341
▁go	-342
▁3	-343
ents	-344
ings	-345
▁his	-346
▁new	-347
ark	-348
▁part	-349
ition	-350
▁ro	-351
mer	-352
▁get	-353
ays	-354
▁ev	-355
ian	-356
own	-357
▁tra	-358
ors	-359
▁any	-360
vel	-361
ence	-362
ck	-363
▁ar	-364
ru	-365
ond	-366
▁He	-367
▁other	-368
ress	-369
ater	-370
▁pr	-371
port	-372
ces	-373
▁pe	-374
▁sc	-375
ild	-376
▁need	-377
▁des	-378
vers	-379
▁like	-380
▁spe	-381
▁rec	-382
▁dis	-383
ound	-384
▁some	-385
▁them	-386
tern	-387
ep	-388
low	-389
ople	-390
▁sa	-391
ord	-392
ov	-393
▁“	-394
▁serv	-395
oy	-396
▁over	-397
▁col	-398
int	-399
▁-	-400
▁been	-401
ob	-402
▁pre	-403
wn	-404
ens	-405
▁kn	-406
▁when	-407
▁acc	-408
ang	-409
lp	-410
irst	-411
clud	-412
▁prov	-413
ose	-414
rough	-415
▁its	-416
ool	-417
▁You	-418
▁if	-419
▁ag	-420
▁help	-421
ough	-422
▁her	-423
ory	-424
▁play	-425
▁am	-426
ram	-427
▁what	-428
hed	-429
▁people	-430
▁into	-431
▁produ	-432
lic	-433
cial	-434
▁there	-435
▁than	-436
▁just	-437
▁how	-438
▁includ	-439
▁add	-440
ning	-441
fter	-442
old	-443
ates	-444
▁make	-445
▁would	-446
ink	-447
use	-448
▁tr	-449
▁bec	-450
▁were	-451
▁comm	-452
itt	-453
▁–	-454
▁Wh	-455
▁first	-456
▁bu	-457
ices	-458
ual	-459
ful	-460
ments	-461
▁4	-462
▁Un	-463
cts	-464
▁tw	-465
rent	-466
ons	-467
▁bl	-468
ious	-469
ric	-470
ft	-471
▁As	-472
▁If	-473
▁had	-474
▁most	-475
▁through	-476
ph	-477
▁use	-478
▁ph	-479
..	-480
je	-481
▁5	-482
▁ind	-483
ew	-484
round	-485
▁und	-486
les	-487
).	-488
▁exper	-489
day	-490
ational	-491
▁may	-492
amp	-493
ade	-494
▁every	-495
iness	-496
hen	-497
▁well	-498
▁Se	-499
▁co	-500
ath	-501
ise	-502
▁look	-503
▁loc	-504
▁supp	-505
ures	-506
▁only	-507
▁know	-508
▁fl	-509
any	-510
ating	-511
ced	-512
ities	-513
ife	-514
▁want	-515
ily	-516
iew	-517
lect	-518
we	-519
ange	-520
als	-521
▁ra	-522
▁she	-523
▁bus	-524
▁under	-525
ts	-526
▁cons	-527
ific	-528
iss	-529
▁em	-530
▁stud	-531
oth	-532
▁see	-533
ward	-534
ont	-535
urn	-536
▁bet	-537
▁act	-538
ics	-539
▁back	-540
▁design	-541
▁reg	-542
▁De	-543
xt	-544
▁these	-545
air	-546
▁two	-547
aw	-548
feren	-549
▁no	-550
▁An	-551
uring	-552
row	-553
▁years	-554
ased	-555
▁For	-556
▁rel	-557
ience	-558
ting	-559
▁&	-560
▁dif	-561
▁best	-562
▁sy	-563
▁fin	-564
ause	-565
cess	-566
▁many	-567
ert	-568
▁imp	-569
▁Com	-570
fect	-571
get	-572
▁ent	-573
▁Pro	-574
olog	-575
▁high	-576
▁great	-577
▁car	-578
▁find	-579
▁very	-580
erm	-581
▁inv	-582
fore	-583
▁ke	-584
▁inst	-585
▁home	-586
rit	-587
bs	-588
),	-589
▁sm	-590
▁ins	-591
hip	-592
▁after	-593
gan	-594
ied	-595
▁start	-596
ible	-597
erson	-598
ited	-599
com	-600
▁ac	-601
ular	-602
hes	-603
▁where	-604
ility	-605
oint	-606
▁ass	-607
▁own	-608
▁Al	-609
aking	-610
▁inform	-611
▁rem	-612
▁set	-613
▁gu	-614
chool	-615
ble	-616
▁sec	-617
▁business	-618
ork	-619
io	-620
▁pol	-621
velop	-622
ock	-623
▁way	-624
▁av	-625
ivers	-626
ident	-627
▁good	-628
stem	-629
oss	-630
▁6	-631
▁Cl	-632
orn	-633
ash	-634
▁now	-635
land	-636
arch	-637
▁then	-638
▁fam	-639
ale	-640
eth	-641
▁Sh	-642
▁inc	-643
ict	-644
▁Ar	-645
▁show	-646
ract	-647
▁even	-648
uch	-649
its	-650
ustom	-651
ix	-652
ty	-653
▁should	-654
az	-655
ality	-656
▁mem	-657
▁min	-658
oot	-659
ys	-660
ative	-661
▁team	-662
ull	-663
elf	-664
nds	-665
ank	-666
▁day	-667
▁br	-668
▁right	-669
▁requ	-670
ject	-671
▁New	-672
alth	-673
▁che	-674
lease	-675
20	-676
▁att	-677
▁said	-678
line	-679
▁Be	-680
ug	-681
▁dec	-682
chn	-683
▁And	-684
▁art	-685
ener	-686
▁don	-687
▁prog	-688
▁down	-689
▁cre	-690
cy	-691
riv	-692
▁here	-693
ets	-694
ouse	-695
▁information	-696
▁too	-697
▁En	-698
▁such	-699
▁read	-700
▁vis	-701
ient	-702
ms	-703
▁call	-704
▁Ex	-705
▁life	-706
▁8	-707
▁used	-708
▁provid	-709
oun	-710
meric	-711
▁custom	-712
▁develop	-713
▁take	-714
rib	-715
ower	-716
▁fil	-717
▁sim	-718
▁Le	-719
▁before	-720
▁person	-721
pr	-722
▁could	-723
me	-724
ional	-725
▁made	-726
▁mon	-727
pect	-728
▁cur	-729
▁On	-730
▁long	-731
▁med	-732
▁mod	-733
▁pres	-734
▁inte	-735
▁wee	-736
▁Fr	-737
▁trans	-738
ason	-739
ax	-740
▁support	-741
iving	-742
▁mark	-743
oad	-744
ollow	-745
ven	-746
way	-747
▁much	-748
pen	-749
▁while	-750
▁det	-751
▁comple	-752
▁7	-753
ages	-754
▁ed	-755
▁200	-756
▁sk	-757
ines	-758
▁free	-759
▁system	-760
irect	-761
▁world	-762
atch	-763
arn	-764
ier	-765
▁lead	-766
rest	-767
▁Americ	-768
▁sur	-769
der	-770
▁avail	-771
▁each	-772
▁There	-773
ince	-774
▁post	-775
▁because	-776
▁eas	-777
▁ser	-778
olut	-779
▁gra	-780
▁prof	-781
▁being	-782
▁love	-783
▁care	-784
ave	-785
▁adv	-786
▁disc	-787
▁$	-788
ros	-789
other	-790
▁Pl	-791
ives	-792
▁rep	-793
▁.	-794
▁pub	-795
ple	-796
▁10	-797
de	-798
ars	-799
▁list	-800
▁place	-801
ues	-802
ins	-803
▁ret	-804
ize	-805
ather	-806
alk	-807
aint	-808
▁again	-809
▁Ad	-810
▁del	-811
▁service	-812
▁water	-813
ata	-814
▁She	-815
iet	-816
led	-817
▁cle	-818
roup	-819
▁sub	-820
au	-821
▁Te	-822
ferent	-823
▁num	-824
ctions	-825
iversity	-826
▁program	-827
▁last	-828
ames	-829
▁top	-830
▁aut	-831
arm	-832
akes	-833
unity	-834
▁end	-835
iqu	-836
ene	-837
▁available	-838
ining	-839
▁company	-840
ner	-841
▁Our	-842
▁does	-843
cept	-844
▁How	-845
▁child	-846
▁inter	-847
▁form	-848
▁different	-849
▁found	-850
ually	-851
ah	-852
ature	-853
▁count	-854
▁around	-855
els	-856
▁bo	-857
▁18	-858
▁process	-859
ists	-860
▁cour	-861
▁follow	-862
▁techn	-863
▁Col	-864
▁fun	-865
▁those	-866
ished	-867
▁All	-868
▁9	-869
ton	-870
outh	-871
iel	-872
orth	-873
▁experience	-874
imes	-875
▁Bl	-876
▁To	-877
▁They	-878
19	-879
▁did	-880
▁offer	-881
▁think	-882
ness	-883
ways	-884
▁both	-885
view	-886
▁var	-887
▁organ	-888
▁Ind	-889
▁char	-890
ology	-891
▁build	-892
ired	-893
aut	-894
▁family	-895
▁lar	-896
uc	-897
ween	-898
▁str	-899
ferences	-900
ball	-901
ants	-902
▁gl	-903
▁including	-904
▁But	-905
▁using	-906
▁Sc	-907
ik	-908
▁ext	-909
ral	-910
ized	-911
▁pur	-912
▁hand	-913
▁services	-914
bers	-915
▁import	-916
man	-917
▁Q	-918
read	-919
▁So	-920
▁ty	-921
ittle	-922
▁What	-923
▁opt	-924
ural	-925
oh	-926
cer	-927
ital	-928
ury	-929
▁sign	-930
▁during	-931
▁At	-932
▁With	-933
▁rece	-934
▁2019	-935
▁between	-936
ross	-937
▁open	-938
▁school	-939
▁market	-940
▁provide	-941
▁ide	-942
▁three	-943
▁run	-944
oor	-945
▁him	-946
▁health	-947
▁val	-948
uss	-949
▁quality	-950
cent	-951
▁som	-952
▁perform	-953
▁special	-954
▁exp	-955
▁still	-956
▁real	-957
▁ref	-958
▁plan	-959
be	-960
▁small	-961
ien	-962
▁really	-963
▁University	-964
over	-965
▁cent	-966
▁allow	-967
▁going	-968
▁mus	-969
▁keep	-970
omen	-971
ever	-972
▁same	-973
ined	-974
▁phot	-975
▁appro	-976
▁result	-977
reen	-978
▁When	-979
ery	-980
▁Z	-981
▁few	-982
000	-983
▁sure	-984
ute	-985
▁lot	-986
▁class	-987
▁Can	-988
▁feel	-989
▁stand	-990
ving	-991
!!	-992
▁area	-993
ware	-994
▁partic	-995
▁direct	-996
att	-997
▁month	-998
▁happ	-999
ield	-1000
▁Con	-1001
ott	-1002
▁gener	-1003
lection	-1004
room	-1005
▁head	-1006
▁room	-1007
▁always	-1008
▁frie	-1009
less	-1010
ision	-1011
ved	-1012
ffect	-1013
▁conf	-1014
▁profess	-1015
ients	-1016
▁though	-1017
▁est	-1018
▁webs	-1019
arly	-1020
▁pat	-1021
ogra	-1022
▁rest	-1023
▁online	-1024
▁Sp	-1025
▁full	-1026
▁report	-1027
▁data	-1028
▁little	-1029
▁light	-1030
▁Is	-1031
▁point	-1032
▁American	-1033
▁ve	-1034
▁spec	-1035
▁state	-1036
▁poss	-1037
aj	-1038
▁players	-1039
▁proper	-1040
▁interest	-1041
▁Ph	-1042
stand	-1043
▁resp	-1044
ior	-1045
▁pass	-1046
▁dist	-1047
▁win	-1048
gy	-1049
ering	-1050
▁bra	-1051
iver	-1052
rol	-1053
mber	-1054
ours	-1055
▁current	-1056
▁quest	-1057
▁References	-1058
ccess	-1059
▁book	-1060
▁second	-1061
▁contin	-1062
▁next	-1063
▁pay	-1064
▁cost	-1065
ody	-1066
joy	-1067
ards	-1068
thing	-1069
▁Me	-1070
ling	-1071
ooks	-1072
▁access	-1073
▁event	-1074
▁ob	-1075
▁things	-1076
▁important	-1077
load	-1078
▁come	-1079
▁i	-1080
dition	-1081
ploy	-1082
lish	-1083
eng	-1084
oney	-1085
▁bro	-1086
rist	-1087
▁without	-1088
▁products	-1089
▁sl	-1090
▁oper	-1091
▁Man	-1092
▁Res	-1093
▁group	-1094
▁number	-1095
▁site	-1096
ium	-1097
▁12	-1098
▁give	-1099
▁opp	-1100
ats	-1101
▁sing	-1102
ope	-1103
▁visit	-1104
▁meet	-1105
gg	-1106
▁put	-1107
ared	-1108
▁cr	-1109
▁since	-1110
▁within	-1111
▁game	-1112
▁grow	-1113
▁intern	-1114
ator	-1115
▁proble	-1116
▁eng	-1117
ffic	-1118
▁ann	-1119
▁week	-1120
▁def	-1121
▁tri	-1122
▁199	-1123
▁prom	-1124
▁big	-1125
▁able	-1126
▁foot	-1127
ique	-1128
▁bir	-1129
▁soc	-1130
▁Mar	-1131
▁today	-1132
▁local	-1133
▁try	-1134
▁0	-1135
▁looking	-1136
self	-1137
▁bel	-1138
con	-1139
▁website	-1140
▁iss	-1141
▁better	-1142
▁addition	-1143
▁Or	-1144
ically	-1145
▁view	-1146
▁level	-1147
ration	-1148
ina	-1149
▁mov	-1150
ok	-1151
▁let	-1152
ember	-1153
▁inf	-1154
ruct	-1155
▁students	-1156
▁working	-1157
let	-1158
▁applic	-1159
▁old	-1160
ething	-1161
▁fac	-1162
▁hard	-1163
co	-1164
▁pop	-1165
ode	-1166
▁Cent	-1167
▁equ	-1168
ipp	-1169
▁unt	-1170
▁days	-1171
ference	-1172
mp	-1173
ote	-1174
▁needs	-1175
▁project	-1176
▁Eng	-1177
▁fact	-1178
ised	-1179
▁rese	-1180
▁2018	-1181
▁must	-1182
ately	-1183
▁public	-1184
por	-1185
here	-1186
work	-1187
ains	-1188
▁order	-1189
▁gr	-1190
▁indust	-1191
▁vide	-1192
▁beaut	-1193
▁met	-1194
apt	-1195
▁product	-1196
ivid	-1197
ention	-1198
▁house	-1199
ves	-1200
ding	-1201
pend	-1202
▁pos	-1203
▁say	-1204
▁bre	-1205
tend	-1206
▁invest	-1207
▁something	-1208
▁creat	-1209
oci	-1210
ER	-1211
▁Tr	-1212
▁another	-1213
▁test	-1214
10	-1215
."	-1216
▁men	-1217
▁enjoy	-1218
ps	-1219
agement	-1220
▁making	-1221
ley	-1222
▁contact	-1223
▁My	-1224
inal	-1225
▁Car	-1226
ential	-1227
of	-1228
▁power	-1229
▁season	-1230
▁children	-1231
ems	-1232
▁four	-1233
▁name	-1234
50	-1235
atures	-1236
ograph	-1237
▁wr	-1238
▁incre	-1239
▁detail	-1240
iron	-1241
▁complete	-1242
iety	-1243
ern	-1244
▁US	-1245
aster	-1246
ney	-1247
ission	-1248
▁might	-1249
ertain	-1250
▁present	-1251
ann	-1252
▁job	-1253
▁compet	-1254
▁bas	-1255
▁until	-1256
ai	-1257
bo	-1258
ger	-1259
▁less	-1260
aterial	-1261
yle	-1262
▁cor	-1263
▁large	-1264
▁record	-1265
▁sit	-1266
▁food	-1267
▁expl	-1268
ified	-1269
▁page	-1270
▁music	-1271
▁perfect	-1272
▁Pr	-1273
▁sal	-1274
▁Comm	-1275
▁success	-1276
▁mar	-1277
▁‘	-1278
▁check	-1279
ted	-1280
cing	-1281
ush	-1282
ills	-1283
▁dri	-1284
▁const	-1285
▁Tra	-1286
to	-1287
illion	-1288
▁hist	-1289
▁elect	-1290
▁pract	-1291
uro	-1292
gether	-1293
▁together	-1294
med	-1295
ron	-1296
▁dep	-1297
▁Fl	-1298
▁impro	-1299
▁air	-1300
itc	-1301
▁along	-1302
enn	-1303
▁el	-1304
▁clean	-1305
▁law	-1306
▁Do	-1307
▁dra	-1308
▁course	-1309
▁cap	-1310
▁based	-1311
iam	-1312
▁members	-1313
▁works	-1314
▁No	-1315
▁easy	-1316
itions	-1317
▁These	-1318
min	-1319
ieve	-1320
ently	-1321
▁install	-1322
▁prote	-1323
▁include	-1324
gin	-1325
ids	-1326
▁Wor	-1327
ries	-1328
▁Des	-1329
▁prev	-1330
▁Gu	-1331
▁May	-1332
▁One	-1333
▁ens	-1334
▁learn	-1335
ived	-1336
▁After	-1337
olution	-1338
ism	-1339
ense	-1340
br	-1341
▁ce	-1342
▁birth	-1343
...	-1344
ged	-1345
▁money	-1346
▁community	-1347
nam	-1348
ands	-1349
▁activ	-1350
ret	-1351
wards	-1352
ump	-1353
iful	-1354
▁change	-1355
▁never	-1356
inks	-1357
,000	-1358
ability	-1359
▁against	-1360
▁la	-1361
▁dev	-1362
▁educ	-1363
▁Co	-1364
▁women	-1365
▁understand	-1366
veral	-1367
▁conne	-1368
ases	-1369
ered	-1370
▁ask	-1371
ummer	-1372
utes	-1373
▁create	-1374
ization	-1375
▁material	-1376
fort	-1377
▁15	-1378
aring	-1379
▁personal	-1380
▁side	-1381
▁Pe	-1382
▁Intern	-1383
▁effect	-1384
▁Fe	-1385
▁treat	-1386
,”	-1387
ories	-1388
▁chang	-1389
aper	-1390
uper	-1391
orm	-1392
▁tour	-1393
▁South	-1394
sh	-1395
▁That	-1396
▁Am	-1397
aff	-1398
ream	-1399
▁leg	-1400
▁employ	-1401
ten	-1402
ider	-1403
lege	-1404
icle	-1405
lished	-1406
▁Med	-1407
ify	-1408
ured	-1409
vern	-1410
▁times	-1411
▁Ste	-1412
atter	-1413
▁got	-1414
▁space	-1415
▁sw	-1416
▁past	-1417
▁short	-1418
▁buy	-1419
app	-1420
▁Che	-1421
▁below	-1422
hor	-1423
▁198	-1424
itive	-1425
▁fav	-1426
▁Ne	-1427
ored	-1428
▁dem	-1429
▁ele	-1430
30	-1431
viron	-1432
ising	-1433
enef	-1434
osed	-1435
by	-1436
▁Inst	-1437
▁require	-1438
oose	-1439
▁Comp	-1440
▁please	-1441
ford	-1442
ividual	-1443
▁Sy	-1444
▁live	-1445
▁away	-1446
IN	-1447
▁Christ	-1448
ocus	-1449
▁turn	-1450
indow	-1451
▁line	-1452
▁range	-1453
arl	-1454
side	-1455
▁soft	-1456
▁quick	-1457
▁possible	-1458
▁won	-1459
▁pict	-1460
▁term	-1461
▁features	-1462
▁wall	-1463
pecial	-1464
▁30	-1465
ides	-1466
▁School	-1467
fer	-1468
▁offers	-1469
▁several	-1470
▁hot	-1471
▁why	-1472
▁United	-1473
ng	-1474
ane	-1475
▁Br	-1476
ister	-1477
▁Joh	-1478
rop	-1479
▁beh	-1480
1.	-1481
oice	-1482
arent	-1483
▁night	-1484
ctor	-1485
anies	-1486
▁rele	-1487
▁case	-1488
osp	-1489
▁mult	-1490
▁bed	-1491
▁video	-1492
▁benef	-1493
▁opport	-1494
orts	-1495
▁cou	-1496
▁197	-1497
▁main	-1498
ilt	-1499
▁App	-1500
▁city	-1501
ording	-1502
▁research	-1503
une	-1504
ots	-1505
▁film	-1506
▁comes	-1507
▁country	-1508
▁writ	-1509
▁govern	-1510
▁tem	-1511
▁tre	-1512
uture	-1513
▁account	-1514
ird	-1515
ung	-1516
▁fund	-1517
aces	-1518
atic	-1519
▁across	-1520
▁17	-1521
▁typ	-1522
5.	-1523
▁professional	-1524
▁Count	-1525
-1	-1526
▁Euro	-1527
▁beautiful	-1528
ffe	-1529
▁ste	-1530
iting	-1531
▁Cont	-1532
▁offic	-1533
▁'	-1534
▁price	-1535
oring	-1536
uck	-1537
ript	-1538
▁Your	-1539
ober	-1540
▁X	-1541
▁individual	-1542
▁development	-1543
aly	-1544
▁often	-1545
ination	-1546
▁social	-1547
the	-1548
iven	-1549
ample	-1550
resent	-1551
vironment	-1552
ec	-1553
▁low	-1554
ians	-1555
olid	-1556
rict	-1557
rie	-1558
▁football	-1559
▁known	-1560
▁Please	-1561
▁industry	-1562
▁focus	-1563
▁hig	-1564
▁having	-1565
augh	-1566
▁net	-1567
▁hours	-1568
ones	-1569
▁become	-1570
▁vers	-1571
The	-1572
ajor	-1573
reet	-1574
▁expect	-1575
▁hum	-1576
ready	-1577
▁makes	-1578
2.	-1579
▁Aust	-1580
▁Ass	-1581
▁control	-1582
▁jo	-1583
▁pack	-1584
▁priv	-1585
▁National	-1586
▁(19	-1587
▁body	-1588
anks	-1589
ained	-1590
▁fore	-1591
yl	-1592
ably	-1593
3.	-1594
▁John	-1595
urs	-1596
▁16	-1597
uf	-1598
mend	-1599
▁cover	-1600
▁series	-1601
ateg	-1602
ency	-1603
▁occ	-1604
▁following	-1605
▁non	-1606
place	-1607
ift	-1608
ances	-1609
▁move	-1610
▁specific	-1611
cell	-1612
▁kind	-1613
▁purch	-1614
irl	-1615
jects	-1616
▁comb	-1617
▁World	-1618
artment	-1619
▁started	-1620
ners	-1621
alf	-1622
▁prep	-1623
.,	-1624
▁Cal	-1625
▁building	-1626
▁Not	-1627
▁pot	-1628
▁tool	-1629
▁196	-1630
▁designed	-1631
▁|	-1632
▁Reg	-1633
▁done	-1634
▁maint	-1635
▁customers	-1636
▁et	-1637
▁Apr	-1638
urance	-1639
▁left	-1640
af	-1641
▁ever	-1642
ips	-1643
▁Min	-1644
▁2017	-1645
▁already	-1646
▁upd	-1647
▁However	-1648
▁,	-1649
ony	-1650
▁orig	-1651
▁companies	-1652
▁key	-1653
▁par	-1654
ribut	-1655
▁Bar	-1656
▁song	-1657
▁11	-1658
▁City	-1659
▁called	-1660
▁lim	-1661
▁hold	-1662
▁future	-1663
unic	-1664
▁return	-1665
atural	-1666
▁member	-1667
▁review	-1668
opp	-1669
ergy	-1670
oll	-1671
RE	-1672
ex	-1673
▁others	-1674
ee	-1675
▁es	-1676
ds	-1677
ster	-1678
▁email	-1679
▁print	-1680
idd	-1681
▁story	-1682
ges	-1683
▁located	-1684
▁Europe	-1685
ches	-1686
▁State	-1687
▁unique	-1688
▁share	-1689
▁friends	-1690
▁minutes	-1691
aim	-1692
▁enough	-1693
ape	-1694
urity	-1695
▁thing	-1696
ource	-1697
▁store	-1698
▁getting	-1699
▁/	-1700
▁questions	-1701
▁14	-1702
▁—	-1703
▁later	-1704
▁means	-1705
▁links	-1706
▁single	-1707
▁training	-1708
ON	-1709
err	-1710
▁step	-1711
cle	-1712
rodu	-1713
▁camp	-1714
ights	-1715
book	-1716
▁property	-1717
▁z	-1718
▁North	-1719
▁cut	-1720
▁stay	-1721
▁pie	-1722
▁port	-1723
▁bring	-1724
▁major	-1725
▁staff	-1726
ufact	-1727
ilities	-1728
▁chall	-1729
▁provides	-1730
▁mil	-1731
▁walk	-1732
AT	-1733
sel	-1734
▁technology	-1735
rew	-1736
▁near	-1737
▁events	-1738
▁particip	-1739
lex	-1740
▁dr	-1741
▁simple	-1742
aving	-1743
conom	-1744
▁Serv	-1745
▁April	-1746
▁environment	-1747
itchen	-1748
hers	-1749
▁vol	-1750
▁Bu	-1751
▁100	-1752
nder	-1753
▁bit	-1754
▁pri	-1755
▁far	-1756
▁appear	-1757
▁results	-1758
▁Ke	-1759
▁performance	-1760
▁Canad	-1761
▁York	-1762
▁various	-1763
▁value	-1764
che	-1765
umb	-1766
▁Ge	-1767
aps	-1768
unch	-1769
irm	-1770
▁pain	-1771
mb	-1772
▁God	-1773
▁once	-1774
▁mind	-1775
▁Per	-1776
ancial	-1777
18	-1778
▁invol	-1779
▁recom	-1780
ino	-1781
▁pan	-1782
▁held	-1783
ternal	-1784
AN	-1785
resh	-1786
▁search	-1787
▁living	-1788
▁Part	-1789
play	-1790
▁charact	-1791
▁Bo	-1792
abor	-1793
roll	-1794
▁games	-1795
▁ident	-1796
▁strong	-1797
▁El	-1798
▁doing	-1799
▁news	-1800
▁style	-1801
▁wa	-1802
ched	-1803
ze	-1804
cil	-1805
▁Gra	-1806
▁deal	-1807
cember	-1808
▁address	-1809
▁Gl	-1810
▁24	-1811
▁2016	-1812
ply	-1813
▁customer	-1814
▁early	-1815
ethod	-1816
▁everything	-1817
▁management	-1818
ese	-1819
cted	-1820
▁took	-1821
▁areas	-1822
▁press	-1823
isk	-1824
▁talk	-1825
▁color	-1826
▁ensure	-1827
ocu	-1828
▁aud	-1829
▁tell	-1830
▁Pol	-1831
ruction	-1832
rap	-1833
▁flow	-1834
▁hope	-1835
ille	-1836
▁redu	-1837
▁due	-1838
▁respons	-1839
omes	-1840
ither	-1841
▁miss	-1842
▁size	-1843
▁Jan	-1844
urther	-1845
▁estab	-1846
gr	-1847
▁mean	-1848
▁experien	-1849
▁wond	-1850
▁above	-1851
▁million	-1852
ume	-1853
most	-1854
▁blog	-1855
▁tot	-1856
▁Now	-1857
▁field	-1858
▁Dr	-1859
▁December	-1860
▁web	-1861
▁close	-1862
ources	-1863
▁recommend	-1864
1,	-1865
▁enc	-1866
▁Pre	-1867
oon	-1868
▁Af	-1869
▁type	-1870
▁di	-1871
illed	-1872
▁sound	-1873
▁office	-1874
▁wide	-1875
ague	-1876
▁assist	-1877
▁Sw	-1878
▁From	-1879
▁polit	-1880
▁travel	-1881
ests	-1882
ival	-1883
ledge	-1884
▁click	-1885
▁months	-1886
▁clients	-1887
arning	-1888
▁media	-1889
icy	-1890
inc	-1891
▁study	-1892
sw	-1893
▁Qu	-1894
▁improve	-1895
▁13	-1896
▁break	-1897
ulation	-1898
▁ey	-1899
▁Par	-1900
▁manag	-1901
▁High	-1902
urch	-1903
▁begin	-1904
▁least	-1905
▁discuss	-1906
angu	-1907
▁problem	-1908
my	-1909
nov	-1910
▁sn	-1911
▁particular	-1912
▁Stud	-1913
▁Austral	-1914
go	-1915
iod	-1916
▁Su	-1917
aken	-1918
crib	-1919
▁ant	-1920
4.	-1921
ST	-1922
▁represent	-1923
itted	-1924
▁Bra	-1925
▁cra	-1926
▁certain	-1927
ators	-1928
▁host	-1929
▁pick	-1930
gest	-1931
▁bar	-1932
asing	-1933
fully	-1934
▁select	-1935
lymp	-1936
anced	-1937
▁Just	-1938
▁download	-1939
▁favor	-1940
▁natural	-1941
▁log	-1942
▁card	-1943
▁friend	-1944
▁includes	-1945
▁Ju	-1946
▁County	-1947
▁government	-1948
▁25	-1949
▁Bro	-1950
▁Here	-1951
▁five	-1952
▁States	-1953
▁throughout	-1954
AR	-1955
arr	-1956
▁yet	-1957
▁history	-1958
▁af	-1959
▁given	-1960
▁West	-1961
▁feature	-1962
ogn	-1963
azing	-1964
▁Olymp	-1965
▁deb	-1966
ler	-1967
vert	-1968
▁exc	-1969
▁says	-1970
▁manufact	-1971
▁engine	-1972
gle	-1973
umn	-1974
▁Oct	-1975
▁Park	-1976
▁cult	-1977
▁death	-1978
▁attend	-1979
ief	-1980
▁choose	-1981
▁application	-1982
ead	-1983
▁Rep	-1984
▁came	-1985
▁While	-1986
aus	-1987
son	-1988
▁dig	-1989
ental	-1990
ublic	-1991
▁Will	-1992
▁mot	-1993
▁March	-1994
▁Ab	-1995
▁Sm	-1996
▁comfort	-1997
ises	-1998
▁author	-1999
▁#	-2000
▁sell	-2001
▁black	-2002
not	-2003
▁Fin	-2004
▁bath	-2005
▁front	-2006
▁heart	-2007
▁popular	-2008
ification	-2009
▁Tw	-2010
▁Don	-2011
olutions	-2012
oman	-2013
▁age	-2014
▁box	-2015
ued	-2016
▁By	-2017
nding	-2018
▁white	-2019
▁details	-2020
lement	-2021
▁taking	-2022
▁example	-2023
uary	-2024
▁mag	-2025
▁veh	-2026
irt	-2027
▁1.	-2028
cript	-2029
▁mach	-2030
▁ful	-2031
pecially	-2032
ED	-2033
▁content	-2034
▁lat	-2035
ux	-2036
▁among	-2037
-2	-2038
obile	-2039
▁cred	-2040
▁doesn	-2041
ging	-2042
ites	-2043
▁Sept	-2044
ables	-2045
▁young	-2046
▁amount	-2047
come	-2048
ouch	-2049
▁Dis	-2050
▁Pres	-2051
▁ideas	-2052
ask	-2053
apan	-2054
▁Nove	-2055
▁insp	-2056
atur	-2057
bum	-2058
▁2.	-2059
▁Aug	-2060
▁deg	-2061
▁phys	-2062
▁announ	-2063
OR	-2064
adem	-2065
▁ach	-2066
ww	-2067
▁ess	-2068
▁whole	-2069
hips	-2070
▁Mus	-2071
▁Some	-2072
▁received	-2073
▁currently	-2074
▁Sec	-2075
astic	-2076
▁Germ	-2077
▁docu	-2078
ety	-2079
▁thought	-2080
ibility	-2081
imate	-2082
▁associ	-2083
▁energy	-2084
aur	-2085
obal	-2086
▁created	-2087
▁cook	-2088
▁link	-2089
ipment	-2090
▁floor	-2091
▁super	-2092
▁common	-2093
▁comput	-2094
itch	-2095
▁safe	-2096
▁relations	-2097
▁options	-2098
▁receive	-2099
▁required	-2100
▁His	-2101
▁built	-2102
▁table	-2103
▁ready	-2104
▁fre	-2105
▁someone	-2106
▁text	-2107
▁Art	-2108
▁career	-2109
▁concer	-2110
▁method	-2111
ried	-2112
▁seen	-2113
ura	-2114
▁jour	-2115
li	-2116
ops	-2117
par	-2118
▁polo	-2119
▁phone	-2120
▁November	-2121
▁po	-2122
▁etc	-2123
ensive	-2124
▁actually	-2125
▁eff	-2126
▁fast	-2127
▁function	-2128
▁reason	-2129
▁face	-2130
eter	-2131
▁sol	-2132
▁save	-2133
unities	-2134
,"	-2135
istic	-2136
▁exam	-2137
atform	-2138
▁happen	-2139
▁problems	-2140
wh	-2141
▁mess	-2142
ography	-2143
ided	-2144
▁effective	-2145
7.	-2146
▁Mc	-2147
▁systems	-2148
▁Ac	-2149
uff	-2150
▁added	-2151
▁cand	-2152
▁didn	-2153
▁Acc	-2154
▁financial	-2155
gra	-2156
▁base	-2157
acy	-2158
ires	-2159
▁everyone	-2160
AC	-2161
uk	-2162
▁went	-2163
oph	-2164
▁wood	-2165
▁software	-2166
2,	-2167
oved	-2168
ground	-2169
▁tit	-2170
▁official	-2171
▁194	-2172
▁insurance	-2173
tt	-2174
▁21	-2175
▁half	-2176
▁mom	-2177
▁init	-2178
▁latest	-2179
▁third	-2180
▁Dep	-2181
idence	-2182
▁Japan	-2183
▁track	-2184
▁coll	-2185
▁land	-2186
▁entire	-2187
AS	-2188
▁x	-2189
▁soon	-2190
▁English	-2191
AL	-2192
3,	-2193
▁Soc	-2194
aid	-2195
▁provided	-2196
▁Val	-2197
▁parent	-2198
eral	-2199
▁situ	-2200
ouncil	-2201
▁issues	-2202
▁50	-2203
▁meas	-2204
▁period	-2205
▁October	-2206
▁September	-2207
back	-2208
▁Are	-2209
▁College	-2210
▁private	-2211
ana	-2212
ibr	-2213
▁June	-2214
▁autom	-2215
▁round	-2216
▁International	-2217
▁fit	-2218
aching	-2219
▁album	-2220
vent	-2221
▁extra	-2222
▁regular	-2223
▁diff	-2224
ees	-2225
▁items	-2226
▁Center	-2227
▁Design	-2228
anc	-2229
acks	-2230
▁Ag	-2231
head	-2232
▁dou	-2233
▁Brit	-2234
▁image	-2235
▁yourself	-2236
▁international	-2237
▁Air	-2238
▁fall	-2239
▁skin	-2240
▁opportunity	-2241
▁watch	-2242
hern	-2243
▁fire	-2244
time	-2245
▁variety	-2246
▁whether	-2247
though	-2248
▁education	-2249
aining	-2250
iate	-2251
idge	-2252
ison	-2253
▁Aut	-2254
▁Home	-2255
▁needed	-2256
▁window	-2257
▁especially	-2258
EN	-2259
▁consider	-2260
▁dam	-2261
▁simply	-2262
▁position	-2263
ha	-2264
▁impact	-2265
▁bott	-2266
▁final	-2267
▁party	-2268
ky	-2269
nes	-2270
iously	-2271
▁accom	-2272
6.	-2273
▁Ed	-2274
▁See	-2275
▁dog	-2276
▁econom	-2277
▁collection	-2278
▁Mark	-2279
IT	-2280
▁either	-2281
▁further	-2282
▁Off	-2283
▁mix	-2284
▁wonder	-2285
▁knowledge	-2286
ara	-2287
sp	-2288
▁Her	-2289
▁file	-2290
▁believe	-2291
▁excell	-2292
urg	-2293
overed	-2294
▁births	-2295
▁struct	-2296
▁tradition	-2297
▁six	-2298
15	-2299
▁Mon	-2300
▁club	-2301
▁plant	-2302
hel	-2303
9.	-2304
icult	-2305
▁paint	-2306
▁regard	-2307
▁potential	-2308
board	-2309
▁general	-2310
airs	-2311
▁park	-2312
▁External	-2313
bor	-2314
▁sat	-2315
▁self	-2316
▁happy	-2317
▁sales	-2318
itor	-2319
▁Bel	-2320
▁Feb	-2321
▁accept	-2322
▁allows	-2323
era	-2324
rench	-2325
▁cond	-2326
edding	-2327
▁taken	-2328
▁January	-2329
▁kitchen	-2330
▁version	-2331
▁code	-2332
".	-2333
▁prob	-2334
▁road	-2335
▁network	-2336
▁idea	-2337
▁August	-2338
▁modern	-2339
▁materials	-2340
ox	-2341
▁oil	-2342
▁Black	-2343
▁platform	-2344
▁tax	-2345
▁famil	-2346
▁mount	-2347
anguage	-2348
12	-2349
ring	-2350
selves	-2351
▁necess	-2352
▁195	-2353
▁takes	-2354
orage	-2355
▁role	-2356
▁Water	-2357
▁worked	-2358
nal	-2359
cast	-2360
▁hon	-2361
▁via	-2362
▁inside	-2363
▁forward	-2364
▁security	-2365
▁signific	-2366
clus	-2367
hing	-2368
▁cele	-2369
▁House	-2370
hib	-2371
wood	-2372
▁inj	-2373
iring	-2374
▁percent	-2375
itten	-2376
▁Calif	-2377
▁brand	-2378
▁production	-2379
amed	-2380
▁San	-2381
▁stat	-2382
▁exist	-2383
▁clear	-2384
uel	-2385
▁Mr	-2386
▁ap	-2387
ilar	-2388
oura	-2389
▁Int	-2390
▁claim	-2391
▁played	-2392
▁national	-2393
▁cal	-2394
▁arch	-2395
▁crit	-2396
▁providing	-2397
izing	-2398
▁award	-2399
▁paper	-2400
▁released	-2401
▁treatment	-2402
cks	-2403
ecut	-2404
▁Bus	-2405
verage	-2406
▁human	-2407
▁model	-2408
mercial	-2409
▁Cor	-2410
▁July	-2411
▁date	-2412
▁Im	-2413
▁Of	-2414
▁ill	-2415
▁(2	-2416
▁answ	-2417
▁Afric	-2418
▁included	-2419
▁question	-2420
ades	-2421
arden	-2422
▁prop	-2423
▁ways	-2424
minist	-2425
▁contract	-2426
oid	-2427
▁sil	-2428
▁infl	-2429
▁Living	-2430
▁skills	-2431
▁activities	-2432
epend	-2433
▁amazing	-2434
▁leading	-2435
▁according	-2436
uit	-2437
▁projects	-2438
▁drive	-2439
▁match	-2440
▁People	-2441
ole	-2442
5,	-2443
▁lo	-2444
ornia	-2445
▁girl	-2446
▁sche	-2447
0.	-2448
▁users	-2449
▁additional	-2450
▁ut	-2451
▁Har	-2452
imum	-2453
▁points	-2454
▁Group	-2455
▁continue	-2456
▁equipment	-2457
oogle	-2458
▁town	-2459
▁total	-2460
▁coming	-2461
▁recogn	-2462
▁served	-2463
pper	-2464
▁Rec	-2465
▁red	-2466
▁writing	-2467
lin	-2468
reme	-2469
▁lay	-2470
▁almost	-2471
▁became	-2472
▁nice	-2473
etimes	-2474
▁:	-2475
▁Health	-2476
amb	-2477
aced	-2478
▁tru	-2479
▁behind	-2480
▁Us	-2481
▁Get	-2482
▁arr	-2483
▁goal	-2484
▁shows	-2485
▁action	-2486
icro	-2487
▁kids	-2488
▁apply	-2489
aily	-2490
aker	-2491
where	-2492
▁sugg	-2493
▁changes	-2494
▁quickly	-2495
ellow	-2496
ondon	-2497
4,	-2498
OS	-2499
key	-2500
reg	-2501
uge	-2502
▁Gr	-2503
▁UK	-2504
▁swe	-2505
▁Great	-2506
▁difficult	-2507
ules	-2508
▁sale	-2509
▁touch	-2510
▁consum	-2511
▁however	-2512
mit	-2513
▁cool	-2514
▁exact	-2515
▁quite	-2516
iple	-2517
▁California	-2518
▁Sund	-2519
na	-2520
iter	-2521
▁Day	-2522
▁leave	-2523
▁easily	-2524
▁photos	-2525
▁screen	-2526
▁solutions	-2527
▁user	-2528
17	-2529
face	-2530
▁types	-2531
▁anything	-2532
▁Mich	-2533
▁looks	-2534
▁choice	-2535
▁communic	-2536
ES	-2537
arth	-2538
▁draw	-2539
aby	-2540
ters	-2541
ampions	-2542
▁Associ	-2543
▁ground	-2544
▁hy	-2545
iture	-2546
▁original	-2547
▁marketing	-2548
lev	-2549
▁sle	-2550
▁driv	-2551
▁pret	-2552
▁leaders	-2553
▁standard	-2554
▁gradu	-2555
ought	-2556
▁parts	-2557
pro	-2558
urer	-2559
▁stra	-2560
▁Thanks	-2561
▁Em	-2562
▁mor	-2563
▁Free	-2564
▁learning	-2565
▁Ang	-2566
▁Dav	-2567
▁rad	-2568
action	-2569
IC	-2570
iddle	-2571
erve	-2572
▁fresh	-2573
▁significant	-2574
▁London	-2575
▁introdu	-2576
new	-2577
▁born	-2578
▁India	-2579
▁effic	-2580
▁player	-2581
▁squ	-2582
▁related	-2583
itut	-2584
▁risk	-2585
▁board	-2586
▁favorite	-2587
▁solution	-2588
ming	-2589
year	-2590
▁Inc	-2591
▁bad	-2592
asons	-2593
▁Dist	-2594
eds	-2595
aches	-2596
iable	-2597
▁Russ	-2598
▁caus	-2599
▁issue	-2600
▁practice	-2601
▁abs	-2602
▁2020	-2603
▁determ	-2604
▁student	-2605
▁location	-2606
▁plans	-2607
▁usually	-2608
▁challeng	-2609
▁playing	-2610
▁sent	-2611
▁films	-2612
▁expert	-2613
▁appoint	-2614
▁ago	-2615
aging	-2616
oe	-2617
▁Indian	-2618
▁outside	-2619
arget	-2620
▁Ir	-2621
▁Let	-2622
▁Red	-2623
▁send	-2624
▁higher	-2625
▁concern	-2626
▁[	-2627
opy	-2628
▁First	-2629
▁medical	-2630
▁President	-2631
▁saf	-2632
useum	-2633
▁growth	-2634
empt	-2635
ruary	-2636
▁defin	-2637
▁section	-2638
▁Geor	-2639
▁purp	-2640
iation	-2641
▁Every	-2642
▁recent	-2643
▁summer	-2644
▁picture	-2645
dule	-2646
icles	-2647
ville	-2648
▁collect	-2649
▁TV	-2650
▁202	-2651
▁Mor	-2652
▁isn	-2653
▁Hist	-2654
▁matter	-2655
▁character	-2656
hood	-2657
▁sun	-2658
▁Summer	-2659
▁purchase	-2660
▁French	-2661
irc	-2662
▁sens	-2663
▁highly	-2664
▁America	-2665
16	-2666
▁bud	-2667
▁East	-2668
▁gold	-2669
▁books	-2670
▁began	-2671
▁Direct	-2672
▁display	-2673
▁corn	-2674
▁pretty	-2675
▁meeting	-2676
▁computer	-2677
▁policy	-2678
▁recently	-2679
8.	-2680
erc	-2681
▁TH	-2682
iber	-2683
▁seem	-2684
▁Whe	-2685
ached	-2686
born	-2687
▁fully	-2688
▁band	-2689
▁candid	-2690
▁La	-2691
▁rate	-2692
▁February	-2693
iol	-2694
▁fail	-2695
▁stop	-2696
▁mobile	-2697
urniture	-2698
▁Club	-2699
▁enter	-2700
ny	-2701
▁sett	-2702
▁weeks	-2703
▁trying	-2704
ession	-2705
▁cause	-2706
▁worth	-2707
▁published	-2708
ales	-2709
aste	-2710
▁wel	-2711
▁door	-2712
▁qual	-2713
opping	-2714
century	-2715
▁active	-2716
hest	-2717
▁prior	-2718
▁increase	-2719
aul	-2720
▁wanted	-2721
▁describ	-2722
aves	-2723
▁War	-2724
iding	-2725
▁bank	-2726
▁lives	-2727
▁option	-2728
EL	-2729
OU	-2730
▁More	-2731
▁images	-2732
▁digital	-2733
▁running	-2734
imal	-2735
▁Sim	-2736
▁Google	-2737
▁cannot	-2738
▁excellent	-2739
▁dom	-2740
arter	-2741
light	-2742
▁loss	-2743
▁organization	-2744
▁stri	-2745
itting	-2746
▁Gener	-2747
ression	-2748
▁release	-2749
▁bal	-2750
▁defe	-2751
▁late	-2752
atives	-2753
▁probably	-2754
ags	-2755
just	-2756
itect	-2757
▁dress	-2758
▁League	-2759
▁credit	-2760
▁fig	-2761
▁else	-2762
▁hands	-2763
▁3.	-2764
▁Year	-2765
▁finish	-2766
▁similar	-2767
▁programs	-2768
▁requirements	-2769
▁Most	-2770
▁Cour	-2771
▁capt	-2772
now	-2773
▁Thank	-2774
▁deliver	-2775
▁*	-2776
abin	-2777
▁prem	-2778
ension	-2779
nament	-2780
rug	-2781
▁article	-2782
elt	-2783
put	-2784
▁Also	-2785
▁suit	-2786
estern	-2787
▁gives	-2788
▁European	-2789
▁approach	-2790
▁cam	-2791
▁fram	-2792
▁couple	-2793
▁longer	-2794
sc	-2795
oud	-2796
▁Satur	-2797
▁encoura	-2798
itute	-2799
▁promot	-2800
▁condition	-2801
IS	-2802
▁mat	-2803
▁aw	-2804
▁lif	-2805
▁Care	-2806
▁reading	-2807
▁Pat	-2808
▁Ser	-2809
ington	-2810
▁construction	-2811
▁ple	-2812
▁ball	-2813
▁former	-2814
▁successful	-2815
ek	-2816
hold	-2817
▁Net	-2818
▁piece	-2819
▁Canada	-2820
▁Sunday	-2821
▁likely	-2822
avy	-2823
eal	-2824
▁tick	-2825
▁agree	-2826
atory	-2827
▁Phil	-2828
▁Prof	-2829
▁cell	-2830
▁prim	-2831
▁rent	-2832
▁degree	-2833
▁pictures	-2834
ida	-2835
based	-2836
▁consult	-2837
▁commercial	-2838
▁device	-2839
mon	-2840
earch	-2841
▁Then	-2842
▁appl	-2843
▁hair	-2844
▁separ	-2845
▁safety	-2846
reng	-2847
▁emb	-2848
arant	-2849
▁Techn	-2850
.”	-2851
ude	-2852
▁celebr	-2853
▁Business	-2854
ares	-2855
edic	-2856
▁gar	-2857
▁upon	-2858
illing	-2859
ipe	-2860
▁written	-2861
ham	-2862
rec	-2863
▁regist	-2864
▁suggest	-2865
▁neg	-2866
6,	-2867
kend	-2868
ivity	-2869
▁dest	-2870
▁reach	-2871
xic	-2872
▁op	-2873
▁true	-2874
▁Street	-2875
AM	-2876
▁Any	-2877
▁cert	-2878
▁sold	-2879
▁green	-2880
▁named	-2881
▁sports	-2882
▁British	-2883
▁directly	-2884
▁ep	-2885
▁Cle	-2886
▁average	-2887
▁benefits	-2888
izes	-2889
▁fix	-2890
▁Post	-2891
▁ability	-2892
25	-2893
▁cy	-2894
aign	-2895
▁coun	-2896
▁involved	-2897
▁interested	-2898
▁costs	-2899
▁daily	-2900
igation	-2901
cription	-2902
▁achieve	-2903
lim	-2904
oom	-2905
anch	-2906
itary	-2907
▁Port	-2908
▁chance	-2909
▁Council	-2910
mm	-2911
rect	-2912
▁mid	-2913
▁deep	-2914
▁System	-2915
▁respect	-2916
▁creating	-2917
iday	-2918
▁Act	-2919
▁Fil	-2920
▁rout	-2921
▁entry	-2922
▁Saturday	-2923
▁target	-2924
▁countries	-2925
8,	-2926
▁40	-2927
idents	-2928
▁traditional	-2929
▁legal	-2930
▁Sam	-2931
ports	-2932
▁stock	-2933
▁tools	-2934
▁necessary	-2935
ivery	-2936
▁source	-2937
▁vehicle	-2938
pon	-2939
overn	-2940
riate	-2941
▁norm	-2942
▁multiple	-2943
7,	-2944
▁Face	-2945
▁innov	-2946
itation	-2947
▁partners	-2948
oke	-2949
▁instead	-2950
▁replace	-2951
▁request	-2952
▁prices	-2953
▁Department	-2954
▁Down	-2955
▁Over	-2956
▁earn	-2957
▁helps	-2958
▁terms	-2959
▁healthy	-2960
▁independ	-2961
▁fab	-2962
▁goals	-2963
▁Since	-2964
▁anyone	-2965
▁bathroom	-2966
▁Once	-2967
isf	-2968
▁Add	-2969
▁protect	-2970
▁II	-2971
itte	-2972
▁Cons	-2973
▁words	-2974
▁rather	-2975
fl	-2976
▁Out	-2977
▁dry	-2978
▁tal	-2979
▁hous	-2980
▁consist	-2981
▁patients	-2982
alt	-2983
▁Je	-2984
▁Best	-2985
▁Gold	-2986
▁clos	-2987
▁announced	-2988
ples	-2989
coming	-2990
ett	-2991
▁organiz	-2992
▁storage	-2993
▁subject	-2994
▁document	-2995
ama	-2996
▁gen	-2997
band	-2998
▁firm	-2999
▁stage	-3000
▁title	-3001
▁established	-3002
gar	-3003
▁vac	-3004
▁Many	-3005
▁pages	-3006
ira	-3007
mas	-3008
irit	-3009
▁mass	-3010
▁holid	-3011
▁photo	-3012
olf	-3013
▁Law	-3014
erous	-3015
▁feed	-3016
▁decor	-3017
ospital	-3018
▁conditions	-3019
▁profession	-3020
▁roof	-3021
▁told	-3022
▁Ant	-3023
▁Hall	-3024
▁condu	-3025
urt	-3026
▁King	-3027
▁emer	-3028
▁Click	-3029
40	-3030
alys	-3031
▁vill	-3032
9,	-3033
▁60	-3034
▁IT	-3035
▁pers	-3036
▁teac	-3037
▁Found	-3038
▁restaur	-3039
▁planning	-3040
▁Australia	-3041
▁wonderful	-3042
oul	-3043
▁depend	-3044
rown	-3045
▁client	-3046
OT	-3047
▁son	-3048
ester	-3049
▁Each	-3050
ica	-3051
pped	-3052
field	-3053
▁wish	-3054
ashion	-3055
▁Friday	-3056
▁highest	-3057
OM	-3058
aged	-3059
▁lower	-3060
▁seems	-3061
estival	-3062
ule	-3063
▁Go	-3064
▁giving	-3065
▁levels	-3066
▁college	-3067
itter	-3068
▁cases	-3069
▁places	-3070
▁Mag	-3071
▁max	-3072
▁Well	-3073
▁fine	-3074
▁histor	-3075
▁teams	-3076
▁resources	-3077
sy	-3078
ari	-3079
▁bi	-3080
▁Inter	-3081
▁remember	-3082
▁ge	-3083
▁speed	-3084
▁parents	-3085
▁Read	-3086
▁trip	-3087
▁asked	-3088
▁nothing	-3089
▁wedding	-3090
We	-3091
val	-3092
▁lost	-3093
ipping	-3094
▁global	-3095
▁Olympics	-3096
-3	-3097
mark	-3098
”.	-3099
▁Rem	-3100
▁Green	-3101
▁block	-3102
▁broad	-3103
▁hit	-3104
▁shop	-3105
▁Produ	-3106
▁indic	-3107
▁River	-3108
idential	-3109
▁businesses	-3110
ault	-3111
raft	-3112
▁led	-3113
ffects	-3114
▁During	-3115
▁streng	-3116
▁morning	-3117
▁applications	-3118
zz	-3119
▁Dem	-3120
▁Mod	-3121
▁Char	-3122
▁ones	-3123
▁warm	-3124
▁Games	-3125
▁developed	-3126
cel	-3127
▁Prog	-3128
▁roll	-3129
▁Pal	-3130
▁div	-3131
▁vict	-3132
▁Women	-3133
▁trust	-3134
ception	-3135
▁towards	-3136
▁>	-3137
iff	-3138
▁Cup	-3139
enior	-3140
ords	-3141
▁rock	-3142
▁immed	-3143
▁serve	-3144
▁moving	-3145
▁Service	-3146
▁growing	-3147
▁decision	-3148
▁positive	-3149
60	-3150
bit	-3151
elling	-3152
▁estate	-3153
▁machine	-3154
//	-3155
▁decided	-3156
▁limited	-3157
▁attention	-3158
ils	-3159
vey	-3160
wide	-3161
anish	-3162
▁neigh	-3163
▁essential	-3164
▁Association	-3165
rup	-3166
▁center	-3167
▁employees	-3168
▁interesting	-3169
onst	-3170
rive	-3171
▁lic	-3172
▁annual	-3173
oes	-3174
oly	-3175
▁aim	-3176
▁saw	-3177
▁posted	-3178
▁bedroom	-3179
▁administ	-3180
mat	-3181
ube	-3182
ength	-3183
▁cash	-3184
▁budget	-3185
ological	-3186
▁22	-3187
ancy	-3188
▁Find	-3189
▁List	-3190
▁carry	-3191
mission	-3192
▁pattern	-3193
▁Facebook	-3194
rel	-3195
cies	-3196
oyal	-3197
aries	-3198
▁Trans	-3199
▁itself	-3200
",	-3201
CA	-3202
off	-3203
▁193	-3204
▁Class	-3205
▁Mount	-3206
▁Govern	-3207
▁instru	-3208
://	-3209
ING	-3210
king	-3211
▁load	-3212
▁arriv	-3213
▁stress	-3214
▁William	-3215
▁weekend	-3216
isc	-3217
▁huge	-3218
porary	-3219
▁supply	-3220
▁tournament	-3221
-0	-3222
ya	-3223
▁cross	-3224
▁progress	-3225
14	-3226
enge	-3227
▁Work	-3228
▁understanding	-3229
iles	-3230
▁Hot	-3231
▁rev	-3232
▁glass	-3233
den	-3234
▁Loc	-3235
imately	-3236
▁connect	-3237
▁surround	-3238
▁implement	-3239
▁interview	-3240
80	-3241
urb	-3242
enty	-3243
idered	-3244
▁integr	-3245
▁weather	-3246
▁goes	-3247
▁repl	-3248
istics	-3249
▁concept	-3250
ET	-3251
unt	-3252
▁Tex	-3253
inary	-3254
ipped	-3255
▁blue	-3256
rought	-3257
▁China	-3258
▁hotel	-3259
▁mother	-3260
▁families	-3261
▁language	-3262
▁schedule	-3263
▁Tod	-3264
▁dedic	-3265
▁finished	-3266
▁dy	-3267
▁Mem	-3268
▁lab	-3269
▁dark	-3270
▁offe	-3271
▁blood	-3272
ulations	-3273
▁exactly	-3274
ma	-3275
door	-3276
▁Why	-3277
itely	-3278
▁viol	-3279
▁listen	-3280
▁satisf	-3281
▁starting	-3282
ald	-3283
ooth	-3284
▁enh	-3285
istry	-3286
▁speak	-3287
▁Island	-3288
▁Window	-3289
yond	-3290
inter	-3291
▁2010	-3292
▁prec	-3293
allery	-3294
▁ideal	-3295
▁surpr	-3296
▁attempt	-3297
▁prevent	-3298
▁completely	-3299
▁circ	-3300
▁Music	-3301
▁court	-3302
▁guarant	-3303
▁campaign	-3304
▁completed	-3305
umni	-3306
▁ver	-3307
attle	-3308
house	-3309
▁Even	-3310
▁object	-3311
▁extreme	-3312
▁experienced	-3313
▁4.	-3314
▁Met	-3315
▁word	-3316
▁collabor	-3317
▁offering	-3318
▁previous	-3319
ael	-3320
ceed	-3321
odes	-3322
▁uses	-3323
▁write	-3324
▁physical	-3325
▁transfer	-3326
▁pool	-3327
▁Other	-3328
▁score	-3329
▁smart	-3330
▁schools	-3331
▁advanced	-3332
11	-3333
ij	-3334
rom	-3335
▁conc	-3336
alysis	-3337
▁execut	-3338
▁nature	-3339
ults	-3340
▁wind	-3341
▁analy	-3342
▁aware	-3343
▁influ	-3344
▁Company	-3345
▁Internet	-3346
▁delivery	-3347
▁internet	-3348
▁Fed	-3349
▁Flor	-3350
urning	-3351
88	-3352
▁Av	-3353
▁Sk	-3354
nded	-3355
olic	-3356
▁slow	-3357
leg	-3358
▁fair	-3359
enance	-3360
▁homes	-3361
▁mention	-3362
asc	-3363
rem	-3364
ris	-3365
ses	-3366
▁eye	-3367
▁died	-3368
isions	-3369
▁advant	-3370
▁reported	-3371
change	-3372
▁According	-3373
▁James	-3374
▁German	-3375
▁artist	-3376
St	-3377
▁Sch	-3378
▁Wed	-3379
▁Paul	-3380
▁Wash	-3381
▁Republic	-3382
▁White	-3383
▁message	-3384
▁Edu	-3385
▁Ins	-3386
▁Spe	-3387
▁bottom	-3388
▁pressure	-3389
▁installation	-3390
Th	-3391
net	-3392
erse	-3393
like	-3394
▁Spr	-3395
▁avoid	-3396
▁comment	-3397
▁sometimes	-3398
In	-3399
▁hor	-3400
▁Play	-3401
▁transport	-3402
▁themselves	-3403
▁+	-3404
iant	-3405
rast	-3406
vest	-3407
▁devices	-3408
▁strateg	-3409
AD	-3410
▁gets	-3411
▁male	-3412
▁expected	-3413
unk	-3414
▁0.	-3415
▁jud	-3416
clusive	-3417
▁initial	-3418
omb	-3419
▁ri	-3420
▁Del	-3421
▁war	-3422
▁Call	-3423
▁unit	-3424
▁creative	-3425
▁--	-3426
iger	-3427
▁imm	-3428
pects	-3429
▁2015	-3430
▁join	-3431
formation	-3432
▁Oh	-3433
ager	-3434
ties	-3435
▁Check	-3436
▁retail	-3437
levision	-3438
▁wait	-3439
iction	-3440
▁myself	-3441
:00	-3442
▁regarding	-3443
▁difference	-3444
▁opportunities	-3445
▁cat	-3446
▁hear	-3447
▁note	-3448
▁afford	-3449
▁considered	-3450
ittee	-3451
ibrary	-3452
porate	-3453
▁dream	-3454
▁garden	-3455
▁Services	-3456
rate	-3457
▁obs	-3458
▁answer	-3459
▁Men	-3460
▁Que	-3461
▁fish	-3462
▁loved	-3463
▁groups	-3464
▁rights	-3465
▁temper	-3466
▁experts	-3467
▁background	-3468
▁Good	-3469
▁moved	-3470
▁secure	-3471
▁cleaning	-3472
▁thinking	-3473
▁Institute	-3474
gu	-3475
▁IN	-3476
▁Mond	-3477
▁Plan	-3478
▁2019.	-3479
▁listed	-3480
▁complex	-3481
▁Sing	-3482
▁heat	-3483
▁assess	-3484
▁Lou	-3485
▁Mal	-3486
▁Make	-3487
▁sites	-3488
▁steel	-3489
▁largest	-3490
▁missing	-3491
ibly	-3492
▁weight	-3493
▁convers	-3494
▁partner	-3495
▁individuals	-3496
ded	-3497
oma	-3498
rows	-3499
▁Hel	-3500
▁nut	-3501
▁ten	-3502
▁metal	-3503
▁Program	-3504
▁architect	-3505
▁contribut	-3506
ID	-3507
wor	-3508
▁Ann	-3509
▁ter	-3510
andsc	-3511
▁path	-3512
▁exhib	-3513
▁rates	-3514
▁affect	-3515
▁repair	-3516
▁offered	-3517
ae	-3518
zy	-3519
▁dise	-3520
▁exerc	-3521
▁spent	-3522
aughter	-3523
▁moment	-3524
▁update	-3525
▁helping	-3526
▁station	-3527
dy	-3528
onse	-3529
▁owners	-3530
▁discount	-3531
ocks	-3532
esome	-3533
▁Mart	-3534
▁categ	-3535
▁chair	-3536
▁finally	-3537
▁species	-3538
unte	-3539
wise	-3540
▁ing	-3541
inated	-3542
▁Build	-3543
▁files	-3544
▁graph	-3545
▁wrong	-3546
▁adjust	-3547
▁advice	-3548
▁region	-3549
▁stories	-3550
▁selection	-3551
▁£	-3552
▁•	-3553
▁1,	-3554
▁Cr	-3555
hens	-3556
inner	-3557
▁farm	-3558
▁Mexic	-3559
▁Texas	-3560
▁suppl	-3561
▁reports	-3562
▁director	-3563
▁comfortable	-3564
erg	-3565
▁hop	-3566
▁sty	-3567
▁Book	-3568
▁doll	-3569
▁subs	-3570
▁medic	-3571
▁Academ	-3572
▁charge	-3573
▁stream	-3574
▁correct	-3575
▁respond	-3576
▁District	-3577
uth	-3578
atab	-3579
rial	-3580
▁Arch	-3581
▁Educ	-3582
▁Award	-3583
▁trade	-3584
▁woman	-3585
▁produced	-3586
EC	-3587
▁27	-3588
▁(20	-3589
▁sus	-3590
iques	-3591
plate	-3592
▁France	-3593
▁altern	-3594
-4	-3595
arc	-3596
▁Love	-3597
▁hour	-3598
▁cabin	-3599
▁existing	-3600
des	-3601
▁ble	-3602
▁Cong	-3603
ka	-3604
▁err	-3605
▁button	-3606
▁Develop	-3607
▁benefit	-3608
▁purpose	-3609
▁activity	-3610
▁increasing	-3611
▁subst	-3612
▁double	-3613
▁effort	-3614
▁General	-3615
▁feeling	-3616
▁response	-3617
▁organizations	-3618
het	-3619
▁bow	-3620
13	-3621
BC	-3622
▁gas	-3623
▁basic	-3624
▁Cur	-3625
aught	-3626
▁corner	-3627
▁master	-3628
▁culture	-3629
▁driving	-3630
que	-3631
▁Sl	-3632
▁Vis	-3633
▁aff	-3634
▁ult	-3635
▁Fore	-3636
▁thanks	-3637
▁Whether	-3638
ago	-3639
▁Jo	-3640
▁fan	-3641
▁colle	-3642
▁easier	-3643
ini	-3644
mar	-3645
pet	-3646
▁Up	-3647
aith	-3648
▁eat	-3649
antly	-3650
olute	-3651
▁Lake	-3652
▁decl	-3653
▁obt	-3654
▁2014	-3655
▁desk	-3656
▁Angel	-3657
▁sense	-3658
▁situation	-3659
rag	-3660
▁23	-3661
ously	-3662
▁copy	-3663
▁fight	-3664
acing	-3665
▁Team	-3666
▁delic	-3667
▁apprec	-3668
▁damage	-3669
▁fabric	-3670
▁police	-3671
▁proced	-3672
▁covered	-3673
▁produce	-3674
▁political	-3675
dom	-3676
▁Dan	-3677
▁sav	-3678
right	-3679
▁Today	-3680
▁artists	-3681
▁brought	-3682
▁capital	-3683
▁entertain	-3684
▁Super	-3685
▁spend	-3686
ologies	-3687
outhern	-3688
▁responsible	-3689
▁5.	-3690
icks	-3691
ston	-3692
▁Cam	-3693
▁Look	-3694
anging	-3695
IL	-3696
PS	-3697
hi	-3698
ray	-3699
▁Sur	-3700
▁Top	-3701
▁Bank	-3702
▁thous	-3703
▁train	-3704
mod	-3705
top	-3706
▁IS	-3707
ders	-3708
▁Web	-3709
ounds	-3710
▁Supp	-3711
▁acqu	-3712
▁spot	-3713
▁stru	-3714
▁David	-3715
▁guide	-3716
▁lines	-3717
▁views	-3718
▁states	-3719
▁traffic	-3720
▁Download	-3721
▁election	-3722
▁manufacturer	-3723
▁Life	-3724
▁diag	-3725
▁dire	-3726
▁drug	-3727
▁Wednes	-3728
▁Tem	-3729
orial	-3730
▁flav	-3731
▁reve	-3732
icians	-3733
▁nation	-3734
▁Jew	-3735
▁advert	-3736
▁conven	-3737
ows	-3738
nown	-3739
rote	-3740
▁boy	-3741
▁tow	-3742
▁vot	-3743
▁imag	-3744
▁lots	-3745
osition	-3746
▁father	-3747
▁Christmas	-3748
▁president	-3749
▁dro	-3750
▁gave	-3751
▁wear	-3752
▁frequ	-3753
▁approp	-3754
▁payment	-3755
▁electric	-3756
▁efficient	-3757
▁AN	-3758
▁eyes	-3759
▁owner	-3760
▁explore	-3761
▁overall	-3762
▁studies	-3763
▁Washington	-3764
▁htt	-3765
▁pow	-3766
arily	-3767
ician	-3768
▁cancer	-3769
▁Japanese	-3770
▁Champions	-3771
▁definitely	-3772
vin	-3773
▁Ben	-3774
▁Dec	-3775
cause	-3776
▁Party	-3777
▁liter	-3778
▁designs	-3779
▁district	-3780
rey	-3781
semb	-3782
▁Wood	-3783
▁continu	-3784
▁Management	-3785
1)	-3786
tra	-3787
sequ	-3788
▁brok	-3789
▁Windows	-3790
▁fashion	-3791
▁distribut	-3792
itar	-3793
▁pet	-3794
▁gift	-3795
▁Monday	-3796
▁century	-3797
▁beginning	-3798
chan	-3799
▁Open	-3800
mitted	-3801
▁refer	-3802
▁south	-3803
▁theme	-3804
▁joined	-3805
ocr	-3806
igan	-3807
▁Tom	-3808
▁anim	-3809
▁feet	-3810
▁sand	-3811
arlier	-3812
▁Church	-3813
▁beyond	-3814
▁establish	-3815
▁protection	-3816
▁competition	-3817
▁relationship	-3818
col	-3819
▁Hy	-3820
haps	-3821
ocol	-3822
oving	-3823
▁Fire	-3824
▁occas	-3825
▁sleep	-3826
▁songs	-3827
▁tried	-3828
▁Museum	-3829
▁shopping	-3830
▁Wednesday	-3831
bl	-3832
▁iP	-3833
vant	-3834
▁Its	-3835
▁winter	-3836
▁conference	-3837
▁Exp	-3838
▁rob	-3839
▁sum	-3840
iling	-3841
ronic	-3842
▁Road	-3843
▁rank	-3844
▁truly	-3845
▁prefer	-3846
▁serving	-3847
▁investment	-3848
▁maintenance	-3849
▁professionals	-3850
alu	-3851
azon	-3852
inese	-3853
▁wife	-3854
▁rooms	-3855
▁setting	-3856
▁Use	-3857
▁Alex	-3858
▁Central	-3859
▁ST	-3860
▁pred	-3861
▁batter	-3862
▁guests	-3863
▁Canadian	-3864
▁Research	-3865
!!!	-3866
ixt	-3867
oses	-3868
▁Mil	-3869
▁cars	-3870
▁rich	-3871
▁craft	-3872
▁Office	-3873
▁colour	-3874
hop	-3875
▁PC	-3876
▁Hol	-3877
▁fem	-3878
▁mer	-3879
▁2013	-3880
▁fold	-3881
▁Board	-3882
▁academ	-3883
▁reduce	-3884
▁Michael	-3885
rd	-3886
ios	-3887
ota	-3888
icing	-3889
▁Have	-3890
▁Lear	-3891
▁sweet	-3892
▁compon	-3893
rapy	-3894
▁Mac	-3895
▁Sil	-3896
▁cold	-3897
▁friendly	-3898
▁powerful	-3899
▁facilities	-3900
AP	-3901
It	-3902
ado	-3903
iny	-3904
ulated	-3905
▁shoot	-3906
▁alumni	-3907
▁demand	-3908
▁Although	-3909
IP	-3910
OL	-3911
▁Sal	-3912
▁Phot	-3913
ribute	-3914
▁length	-3915
▁efforts	-3916
▁journey	-3917
roud	-3918
used	-3919
▁bag	-3920
atever	-3921
▁movie	-3922
▁Africa	-3923
▁contain	-3924
▁mission	-3925
▁sharing	-3926
see	-3927
▁SE	-3928
anta	-3929
▁dram	-3930
▁eight	-3931
▁colors	-3932
▁normal	-3933
▁street	-3934
▁Rob	-3935
oices	-3936
▁item	-3937
▁remain	-3938
▁holiday	-3939
order	-3940
rated	-3941
▁session	-3942
▁Sa	-3943
▁transl	-3944
▁effects	-3945
▁technical	-3946
99	-3947
ga	-3948
itors	-3949
▁fill	-3950
▁star	-3951
▁helped	-3952
▁History	-3953
▁furniture	-3954
▁presented	-3955
met	-3956
▁AP	-3957
ograp	-3958
rical	-3959
▁Back	-3960
▁dead	-3961
▁Asian	-3962
▁statement	-3963
▁Foundation	-3964
--	-3965
pite	-3966
▁disp	-3967
ustain	-3968
▁Carol	-3969
▁Court	-3970
▁dedicated	-3971
eed	-3972
iced	-3973
▁192	-3974
▁THE	-3975
riend	-3976
▁Last	-3977
▁flex	-3978
▁coffe	-3979
▁seven	-3980
▁numbers	-3981
ona	-3982
ivil	-3983
▁Rel	-3984
▁Take	-3985
▁Wall	-3986
▁baby	-3987
▁pull	-3988
▁except	-3989
▁opening	-3990
▁institut	-3991
▁selected	-3992
za	-3993
ady	-3994
erved	-3995
iment	-3996
oming	-3997
▁Tues	-3998
▁Press	-3999
▁impress	-4000
▁challenges	-4001
iar	-4002
▁Som	-4003
ctors	-4004
▁wine	-4005
▁bright	-4006
▁Because	-4007
▁Florida	-4008
▁Spanish	-4009
▁surface	-4010
US	-4011
▁pen	-4012
osing	-4013
▁race	-4014
▁grand	-4015
▁relax	-4016
▁pieces	-4017
▁spirit	-4018
▁challenge	-4019
▁26	-4020
part	-4021
▁Tur	-4022
▁fant	-4023
▁shot	-4024
itment	-4025
▁thank	-4026
▁demonst	-4027
-5	-4028
▁Ber	-4029
▁cru	-4030
lands	-4031
▁drop	-4032
▁pair	-4033
iately	-4034
▁Micro	-4035
▁basis	-4036
▁nearly	-4037
▁serious	-4038
gen	-4039
set	-4040
uled	-4041
▁plus	-4042
▁coach	-4043
▁sched	-4044
▁expand	-4045
▁opened	-4046
▁Chinese	-4047
▁England	-4048
-6	-4049
IM	-4050
end	-4051
oos	-4052
rab	-4053
▁lik	-4054
▁Rich	-4055
▁debut	-4056
▁classic	-4057
▁u	-4058
imb	-4059
gage	-4060
itude	-4061
▁calc	-4062
▁util	-4063
rehens	-4064
▁approx	-4065
▁identify	-4066
pm	-4067
▁!	-4068
sych	-4069
paper	-4070
▁Elect	-4071
▁drink	-4072
▁stuff	-4073
▁passion	-4074
▁Christian	-4075
:30	-4076
raw	-4077
▁Vol	-4078
phone	-4079
▁Thom	-4080
▁beach	-4081
▁driver	-4082
▁turned	-4083
▁Contact	-4084
▁Profess	-4085
▁arrange	-4086
▁billion	-4087
▁journal	-4088
▁associated	-4089
▁Bay	-4090
▁Two	-4091
▁cup	-4092
▁shall	-4093
▁youth	-4094
▁church	-4095
▁Russian	-4096
▁measure	-4097
??	-4098
ned	-4099
yer	-4100
ovel	-4101
▁Pet	-4102
▁Sun	-4103
ulate	-4104
▁deaths	-4105
▁plants	-4106
oves	-4107
▁Jes	-4108
▁cry	-4109
▁paid	-4110
▁incred	-4111
▁package	-4112
▁strength	-4113
▁structure	-4114
EM	-4115
fit	-4116
▁28	-4117
▁Bi	-4118
▁Ret	-4119
▁laun	-4120
▁ahead	-4121
▁steps	-4122
isation	-4123
▁spring	-4124
▁changed	-4125
▁reasons	-4126
fin	-4127
fast	-4128
▁jobs	-4129
▁Thurs	-4130
▁Director	-4131
▁Australian	-4132
▁appropriate	-4133
roid	-4134
▁lux	-4135
▁menu	-4136
▁Apple	-4137
atabase	-4138
▁Public	-4139
▁coffee	-4140
▁dining	-4141
▁scient	-4142
▁Special	-4143
▁Education	-4144
oles	-4145
▁Cat	-4146
▁Div	-4147
▁Ide	-4148
▁wild	-4149
ancing	-4150
undred	-4151
▁north	-4152
▁wrote	-4153
▁origin	-4154
▁useful	-4155
atically	-4156
▁express	-4157
▁volunte	-4158
▁standards	-4159
▁independent	-4160
70	-4161
▁Under	-4162
▁Social	-4163
▁manage	-4164
▁Tuesday	-4165
▁experiences	-4166
oms	-4167
bour	-4168
oors	-4169
tion	-4170
apers	-4171
ences	-4172
▁Rober	-4173
▁welcome	-4174
ada	-4175
▁Power	-4176
▁forms	-4177
▁heard	-4178
▁names	-4179
▁middle	-4180
▁advantage	-4181
cut	-4182
▁Ev	-4183
▁Sub	-4184
alian	-4185
aming	-4186
azine	-4187
▁2018.	-4188
▁ingred	-4189
standing	-4190
▁described	-4191
SS	-4192
care	-4193
▁tips	-4194
unning	-4195
▁Light	-4196
▁peace	-4197
▁Germany	-4198
▁biggest	-4199
▁absolute	-4200
▁analysis	-4201
▁extremely	-4202
-8	-4203
venue	-4204
▁girls	-4205
▁Market	-4206
▁characters	-4207
zer	-4208
▁Pan	-4209
▁fly	-4210
▁Rock	-4211
▁Town	-4212
▁Beach	-4213
▁funds	-4214
▁occur	-4215
▁attract	-4216
▁comments	-4217
▁developing	-4218
▁properties	-4219
▁immediately	-4220
▁Fam	-4221
▁ice	-4222
apter	-4223
▁Society	-4224
▁bur	-4225
▁cas	-4226
▁fed	-4227
enture	-4228
othing	-4229
▁remove	-4230
▁Thursday	-4231
▁separate	-4232
/2	-4233
bon	-4234
▁2000	-4235
▁Blue	-4236
▁guid	-4237
▁onto	-4238
▁proud	-4239
▁handle	-4240
▁evening	-4241
▁meaning	-4242
▁maintain	-4243
men	-4244
▁Adv	-4245
▁Mat	-4246
▁Pay	-4247
▁voc	-4248
mical	-4249
▁Arts	-4250
▁Star	-4251
▁wasn	-4252
▁techniques	-4253
ius	-4254
▁$1	-4255
▁Es	-4256
omet	-4257
▁...	-4258
▁2012	-4259
▁Miss	-4260
▁Stand	-4261
▁Union	-4262
▁beauty	-4263
▁landsc	-4264
▁seeing	-4265
▁methods	-4266
▁prepare	-4267
▁military	-4268
SE	-4269
ette	-4270
rief	-4271
acity	-4272
▁clin	-4273
▁illust	-4274
▁elements	-4275
aling	-4276
▁Foot	-4277
▁format	-4278
▁placed	-4279
▁saying	-4280
▁smooth	-4281
▁Western	-4282
75	-4283
▁Mary	-4284
usband	-4285
▁Engine	-4286
▁launch	-4287
▁models	-4288
emporary	-4289
▁central	-4290
▁patient	-4291
▁followed	-4292
▁USA	-4293
▁den	-4294
igned	-4295
▁Hill	-4296
▁shel	-4297
▁manual	-4298
▁shared	-4299
▁slight	-4300
uty	-4301
▁CA	-4302
more	-4303
reek	-4304
▁Bur	-4305
▁tree	-4306
▁attack	-4307
▁config	-4308
▁classes	-4309
▁requires	-4310
▁Big	-4311
▁Tour	-4312
▁bask	-4313
▁felt	-4314
▁maybe	-4315
▁courses	-4316
▁connection	-4317
ander	-4318
▁miles	-4319
▁shown	-4320
▁science	-4321
▁population	-4322
rs	-4323
nel	-4324
alls	-4325
ategy	-4326
▁aren	-4327
▁lack	-4328
▁haven	-4329
▁novel	-4330
▁extend	-4331
▁village	-4332
▁strategy	-4333
▁EU	-4334
▁Camp	-4335
▁cart	-4336
▁camera	-4337
▁spread	-4338
▁brother	-4339
▁although	-4340
▁increased	-4341
▁Mel	-4342
▁map	-4343
overy	-4344
▁belie	-4345
▁Amazon	-4346
▁quarter	-4347
▁straight	-4348
▁Ill	-4349
▁epis	-4350
▁leader	-4351
▁Science	-4352
▁hundred	-4353
▁television	-4354
ano	-4355
arge	-4356
▁Tim	-4357
▁Tor	-4358
akers	-4359
▁doub	-4360
▁panel	-4361
▁economic	-4362
bu	-4363
ste	-4364
▁fee	-4365
force	-4366
arliam	-4367
▁Royal	-4368
▁Det	-4369
iency	-4370
▁dete	-4371
▁evalu	-4372
orthern	-4373
▁larger	-4374
ervation	-4375
▁Academy	-4376
▁earlier	-4377
berg	-4378
west	-4379
▁Prov	-4380
active	-4381
▁incor	-4382
▁stick	-4383
▁resist	-4384
▁married	-4385
▁reviews	-4386
▁compared	-4387
▁contains	-4388
ads	-4389
org	-4390
▁bul	-4391
▁tag	-4392
▁Cert	-4393
▁Child	-4394
iration	-4395
▁Custom	-4396
▁senior	-4397
▁manager	-4398
▁audience	-4399
isl	-4400
lor	-4401
▁Sen	-4402
▁Chic	-4403
▁2019,	-4404
▁wants	-4405
arliament	-4406
▁certainly	-4407
▁operations	-4408
ula	-4409
▁Set	-4410
▁Time	-4411
▁prot	-4412
▁Louis	-4413
▁strugg	-4414
▁keeping	-4415
▁daughter	-4416
▁Ve	-4417
uries	-4418
▁(200	-4419
▁suff	-4420
▁sport	-4421
▁forget	-4422
▁flowers	-4423
ipl	-4424
▁29	-4425
▁Rad	-4426
▁sup	-4427
icken	-4428
▁Sports	-4429
▁videos	-4430
▁allowed	-4431
▁awesome	-4432
▁himself	-4433
▁reflect	-4434
▁exclusive	-4435
hab	-4436
▁HD	-4437
▁sch	-4438
orrow	-4439
▁Kore	-4440
▁mill	-4441
▁task	-4442
▁Place	-4443
▁solid	-4444
▁Follow	-4445
▁Valley	-4446
▁memory	-4447
▁counter	-4448
▁numerous	-4449
▁candidates	-4450
ym	-4451
▁Pri	-4452
▁sem	-4453
incip	-4454
▁attor	-4455
▁brain	-4456
▁optim	-4457
▁units	-4458
▁looked	-4459
▁hospital	-4460
▁suitable	-4461
▁thousands	-4462
3)	-4463
annel	-4464
▁Disc	-4465
▁flat	-4466
▁relig	-4467
▁rules	-4468
▁veget	-4469
▁Awards	-4470
▁doctor	-4471
▁income	-4472
▁signed	-4473
▁outdoor	-4474
▁workers	-4475
▁fat	-4476
▁emot	-4477
▁laws	-4478
▁behav	-4479
▁stone	-4480
▁voice	-4481
▁famous	-4482
▁favour	-4483
▁notice	-4484
rehensive	-4485
▁prepared	-4486
▁communities	-4487
amm	-4488
aled	-4489
orge	-4490
term	-4491
▁Eas	-4492
ented	-4493
▁fans	-4494
▁mail	-4495
▁plenty	-4496
▁sector	-4497
▁server	-4498
▁primary	-4499
edy	-4500
lam	-4501
▁Step	-4502
▁dial	-4503
▁fuel	-4504
▁Trump	-4505
▁whose	-4506
uration	-4507
▁adding	-4508
▁testing	-4509
▁interior	-4510
▁reliable	-4511
ki	-4512
bre	-4513
rep	-4514
▁Bre	-4515
▁loan	-4516
iverse	-4517
▁Their	-4518
▁cheap	-4519
▁doors	-4520
▁Italian	-4521
▁encourage	-4522
▁leadership	-4523
▁photograph	-4524
▁@	-4525
down	-4526
umin	-4527
▁cast	-4528
▁pray	-4529
▁cards	-4530
▁threat	-4531
▁Twitter	-4532
▁Mass	-4533
▁trou	-4534
▁Enter	-4535
▁motor	-4536
▁status	-4537
▁African	-4538
▁applied	-4539
▁performed	-4540
4)	-4541
RO	-4542
la	-4543
yn	-4544
van	-4545
▁Kh	-4546
▁Vir	-4547
▁runs	-4548
▁scen	-4549
▁sort	-4550
▁multi	-4551
▁older	-4552
▁husband	-4553
▁teaching	-4554
▁determine	-4555
▁particularly	-4556
-19	-4557
rian	-4558
iated	-4559
▁anti	-4560
▁adapt	-4561
▁stores	-4562
▁tickets	-4563
▁neighbor	-4564
icon	-4565
osen	-4566
▁Nor	-4567
▁catch	-4568
▁finding	-4569
▁painting	-4570
▁vehicles	-4571
▁extensive	-4572
▁tim	-4573
▁harm	-4574
▁alone	-4575
▁lovely	-4576
▁parties	-4577
▁critical	-4578
▁committed	-4579
▁installed	-4580
▁resolution	-4581
ams	-4582
atre	-4583
iers	-4584
▁Cap	-4585
▁Army	-4586
▁Note	-4587
▁jump	-4588
▁snow	-4589
iences	-4590
▁shape	-4591
▁letter	-4592
▁Community	-4593
▁continued	-4594
CC	-4595
ION	-4596
ani	-4597
▁du	-4598
▁guest	-4599
▁basket	-4600
▁movement	-4601
90	-4602
ena	-4603
▁80	-4604
▁CD	-4605
▁Ma	-4606
erry	-4607
▁Mill	-4608
▁gone	-4609
encies	-4610
▁Online	-4611
▁raised	-4612
▁helpful	-4613
▁accommod	-4614
▁detailed	-4615
▁documents	-4616
▁transform	-4617
▁Development	-4618
▁70	-4619
▁Ob	-4620
▁beg	-4621
▁nom	-4622
▁Fort	-4623
▁excited	-4624
aser	-4625
▁Gal	-4626
▁rub	-4627
▁pock	-4628
▁radio	-4629
▁trail	-4630
▁Centre	-4631
▁decide	-4632
▁shower	-4633
▁residents	-4634
▁replacement	-4635
TS	-4636
ails	-4637
iest	-4638
imin	-4639
▁Vide	-4640
▁wire	-4641
▁Grand	-4642
▁faith	-4643
▁bought	-4644
▁square	-4645
▁factors	-4646
▁sustain	-4647
▁talking	-4648
▁exchange	-4649
▁launched	-4650
▁Mot	-4651
anger	-4652
ooper	-4653
works	-4654
▁100%	-4655
▁ship	-4656
▁calls	-4657
▁Olympic	-4658
▁winning	-4659
▁buildings	-4660
▁connected	-4661
▁department	-4662
gn	-4663
ola	-4664
▁NY	-4665
▁Tre	-4666
▁ton	-4667
aters	-4668
iance	-4669
▁Bang	-4670
▁Mont	-4671
▁fear	-4672
▁visual	-4673
▁maximum	-4674
▁visitors	-4675
▁delicious	-4676
22	-4677
45	-4678
ero	-4679
▁Mad	-4680
▁cit	-4681
▁swim	-4682
▁heavy	-4683
▁plays	-4684
▁taste	-4685
atively	-4686
▁Indust	-4687
▁leaves	-4688
▁greater	-4689
▁updated	-4690
▁combination	-4691
Ch	-4692
LA	-4693
▁sea	-4694
▁figure	-4695
▁funding	-4696
▁controll	-4697
▁locations	-4698
MS	-4699
aks	-4700
gency	-4701
▁Both	-4702
▁Const	-4703
▁recip	-4704
▁closed	-4705
▁remind	-4706
▁Another	-4707
▁becomes	-4708
▁relevant	-4709
▁Technology	-4710
ech	-4711
▁News	-4712
▁Next	-4713
▁impl	-4714
friend	-4715
▁Democr	-4716
▁vision	-4717
▁Medical	-4718
▁disease	-4719
▁leaving	-4720
▁waiting	-4721
free	-4722
▁Bet	-4723
inger	-4724
night	-4725
▁Word	-4726
▁Festival	-4727
▁expertise	-4728
▁NE	-4729
▁Ok	-4730
list	-4731
word	-4732
agram	-4733
going	-4734
ishes	-4735
▁Cath	-4736
▁gallery	-4737
▁facility	-4738
ulty	-4739
▁Sol	-4740
▁luck	-4741
▁wheel	-4742
▁educational	-4743
▁ingredients	-4744
▁mo	-4745
▁diet	-4746
▁matt	-4747
▁rare	-4748
▁virt	-4749
▁Medic	-4750
▁Small	-4751
▁George	-4752
▁Person	-4753
▁caused	-4754
▁saving	-4755
▁becoming	-4756
▁database	-4757
▁whatever	-4758
▁corporate	-4759
ta	-4760
box	-4761
ita	-4762
ums	-4763
▁Ce	-4764
▁MP	-4765
▁ir	-4766
▁fol	-4767
▁Inte	-4768
sembly	-4769
▁Mexico	-4770
▁centre	-4771
▁studio	-4772
▁balance	-4773
▁visiting	-4774
ront	-4775
▁Los	-4776
▁Sand	-4777
▁adop	-4778
▁fees	-4779
▁Brown	-4780
▁Offic	-4781
▁earth	-4782
▁passed	-4783
▁shipping	-4784
▁innovative	-4785
-7	-4786
hy	-4787
uce	-4788
win	-4789
▁CO	-4790
....	-4791
cean	-4792
life	-4793
▁Est	-4794
▁ath	-4795
▁spl	-4796
ening	-4797
▁info	-4798
▁kept	-4799
▁knew	-4800
▁rain	-4801
▁stars	-4802
▁investig	-4803
▁temperature	-4804
.)	-4805
td	-4806
ror	-4807
▁90	-4808
illa	-4809
isco	-4810
oral	-4811
soft	-4812
▁Who	-4813
▁www	-4814
ivered	-4815
▁spect	-4816
▁sugar	-4817
aturing	-4818
▁injury	-4819
▁updates	-4820
▁recommended	-4821
▁Hum	-4822
▁Yes	-4823
ellig	-4824
▁Hotel	-4825
▁frame	-4826
▁posts	-4827
▁Review	-4828
▁couldn	-4829
▁parking	-4830
▁walking	-4831
▁concerns	-4832
▁exercise	-4833
ala	-4834
▁2,	-4835
ship	-4836
ption	-4837
▁Lead	-4838
▁Start	-4839
▁apart	-4840
▁breat	-4841
▁enhance	-4842
▁teacher	-4843
▁accident	-4844
▁changing	-4845
▁discover	-4846
LC	-4847
icip	-4848
rain	-4849
▁mis	-4850
▁pal	-4851
▁opin	-4852
▁Jesus	-4853
▁awarded	-4854
▁generally	-4855
▁restaurant	-4856
IG	-4857
zil	-4858
▁AM	-4859
▁Ty	-4860
▁der	-4861
craft	-4862
▁dish	-4863
▁surv	-4864
▁Exper	-4865
▁force	-4866
▁worry	-4867
▁victim	-4868
▁aspects	-4869
▁Football	-4870
▁relationships	-4871
IF	-4872
reed	-4873
▁Wil	-4874
eared	-4875
▁Like	-4876
▁Vict	-4877
▁push	-4878
▁actual	-4879
▁recipe	-4880
▁foreign	-4881
▁affordable	-4882
▁communication	-4883
▁comprehensive	-4884
lo	-4885
coh	-4886
ively	-4887
pping	-4888
▁brings	-4889
▁Ap	-4890
cles	-4891
▁190	-4892
▁van	-4893
osure	-4894
prise	-4895
▁bill	-4896
▁Paris	-4897
▁cream	-4898
▁spons	-4899
essions	-4900
▁Before	-4901
▁values	-4902
▁featured	-4903
▁fantastic	-4904
▁manufacturing	-4905
▁CE	-4906
mond	-4907
▁har	-4908
▁ven	-4909
▁gain	-4910
arrant	-4911
▁chart	-4912
▁deals	-4913
▁diagn	-4914
▁schol	-4915
▁garage	-4916
▁mechan	-4917
▁Through	-4918
▁windows	-4919
▁combined	-4920
7)	-4921
LE	-4922
mail	-4923
ying	-4924
▁Bas	-4925
▁Dub	-4926
▁tun	-4927
▁plug	-4928
liance	-4929
▁Clean	-4930
▁waste	-4931
unately	-4932
▁happens	-4933
▁mountain	-4934
▁Committee	-4935
▁decisions	-4936
▁Conference	-4937
35	-4938
/20	-4939
500	-4940
ria	-4941
▁6.	-4942
burg	-4943
inem	-4944
look	-4945
▁Atl	-4946
▁Mer	-4947
▁2011	-4948
▁Head	-4949
▁Franc	-4950
▁brows	-4951
▁micro	-4952
▁dinner	-4953
▁Chicago	-4954
▁capacity	-4955
▁directed	-4956
▁returned	-4957
▁appointed	-4958
▁university	-4959
▁Information	-4960
ls	-4961
rees	-4962
alend	-4963
enses	-4964
▁cities	-4965
▁previously	-4966
▁appointment	-4967
▁technologies	-4968
OW	-4969
rael	-4970
▁Equ	-4971
▁Leg	-4972
estic	-4973
umber	-4974
▁sets	-4975
▁achie	-4976
ructure	-4977
▁edition	-4978
▁managed	-4979
▁coverage	-4980
▁processes	-4981
▁participants	-4982
200	-4983
▁36	-4984
rete	-4985
▁Old	-4986
▁valu	-4987
▁dynam	-4988
▁estim	-4989
▁Robert	-4990
▁Carolina	-4991
▁register	-4992
▁mentioned	-4993
▁Government	-4994
mes	-4995
hone	-4996
miss	-4997
▁500	-4998
▁Lim	-4999
▁Jack	-5000
▁Show	-5001
▁Sign	-5002
▁tend	-5003
itness	-5004
▁grant	-5005
▁Columb	-5006
▁Master	-5007
▁Spring	-5008
▁flight	-5009
▁Kitchen	-5010
▁lighting	-5011
▁reference	-5012
▁therefore	-5013
PA	-5014
apes	-5015
ened	-5016
▁Den	-5017
▁Rev	-5018
ennis	-5019
▁Card	-5020
▁Full	-5021
▁http	-5022
▁limit	-5023
▁reput	-5024
▁minute	-5025
www	-5026
utch	-5027
▁Keep	-5028
▁audio	-5029
▁pleas	-5030
▁approved	-5031
▁inspired	-5032
▁operating	-5033
▁Commission	-5034
UT	-5035
osh	-5036
uts	-5037
▁Max	-5038
▁hom	-5039
▁Cast	-5040
▁Matt	-5041
▁Oper	-5042
▁cris	-5043
orough	-5044
▁Color	-5045
▁Scott	-5046
▁scene	-5047
▁Brazil	-5048
▁buying	-5049
▁guitar	-5050
▁island	-5051
▁secret	-5052
▁showing	-5053
▁society	-5054
▁allowing	-5055
▁delivered	-5056
IR	-5057
ua	-5058
rene	-5059
vell	-5060
▁Ham	-5061
▁fra	-5062
usher	-5063
▁Only	-5064
▁poor	-5065
▁pros	-5066
▁Organ	-5067
▁Smith	-5068
▁Where	-5069
pective	-5070
▁learned	-5071
24	-5072
▁7.	-5073
well	-5074
▁Bed	-5075
▁Dig	-5076
▁Plus	-5077
ricult	-5078
▁2018,	-5079
▁polic	-5080
▁Second	-5081
▁medium	-5082
▁evidence	-5083
▁exciting	-5084
bed	-5085
▁OF	-5086
▁PM	-5087
alog	-5088
▁Att	-5089
▁egg	-5090
▁Data	-5091
▁Georg	-5092
▁thick	-5093
▁appears	-5094
▁founded	-5095
▁plastic	-5096
▁Minister	-5097
▁happened	-5098
▁upcoming	-5099
▁approximately	-5100
▁environmental	-5101
ye	-5102
▁35	-5103
cher	-5104
▁Die	-5105
▁Win	-5106
▁rap	-5107
known	-5108
▁View	-5109
▁boot	-5110
▁brief	-5111
iability	-5112
inations	-5113
▁actions	-5114
▁advance	-5115
▁remains	-5116
▁sources	-5117
▁distance	-5118
▁slightly	-5119
ht	-5120
▁Jour	-5121
▁Cross	-5122
▁Peter	-5123
oration	-5124
▁Virgin	-5125
▁direction	-5126
▁practices	-5127
▁competitive	-5128
VE	-5129
ifts	-5130
▁Mid	-5131
▁eth	-5132
▁flu	-5133
▁hyd	-5134
▁tea	-5135
istan	-5136
▁ride	-5137
▁seat	-5138
▁leads	-5139
▁Family	-5140
▁Israel	-5141
▁shares	-5142
▁upload	-5143
▁practical	-5144
▁supported	-5145
▁components	-5146
▁confidence	-5147
-20	-5148
▁ban	-5149
osoph	-5150
▁markets	-5151
▁records	-5152
▁industrial	-5153
▁processing	-5154
▁registered	-5155
▁automatically	-5156
een	-5157
pan	-5158
▁Di	-5159
ario	-5160
ores	-5161
vere	-5162
▁Wel	-5163
▁rat	-5164
▁scale	-5165
▁Global	-5166
▁silver	-5167
▁battery	-5168
▁federal	-5169
▁candidate	-5170
▁operation	-5171
VD	-5172
!!!!	-5173
body	-5174
iner	-5175
▁Hen	-5176
▁anc	-5177
▁ang	-5178
▁Bill	-5179
▁switch	-5180
▁Angeles	-5181
▁library	-5182
▁reality	-5183
▁recorded	-5184
▁guarantee	-5185
BS	-5186
equ	-5187
ras	-5188
ups	-5189
inct	-5190
▁Lat	-5191
▁Real	-5192
▁mist	-5193
▁mort	-5194
▁phil	-5195
▁meant	-5196
▁showed	-5197
▁climate	-5198
▁selling	-5199
▁announce	-5200
▁surrounding	-5201
azz	-5202
pass	-5203
▁Aud	-5204
▁Hope	-5205
▁2017.	-5206
ocolate	-5207
▁Thomas	-5208
▁cheese	-5209
▁mostly	-5210
▁starts	-5211
▁winner	-5212
▁princip	-5213
▁trading	-5214
▁typically	-5215
▁association	-5216
▁contemporary	-5217
anda	-5218
▁Bud	-5219
▁cloud	-5220
▁mouth	-5221
▁truth	-5222
▁butter	-5223
▁toward	-5224
▁trained	-5225
▁feedback	-5226
▁settings	-5227
▁continues	-5228
oop	-5229
iled	-5230
▁Dev	-5231
▁Dou	-5232
▁thr	-5233
ockey	-5234
▁auto	-5235
▁edge	-5236
▁initi	-5237
▁upgra	-5238
vention	-5239
▁covers	-5240
▁researc	-5241
▁smaller	-5242
▁academic	-5243
▁neighborhood	-5244
su	-5245
▁=	-5246
mosp	-5247
▁Def	-5248
▁heav	-5249
▁lose	-5250
▁accur	-5251
▁engineering	-5252
2)	-5253
36	-5254
”,	-5255
lets	-5256
rics	-5257
▁Food	-5258
▁psych	-5259
▁houses	-5260
▁elected	-5261
▁greatest	-5262
IA	-5263
OD	-5264
ias	-5265
▁scr	-5266
▁crow	-5267
▁surg	-5268
▁Watch	-5269
▁trees	-5270
unction	-5271
▁disapp	-5272
▁forest	-5273
▁housing	-5274
▁Southern	-5275
▁watching	-5276
▁agreement	-5277
obe	-5278
▁MS	-5279
elly	-5280
▁Ver	-5281
arian	-5282
▁Arab	-5283
▁Hand	-5284
▁Prote	-5285
▁freed	-5286
▁Invest	-5287
▁volume	-5288
▁choices	-5289
▁reached	-5290
▁thoughts	-5291
▁champions	-5292
▁basketball	-5293
RA	-5294
▁…	-5295
amin	-5296
▁Bal	-5297
▁Key	-5298
▁Saf	-5299
antic	-5300
cohol	-5301
isher	-5302
▁root	-5303
▁tail	-5304
▁valid	-5305
▁seasons	-5306
▁birthday	-5307
▁assistance	-5308
▁strategies	-5309
▁ID	-5310
odel	-5311
vious	-5312
water	-5313
▁Live	-5314
▁Swed	-5315
▁fruit	-5316
ificate	-5317
▁female	-5318
▁writer	-5319
▁economy	-5320
▁minimum	-5321
▁attended	-5322
▁spending	-5323
▁ourselves	-5324
OP	-5325
▁Ltd	-5326
never	-5327
▁Asia	-5328
▁Conne	-5329
▁Italy	-5330
▁Using	-5331
▁joint	-5332
▁Little	-5333
▁Middle	-5334
▁filled	-5335
▁scored	-5336
▁sounds	-5337
▁promote	-5338
▁category	-5339
▁residential	-5340
ait	-5341
mpt	-5342
ersey	-5343
othes	-5344
riage	-5345
▁Film	-5346
▁Lord	-5347
▁Wild	-5348
pected	-5349
▁compl	-5350
▁dance	-5351
▁brands	-5352
▁consid	-5353
▁anywhere	-5354
▁internal	-5355
▁scheduled	-5356
▁ju	-5357
asts	-5358
writ	-5359
▁busy	-5360
▁guess	-5361
ternoon	-5362
▁earned	-5363
▁enjoyed	-5364
▁Students	-5365
yan	-5366
eria	-5367
irus	-5368
▁Pub	-5369
▁unc	-5370
achel	-5371
▁boat	-5372
▁pump	-5373
▁seek	-5374
▁vote	-5375
▁knows	-5376
▁lights	-5377
▁panels	-5378
▁univers	-5379
abilities	-5380
▁policies	-5381
▁properly	-5382
▁websites	-5383
ifications	-5384
▁absolutely	-5385
▁specifically	-5386
▁RE	-5387
▁vs	-5388
This	-5389
▁Boy	-5390
▁LED	-5391
▁Low	-5392
▁gun	-5393
▁nav	-5394
▁Jose	-5395
▁Long	-5396
▁beat	-5397
▁depos	-5398
▁route	-5399
▁Project	-5400
▁putting	-5401
▁accounts	-5402
▁resource	-5403
▁template	-5404
-9	-5405
BA	-5406
ca	-5407
hent	-5408
▁boo	-5409
▁core	-5410
▁occup	-5411
▁Histor	-5412
▁calling	-5413
▁perhaps	-5414
▁appeared	-5415
▁regularly	-5416
▁introduced	-5417
▁inspiration	-5418
apos	-5419
ilst	-5420
▁amb	-5421
urban	-5422
ifying	-5423
weight	-5424
▁grade	-5425
▁holds	-5426
orgeous	-5427
▁broken	-5428
▁column	-5429
▁fourth	-5430
▁luxury	-5431
▁seconds	-5432
8)	-5433
▁Du	-5434
▁AND	-5435
▁mur	-5436
▁Rest	-5437
▁Room	-5438
▁eleg	-5439
▁guys	-5440
▁rental	-5441
▁focused	-5442
▁recovery	-5443
▁administr	-5444
▁depending	-5445
rastructure	-5446
▁supporting	-5447
roy	-5448
▁Ol	-5449
onus	-5450
▁Mic	-5451
▁surf	-5452
▁Media	-5453
▁Spain	-5454
▁mental	-5455
▁importance	-5456
▁footballers	-5457
▁photography	-5458
▁represented	-5459
SA	-5460
fol	-5461
mal	-5462
rier	-5463
▁emp	-5464
▁kid	-5465
▁san	-5466
eless	-5467
▁Qual	-5468
▁mode	-5469
▁nine	-5470
▁Enjoy	-5471
▁chief	-5472
▁error	-5473
▁topic	-5474
▁Select	-5475
▁gather	-5476
▁cooking	-5477
▁Addition	-5478
33	-5479
iat	-5480
▁pm	-5481
ione	-5482
lete	-5483
▁Jud	-5484
▁fle	-5485
▁ris	-5486
▁tur	-5487
▁wet	-5488
▁apps	-5489
▁kick	-5490
▁lock	-5491
▁coast	-5492
▁enable	-5493
▁honest	-5494
▁Charles	-5495
▁premium	-5496
▁profile	-5497
▁otherwise	-5498
▁worldwide	-5499
▁appearance	-5500
▁restaurants	-5501
▁architecture	-5502
▁responsibility	-5503
rupt	-5504
stra	-5505
▁poly	-5506
▁Career	-5507
▁adults	-5508
▁chosen	-5509
▁perman	-5510
▁Michigan	-5511
▁chemical	-5512
▁favourite	-5513
▁providers	-5514
▁convenient	-5515
▁entertainment	-5516
zen	-5517
ella	-5518
▁Squ	-5519
▁die	-5520
eline	-5521
hetic	-5522
merce	-5523
▁salt	-5524
▁Video	-5525
▁owned	-5526
▁walls	-5527
▁fellow	-5528
▁injuries	-5529
▁teachers	-5530
44	-5531
gl	-5532
va	-5533
▁ON	-5534
osis	-5535
▁Way	-5536
▁jew	-5537
ordin	-5538
▁ring	-5539
people	-5540
alendar	-5541
▁Victor	-5542
esterday	-5543
▁conduct	-5544
▁designer	-5545
▁occasion	-5546
▁breakfast	-5547
▁eventually	-5548
tr	-5549
▁?	-5550
ora	-5551
▁Cook	-5552
▁Fair	-5553
▁neck	-5554
▁rise	-5555
ishing	-5556
▁Early	-5557
▁Learn	-5558
▁advis	-5559
▁brown	-5560
▁Secret	-5561
▁arrest	-5562
▁Congress	-5563
fortunately	-5564
5%	-5565
ef	-5566
▁Nov	-5567
▁Tri	-5568
eries	-5569
▁Mach	-5570
▁repe	-5571
▁shut	-5572
▁soul	-5573
rition	-5574
▁throw	-5575
▁museum	-5576
▁native	-5577
▁wouldn	-5578
▁supplies	-5579
▁featuring	-5580
▁alternative	-5581
▁Lu	-5582
▁Pac	-5583
▁Str	-5584
▁pod	-5585
inois	-5586
estyle	-5587
hentic	-5588
▁Access	-5589
▁coupon	-5590
▁animals	-5591
▁concent	-5592
▁dollars	-5593
▁seeking	-5594
▁articles	-5595
▁creation	-5596
▁familiar	-5597
▁afternoon	-5598
▁consumers	-5599
32	-5600
NA	-5601
▁10.	-5602
icial	-5603
ixture	-5604
▁ended	-5605
▁monit	-5606
▁faster	-5607
▁remote	-5608
▁stated	-5609
▁command	-5610
▁musical	-5611
▁Children	-5612
-10	-5613
▁ec	-5614
abet	-5615
appy	-5616
flow	-5617
▁wid	-5618
▁Cost	-5619
▁crew	-5620
▁thus	-5621
ealand	-5622
▁depart	-5623
▁legisl	-5624
▁manner	-5625
▁script	-5626
▁sister	-5627
▁warrant	-5628
▁expensive	-5629
▁purchased	-5630
▁qualified	-5631
▁Parliament	-5632
▁generation	-5633
▁Cy	-5634
elry	-5635
▁sizes	-5636
▁drivers	-5637
▁informed	-5638
▁majority	-5639
▁provider	-5640
▁Microsoft	-5641
▁emergency	-5642
▁photograp	-5643
▁presentation	-5644
▁IP	-5645
▁MA	-5646
aped	-5647
kins	-5648
outs	-5649
▁Beaut	-5650
▁Coast	-5651
poration	-5652
▁Control	-5653
▁Network	-5654
▁accompl	-5655
▁presence	-5656
▁functions	-5657
▁perfectly	-5658
OC	-5659
▁Ul	-5660
▁Gen	-5661
▁Main	-5662
▁Test	-5663
▁citiz	-5664
▁sheet	-5665
▁eating	-5666
▁iPhone	-5667
▁survey	-5668
▁readers	-5669
▁removed	-5670
▁Division	-5671
▁Illinois	-5672
▁Security	-5673
▁negative	-5674
▁commission	-5675
▁commitment	-5676
EP	-5677
▁AS	-5678
▁Mo	-5679
mbol	-5680
ownt	-5681
▁Sum	-5682
▁YOU	-5683
▁Land	-5684
▁Soft	-5685
▁ends	-5686
▁meal	-5687
▁recru	-5688
actions	-5689
▁appeal	-5690
▁stands	-5691
▁leather	-5692
▁300	-5693
▁syn	-5694
▁Code	-5695
▁Scot	-5696
▁west	-5697
▁sides	-5698
▁sympt	-5699
▁awards	-5700
▁taught	-5701
▁Zealand	-5702
▁willing	-5703
▁Catholic	-5704
▁cultural	-5705
▁construct	-5706
▁receiving	-5707
ili	-5708
▁3,	-5709
▁8.	-5710
▁AL	-5711
yers	-5712
▁800	-5713
▁Cas	-5714
▁Cro	-5715
▁lit	-5716
▁Does	-5717
▁dura	-5718
▁fulf	-5719
▁grew	-5720
oosing	-5721
▁Irish	-5722
▁labor	-5723
▁lunch	-5724
▁teach	-5725
▁trend	-5726
▁Series	-5727
▁fields	-5728
▁Manager	-5729
▁confirm	-5730
GB	-5731
kin	-5732
arks	-5733
abled	-5734
opped	-5735
verse	-5736
▁Bath	-5737
▁milk	-5738
▁whom	-5739
▁Charl	-5740
▁Roman	-5741
▁plate	-5742
▁atmosp	-5743
▁submit	-5744
▁listing	-5745
▁Furniture	-5746
▁highlight	-5747
▁officials	-5748
▁foundation	-5749
▁advertising	-5750
▁outstanding	-5751
▁participate	-5752
can	-5753
▁Ep	-5754
aked	-5755
pons	-5756
race	-5757
umes	-5758
▁Bow	-5759
▁vit	-5760
▁wal	-5761
while	-5762
▁bike	-5763
▁tast	-5764
inding	-5765
intage	-5766
▁Earth	-5767
▁Islam	-5768
▁Niger	-5769
▁quiet	-5770
▁asking	-5771
▁invent	-5772
▁ticket	-5773
▁yellow	-5774
▁measures	-5775
▁valuable	-5776
6)	-5777
VER	-5778
hew	-5779
hus	-5780
rad	-5781
▁UN	-5782
arsh	-5783
otic	-5784
▁NOT	-5785
▁dim	-5786
▁row	-5787
lying	-5788
▁Guys	-5789
▁Help	-5790
▁entr	-5791
ampion	-5792
▁kinds	-5793
▁Silver	-5794
▁orders	-5795
▁prompt	-5796
▁decades	-5797
ibilities	-5798
▁investors	-5799
▁recording	-5800
add	-5801
uzz	-5802
▁Er	-5803
▁Ro	-5804
text	-5805
▁ped	-5806
▁seg	-5807
▁uns	-5808
itage	-5809
▁2008	-5810
▁Ball	-5811
▁Fund	-5812
▁Priv	-5813
itable	-5814
▁Chief	-5815
▁Steel	-5816
▁integ	-5817
▁motiv	-5818
▁renew	-5819
▁charges	-5820
▁festival	-5821
▁sessions	-5822
UR	-5823
bal	-5824
ban	-5825
ico	-5826
▁Pot	-5827
anged	-5828
enced	-5829
▁Mult	-5830
▁Ohio	-5831
▁Prem	-5832
▁minor	-5833
▁Should	-5834
▁claims	-5835
▁editor	-5836
▁Records	-5837
▁charged	-5838
▁officer	-5839
▁competed	-5840
▁effectively	-5841
▁registration	-5842
bur	-5843
▁AC	-5844
▁Cre	-5845
▁joy	-5846
idden	-5847
▁Pack	-5848
▁pink	-5849
▁terr	-5850
▁bound	-5851
▁civil	-5852
▁rapid	-5853
eration	-5854
▁nearby	-5855
▁cutting	-5856
▁freedom	-5857
▁passeng	-5858
▁publish	-5859
▁improved	-5860
dd	-5861
▁Bob	-5862
▁Bul	-5863
▁mal	-5864
cious	-5865
point	-5866
▁Iran	-5867
▁diam	-5868
▁hire	-5869
▁2016.	-5870
▁Sport	-5871
▁dates	-5872
▁tight	-5873
aration	-5874
▁killed	-5875
▁Members	-5876
▁chicken	-5877
▁creates	-5878
▁monthly	-5879
▁Virginia	-5880
▁machines	-5881
▁accessories	-5882
▁AT	-5883
▁Ken	-5884
▁aid	-5885
▁mini	-5886
▁quot	-5887
unicip	-5888
▁cells	-5889
▁label	-5890
▁medal	-5891
▁notes	-5892
▁upper	-5893
▁Police	-5894
▁agency	-5895
▁issued	-5896
▁trends	-5897
▁Looking	-5898
▁organic	-5899
▁privacy	-5900
▁therapy	-5901
▁Columbia	-5902
ba	-5903
▁Sn	-5904
ache	-5905
▁Hon	-5906
▁Lab	-5907
▁ign	-5908
▁obl	-5909
▁pin	-5910
etime	-5911
heast	-5912
icket	-5913
▁Penn	-5914
▁Shop	-5915
▁tele	-5916
▁Creat	-5917
▁Frank	-5918
▁raise	-5919
▁Garden	-5920
▁compar	-5921
▁answers	-5922
▁objects	-5923
▁procedure	-5924
▁electronic	-5925
▁incredible	-5926
▁collaboration	-5927
Cl	-5928
▁Wi	-5929
bert	-5930
iors	-5931
▁Imp	-5932
▁cop	-5933
▁mig	-5934
▁Vill	-5935
▁dogs	-5936
▁rule	-5937
▁Ideas	-5938
▁essay	-5939
▁renov	-5940
▁confir	-5941
▁episode	-5942
▁attorney	-5943
▁regional	-5944
▁efficiency	-5945
5)	-5946
asks	-5947
bury	-5948
iano	-5949
▁Lee	-5950
▁Mur	-5951
▁rot	-5952
▁bowl	-5953
▁icon	-5954
isters	-5955
unting	-5956
▁Chair	-5957
▁drama	-5958
▁lived	-5959
▁quant	-5960
▁Assist	-5961
▁Execut	-5962
▁studied	-5963
▁chocolate	-5964
▁landscape	-5965
▁institutions	-5966
▁successfully	-5967
CH	-5968
ila	-5969
▁$2	-5970
▁Ly	-5971
date	-5972
inyl	-5973
othe	-5974
▁Pin	-5975
▁Van	-5976
reens	-5977
ulous	-5978
▁elig	-5979
▁ment	-5980
▁vary	-5981
▁athlet	-5982
▁dating	-5983
▁arrived	-5984
▁carried	-5985
▁Hospital	-5986
▁patterns	-5987
▁stunning	-5988
▁instructions	-5989
ML	-5990
afe	-5991
arp	-5992
una	-5993
▁SP	-5994
cers	-5995
▁Cra	-5996
▁tut	-5997
▁golf	-5998
▁iron	-5999
▁rack	-6000
▁2017,	-6001
▁attra	-6002
▁fixed	-6003
▁simpl	-6004
▁trial	-6005
▁Author	-6006
▁Safety	-6007
▁output	-6008
▁thread	-6009
▁unless	-6010
▁Georgia	-6011
▁Journal	-6012
▁alcohol	-6013
▁everyday	-6014
▁examples	-6015
▁supports	-6016
▁influence	-6017
▁integrated	-6018
▁conversation	-6019
xy	-6020
ENT	-6021
oir	-6022
▁Ent	-6023
▁fif	-6024
usion	-6025
▁bags	-6026
▁foods	-6027
▁resol	-6028
▁river	-6029
▁Martin	-6030
▁serves	-6031
▁appreciate	-6032
▁Championship	-6033
▁administration	-6034
▁|-	-6035
▁pil	-6036
▁rid	-6037
▁tub	-6038
unior	-6039
worth	-6040
▁2009	-6041
▁debt	-6042
▁glad	-6043
▁tough	-6044
▁conver	-6045
▁filter	-6046
▁paying	-6047
▁spaces	-6048
▁topics	-6049
▁Android	-6050
▁element	-6051
▁faculty	-6052
▁wearing	-6053
▁originally	-6054
MP	-6055
▁45	-6056
▁Kn	-6057
iana	-6058
with	-6059
▁pun	-6060
▁yes	-6061
orter	-6062
ushed	-6063
▁cake	-6064
▁rail	-6065
▁Maybe	-6066
ainless	-6067
▁Systems	-6068
▁clearly	-6069
▁council	-6070
▁intellig	-6071
▁alongside	-6072
▁infrastructure	-6073
II	-6074
how	-6075
–20	-6076
hand	-6077
iece	-6078
▁Ash	-6079
▁DVD	-6080
▁Sar	-6081
ensed	-6082
tered	-6083
▁1960	-6084
▁Girl	-6085
clusion	-6086
ensions	-6087
rations	-6088
reprene	-6089
▁Welcome	-6090
▁delight	-6091
▁accepted	-6092
▁consumer	-6093
▁scholars	-6094
▁considering	-6095
▁Uk	-6096
ilit	-6097
▁Ext	-6098
▁Ros	-6099
duate	-6100
▁Sche	-6101
▁burn	-6102
▁fort	-6103
ackson	-6104
reland	-6105
remony	-6106
▁About	-6107
▁Works	-6108
▁input	-6109
▁keeps	-6110
▁styles	-6111
▁contest	-6112
▁offices	-6113
▁concrete	-6114
▁apartment	-6115
▁accessible	-6116
▁discovered	-6117
="	-6118
00.	-6119
▁HT	-6120
cont	-6121
irth	-6122
lock	-6123
▁Pop	-6124
▁Sup	-6125
▁agg	-6126
▁Made	-6127
▁Week	-6128
▁Polit	-6129
▁Table	-6130
▁begins	-6131
▁carpet	-6132
▁interp	-6133
▁matches	-6134
▁totally	-6135
▁organized	-6136
▁historical	-6137
▁distribution	-6138
▁32	-6139
ikes	-6140
▁189	-6141
▁Did	-6142
▁Inf	-6143
▁Ter	-6144
▁pra	-6145
▁rear	-6146
▁battle	-6147
▁desire	-6148
▁historic	-6149
▁hundreds	-6150
▁possibly	-6151
▁identified	-6152
Wh	-6153
ev	-6154
oga	-6155
rim	-6156
made	-6157
▁fro	-6158
cling	-6159
▁Corn	-6160
▁meat	-6161
▁Chris	-6162
▁grass	-6163
▁campus	-6164
▁domain	-6165
▁Further	-6166
▁Jackson	-6167
▁Personal	-6168
▁flexible	-6169
▁electrical	-6170
▁Tit	-6171
oured	-6172
▁Song	-6173
▁shoes	-6174
▁Disney	-6175
▁Russia	-6176
▁mainly	-6177
▁Digital	-6178
▁accurate	-6179
▁magazine	-6180
▁symptoms	-6181
▁household	-6182
77	-6183
CO	-6184
da	-6185
▁Hi	-6186
bles	-6187
ello	-6188
ulpt	-6189
▁Hor	-6190
▁Try	-6191
ansas	-6192
▁Area	-6193
▁bear	-6194
▁Dutch	-6195
▁Those	-6196
▁agent	-6197
▁honor	-6198
▁Having	-6199
▁entered	-6200
▁equipped	-6201
▁graduate	-6202
▁Sometimes	-6203
▁conducted	-6204
▁positions	-6205
DF	-6206
ato	-6207
spe	-6208
gend	-6209
▁Put	-6210
inder	-6211
odies	-6212
otten	-6213
which	-6214
▁Baby	-6215
▁Bost	-6216
▁arts	-6217
▁dang	-6218
▁gear	-6219
▁kill	-6220
ansion	-6221
▁Force	-6222
▁twice	-6223
▁league	-6224
▁picked	-6225
▁Results	-6226
▁knowing	-6227
▁surgery	-6228
▁external	-6229
▁atmosphere	-6230
MA	-6231
aya	-6232
vis	-6233
▁(18	-6234
▁Opt	-6235
▁guy	-6236
▁mel	-6237
dered	-6238
▁Point	-6239
▁Trust	-6240
▁boost	-6241
▁tests	-6242
cluding	-6243
▁Econom	-6244
▁facing	-6245
▁sample	-6246
▁degrees	-6247
▁fitness	-6248
▁Administ	-6249
▁gorgeous	-6250
▁purposes	-6251
▁adventure	-6252
▁certified	-6253
▁destination	-6254
no	-6255
▁SS	-6256
eper	-6257
irts	-6258
▁Dar	-6259
▁sequ	-6260
asters	-6261
elines	-6262
▁showc	-6263
▁Studio	-6264
▁despite	-6265
▁hearing	-6266
▁Williams	-6267
▁Insurance	-6268
▁extension	-6269
▁satisfaction	-6270
TA	-6271
onto	-6272
▁Ell	-6273
▁Sky	-6274
ospit	-6275
▁Belg	-6276
▁Join	-6277
▁bond	-6278
▁coat	-6279
▁logo	-6280
ighter	-6281
▁layer	-6282
illiant	-6283
▁causes	-6284
▁pocket	-6285
▁tables	-6286
▁Support	-6287
▁matters	-6288
▁ongoing	-6289
▁flooring	-6290
▁procedures	-6291
66	-6292
dem	-6293
▁31	-6294
▁FC	-6295
▁PA	-6296
gers	-6297
rich	-6298
▁mir	-6299
▁reb	-6300
otton	-6301
▁king	-6302
lights	-6303
▁Santa	-6304
▁cable	-6305
▁chain	-6306
▁codes	-6307
▁draft	-6308
▁feels	-6309
viously	-6310
▁Jersey	-6311
▁flavor	-6312
▁height	-6313
▁Airport	-6314
▁thorough	-6315
▁elections	-6316
▁statistics	-6317
▁structures	-6318
▁improvement	-6319
UN	-6320
ati	-6321
auc	-6322
hem	-6323
▁ur	-6324
real	-6325
rove	-6326
▁CEO	-6327
▁Jul	-6328
liers	-6329
▁purs	-6330
arters	-6331
osophy	-6332
▁Three	-6333
▁moist	-6334
▁pregn	-6335
▁bigger	-6336
▁enthus	-6337
▁talent	-6338
▁hosting	-6339
▁license	-6340
▁printed	-6341
▁behavior	-6342
▁payments	-6343
▁Executive	-6344
▁executive	-6345
▁religious	-6346
RI	-6347
ns	-6348
asp	-6349
pes	-6350
rid	-6351
▁Ha	-6352
ilet	-6353
mary	-6354
ogue	-6355
uits	-6356
▁sew	-6357
agues	-6358
▁Game	-6359
▁elev	-6360
▁soph	-6361
▁tech	-6362
▁Being	-6363
▁depth	-6364
▁goods	-6365
▁noted	-6366
▁lawyer	-6367
▁movies	-6368
▁Perform	-6369
▁clothes	-6370
▁default	-6371
▁defense	-6372
▁organis	-6373
▁planned	-6374
▁witness	-6375
▁calendar	-6376
▁standing	-6377
▁yesterday	-6378
▁Democratic	-6379
▁membership	-6380
DA	-6381
ingu	-6382
road	-6383
▁Mah	-6384
▁esc	-6385
eller	-6386
lines	-6387
secut	-6388
▁mile	-6389
▁mine	-6390
▁Medal	-6391
▁Order	-6392
▁stret	-6393
▁revenue	-6394
▁carefully	-6395
▁confirmed	-6396
▁discussion	-6397
53	-6398
gas	-6399
itz	-6400
orry	-6401
tain	-6402
▁Log	-6403
▁tom	-6404
erves	-6405
utter	-6406
▁Space	-6407
▁mixed	-6408
▁roles	-6409
▁solar	-6410
▁Boston	-6411
▁complic	-6412
▁invited	-6413
▁hardware	-6414
▁workshop	-6415
▁graduated	-6416
▁sustainable	-6417
ss	-6418
REE	-6419
onym	-6420
▁Hou	-6421
▁Oil	-6422
▁ben	-6423
▁bug	-6424
inson	-6425
shire	-6426
▁Meet	-6427
▁pure	-6428
▁Would	-6429
▁adult	-6430
▁sauce	-6431
▁truck	-6432
▁Applic	-6433
▁belong	-6434
ployment	-6435
▁Instead	-6436
▁travell	-6437
▁division	-6438
▁employee	-6439
▁meetings	-6440
▁interests	-6441
▁programme	-6442
▁Republican	-6443
▁constantly	-6444
▁Ut	-6445
rome	-6446
▁188	-6447
▁hur	-6448
comes	-6449
▁1980	-6450
▁bass	-6451
▁liqu	-6452
▁unex	-6453
▁bonus	-6454
▁shops	-6455
▁circum	-6456
▁flower	-6457
▁obtain	-6458
▁dynamic	-6459
▁operate	-6460
▁proposed	-6461
▁stations	-6462
▁vacation	-6463
▁lifestyle	-6464
▁exhibition	-6465
▁frequently	-6466
▁specialist	-6467
’.	-6468
▁Po	-6469
edia	-6470
hire	-6471
pond	-6472
▁Cub	-6473
▁Jac	-6474
▁Joe	-6475
▁Kat	-6476
▁Pak	-6477
▁Sus	-6478
▁arm	-6479
▁poet	-6480
acious	-6481
▁2015.	-6482
▁Heart	-6483
▁Philipp	-6484
▁diverse	-6485
▁Northern	-6486
▁ceremony	-6487
▁clothing	-6488
▁instance	-6489
▁protected	-6490
▁monitoring	-6491
48	-6492
ali	-6493
phy	-6494
–19	-6495
▁Mu	-6496
omin	-6497
▁Tam	-6498
▁sam	-6499
osite	-6500
reets	-6501
▁2007	-6502
▁Cult	-6503
▁Line	-6504
▁Pass	-6505
▁argu	-6506
▁hall	-6507
▁sail	-6508
▁Local	-6509
▁Queen	-6510
▁capture	-6511
▁counsel	-6512
▁crusher	-6513
▁joining	-6514
▁printing	-6515
▁scientific	-6516
▁researchers	-6517
42	-6518
BI	-6519
df	-6520
neys	-6521
▁Jim	-6522
▁kit	-6523
aired	-6524
▁Very	-6525
▁Price	-6526
▁Round	-6527
▁bless	-6528
▁cycle	-6529
▁negot	-6530
▁albums	-6531
▁formed	-6532
▁singer	-6533
▁symbol	-6534
▁Ireland	-6535
▁Pacific	-6536
▁capable	-6537
▁conflic	-6538
▁defined	-6539
▁opinion	-6540
▁treated	-6541
▁Building	-6542
▁consists	-6543
▁speaking	-6544
▁Instagram	-6545
▁authentic	-6546
▁awareness	-6547
55	-6548
Ex	-6549
itu	-6550
lyn	-6551
▁OR	-6552
▁da	-6553
ctic	-6554
oval	-6555
▁vend	-6556
▁Paint	-6557
▁Which	-6558
▁advoc	-6559
▁doubt	-6560
▁vital	-6561
▁Modern	-6562
▁breast	-6563
▁defend	-6564
▁hosted	-6565
fficient	-6566
▁Country	-6567
▁Finally	-6568
▁consequ	-6569
▁realize	-6570
▁sitting	-6571
▁visited	-6572
▁technique	-6573
▁recognized	-6574
▁situations	-6575
aka	-6576
ava	-6577
kes	-6578
▁Lo	-6579
illy	-6580
okes	-6581
▁Gar	-6582
▁Tax	-6583
rency	-6584
▁scan	-6585
▁teen	-6586
esides	-6587
▁banks	-6588
▁rough	-6589
▁Resume	-6590
▁forced	-6591
▁propos	-6592
▁Current	-6593
▁Wedding	-6594
▁elegant	-6595
▁massive	-6596
▁reduced	-6597
▁choosing	-6598
▁ensuring	-6599
▁Francisco	-6600
▁impressive	-6601
▁investigation	-6602
FL	-6603
TH	-6604
You	-6605
osc	-6606
▁4,	-6607
▁BE	-6608
▁Job	-6609
alled	-6610
▁weak	-6611
lywood	-6612
▁2016,	-6613
▁Happy	-6614
▁Human	-6615
▁param	-6616
▁Travel	-6617
▁unable	-6618
▁browser	-6619
▁letters	-6620
▁celebrate	-6621
▁remaining	-6622
▁contribute	-6623
▁functional	-6624
▁innovation	-6625
▁Engineering	-6626
▁regulations	-6627
49	-6628
wa	-6629
but	-6630
ador	-6631
lers	-6632
▁Far	-6633
▁spr	-6634
ework	-6635
stone	-6636
▁Wars	-6637
pection	-6638
▁Comple	-6639
▁desired	-6640
▁domestic	-6641
▁forecast	-6642
▁intended	-6643
▁marriage	-6644
▁replaced	-6645
▁nutrition	-6646
▁Professional	-6647
▁availability	-6648
SC	-6649
Com	-6650
tle	-6651
▁CH	-6652
iser	-6653
▁Non	-6654
▁rom	-6655
▁Conf	-6656
ensity	-6657
▁gaming	-6658
▁papers	-6659
▁whilst	-6660
▁Library	-6661
▁airport	-6662
▁monitor	-6663
▁Mountain	-6664
▁superior	-6665
▁versions	-6666
▁classroom	-6667
▁searching	-6668
▁challenging	-6669
He	-6670
PC	-6671
▁<	-6672
phas	-6673
▁Box	-6674
▁cos	-6675
▁Fred	-6676
▁Jeff	-6677
▁Rose	-6678
▁Turn	-6679
▁chat	-6680
▁ease	-6681
orable	-6682
▁Diego	-6683
▁Times	-6684
▁climb	-6685
▁crime	-6686
▁risks	-6687
▁seats	-6688
▁veter	-6689
▁behalf	-6690
▁failed	-6691
▁Federal	-6692
▁Richard	-6693
▁consistent	-6694
▁performing	-6695
▁manufacturers	-6696
38	-6697
Le	-6698
rig	-6699
▁Id	-6700
alle	-6701
ears	-6702
▁Fac	-6703
▁Ref	-6704
▁ast	-6705
▁gro	-6706
folio	-6707
oster	-6708
ulner	-6709
▁Coll	-6710
▁Come	-6711
▁Farm	-6712
▁Mike	-6713
▁tack	-6714
orders	-6715
ulator	-6716
▁quote	-6717
related	-6718
▁losing	-6719
▁tracks	-6720
iversary	-6721
▁closely	-6722
▁finance	-6723
▁pleased	-6724
▁predict	-6725
▁typical	-6726
▁Register	-6727
▁attached	-6728
▁reputation	-6729
CE	-6730
vy	-6731
bra	-6732
rat	-6733
▁Bh	-6734
▁DI	-6735
▁ok	-6736
mith	-6737
▁End	-6738
▁Fun	-6739
▁nor	-6740
▁ord	-6741
▁twe	-6742
arrow	-6743
inity	-6744
▁Blog	-6745
▁Hong	-6746
▁Sher	-6747
▁ages	-6748
▁fell	-6749
▁jack	-6750
▁nurs	-6751
▁Notes	-6752
▁pharm	-6753
▁Senior	-6754
▁relief	-6755
▁Kingdom	-6756
▁baseball	-6757
▁employment	-6758
▁instrument	-6759
▁Description	-6760
▁Pu	-6761
▁km	-6762
wall	-6763
▁888	-6764
▁Dog	-6765
▁Raj	-6766
▁Ray	-6767
▁mic	-6768
ament	-6769
▁Cred	-6770
▁Holy	-6771
▁Shel	-6772
▁arms	-6773
▁east	-6774
▁Never	-6775
▁skill	-6776
owntown	-6777
▁Report	-6778
▁tested	-6779
ondition	-6780
▁Johnson	-6781
▁savings	-6782
▁victory	-6783
▁coloring	-6784
▁networks	-6785
▁Americans	-6786
▁interface	-6787
▁enterprise	-6788
▁perspective	-6789
nce	-6790
Tube	-6791
▁Sem	-6792
▁Ven	-6793
▁rug	-6794
▁suc	-6795
adium	-6796
▁soil	-6797
▁trig	-6798
ership	-6799
profit	-6800
▁Radio	-6801
▁meals	-6802
▁factor	-6803
▁floors	-6804
▁Gallery	-6805
▁context	-6806
▁holding	-6807
▁cabinets	-6808
▁graphics	-6809
▁mortgage	-6810
▁shooting	-6811
▁healthcare	-6812
▁transition	-6813
▁significantly	-6814
39	-6815
TV	-6816
agon	-6817
etch	-6818
uine	-6819
▁Oak	-6820
▁Pra	-6821
▁ran	-6822
▁sky	-6823
anges	-6824
▁Band	-6825
▁acid	-6826
▁Jones	-6827
▁boxes	-6828
▁loans	-6829
▁turns	-6830
▁Joseph	-6831
▁agents	-6832
▁cabinet	-6833
▁factory	-6834
▁permanent	-6835
▁wallpaper	-6836
▁assessment	-6837
28	-6838
29	-6839
▁Ah	-6840
▁Gh	-6841
▁TO	-6842
away	-6843
onom	-6844
oven	-6845
▁Pen	-6846
▁Run	-6847
▁Wal	-6848
aping	-6849
rence	-6850
using	-6851
▁Four	-6852
▁Kong	-6853
▁Mean	-6854
▁Page	-6855
▁bars	-6856
▁inch	-6857
bourne	-6858
ushing	-6859
▁Saint	-6860
▁decre	-6861
▁guard	-6862
▁tasks	-6863
chester	-6864
▁assign	-6865
▁caught	-6866
▁cooper	-6867
▁powder	-6868
▁actress	-6869
▁virtual	-6870
▁apparent	-6871
▁bedrooms	-6872
▁covering	-6873
▁obtained	-6874
▁Financial	-6875
▁Professor	-6876
▁determined	-6877
▁treatments	-6878
▁3-	-6879
▁48	-6880
▁McC	-6881
▁tab	-6882
▁wra	-6883
front	-6884
▁Flow	-6885
▁Hard	-6886
▁Walk	-6887
▁lake	-6888
ardens	-6889
iminal	-6890
▁phase	-6891
▁tells	-6892
▁venue	-6893
fection	-6894
iveness	-6895
▁Though	-6896
▁hotels	-6897
▁severe	-6898
▁figures	-6899
▁follows	-6900
▁lessons	-6901
▁guidance	-6902
▁listening	-6903
▁politicians	-6904
GE	-6905
Re	-6906
Sh	-6907
ko	-6908
anna	-6909
▁Fre	-6910
▁Ice	-6911
▁cro	-6912
▁Know	-6913
▁Need	-6914
▁Pict	-6915
▁hang	-6916
▁charm	-6917
▁inner	-6918
▁urban	-6919
▁Energy	-6920
▁arrive	-6921
▁branch	-6922
▁forces	-6923
▁rating	-6924
▁toilet	-6925
friendly	-6926
▁Account	-6927
▁Classic	-6928
▁desktop	-6929
▁illness	-6930
▁circumst	-6931
▁extended	-6932
▁managers	-6933
▁packages	-6934
▁committee	-6935
▁platforms	-6936
41	-6937
rum	-6938
hops	-6939
ndom	-6940
▁Sav	-6941
▁por	-6942
▁FREE	-6943
▁Stat	-6944
▁cute	-6945
▁maps	-6946
▁grown	-6947
▁signs	-6948
ailable	-6949
▁Search	-6950
▁finest	-6951
▁missed	-6952
▁motion	-6953
▁channel	-6954
▁returns	-6955
▁bringing	-6956
▁handling	-6957
▁situated	-6958
▁confident	-6959
▁unexpected	-6960
inn	-6961
wan	-6962
▁9.	-6963
▁fo	-6964
dney	-6965
▁Ren	-6966
▁coc	-6967
▁sex	-6968
abeth	-6969
aylor	-6970
erman	-6971
hemat	-6972
oking	-6973
rowse	-6974
▁adds	-6975
▁grab	-6976
▁seed	-6977
▁stim	-6978
▁Cover	-6979
▁Young	-6980
▁judge	-6981
▁dental	-6982
▁emphas	-6983
▁Indiana	-6984
▁Village	-6985
▁crucial	-6986
▁dropped	-6987
▁subsequ	-6988
▁contrast	-6989
▁messages	-6990
▁personnel	-6991
▁spiritual	-6992
▁exceptional	-6993
▁transportation	-6994
▁AR	-6995
ials	-6996
weet	-6997
▁Haw	-6998
▁pip	-6999
▁unf	-7000
▁Save	-7001
▁alle	-7002
▁furn	-7003
▁vast	-7004
bridge	-7005
▁Steve	-7006
▁delay	-7007
▁sculpt	-7008
▁unlike	-7009
▁YouTube	-7010
▁moments	-7011
▁Governor	-7012
▁Ministry	-7013
▁officers	-7014
▁collected	-7015
▁professor	-7016
▁organisation	-7017
zes	-7018
▁Gi	-7019
▁LA	-7020
oker	-7021
rick	-7022
▁Cru	-7023
undry	-7024
▁Carl	-7025
▁Jenn	-7026
▁poll	-7027
▁shed	-7028
▁synt	-7029
umbing	-7030
▁Below	-7031
▁Brand	-7032
▁magic	-7033
▁Korean	-7034
▁Winter	-7035
▁agreed	-7036
▁aspect	-7037
▁Despite	-7038
▁ancient	-7039
▁mixture	-7040
▁eligible	-7041
▁instruct	-7042
▁whenever	-7043
▁improving	-7044
▁industries	-7045
▁preparation	-7046
▁expectations	-7047
DS	-7048
Con	-7049
nda	-7050
▁SA	-7051
▁au	-7052
▁er	-7053
hess	-7054
what	-7055
▁400	-7056
▁Pur	-7057
ether	-7058
level	-7059
print	-7060
▁forg	-7061
cluded	-7062
▁index	-7063
▁Andrew	-7064
▁excess	-7065
▁retire	-7066
▁rubber	-7067
▁tagged	-7068
▁painted	-7069
▁agencies	-7070
▁citizens	-7071
▁entrance	-7072
▁swimming	-7073
▁primarily	-7074
▁entreprene	-7075
▁reasonable	-7076
▁description	-7077
▁partnership	-7078
▁increasingly	-7079
47	-7080
igs	-7081
pty	-7082
vas	-7083
▁Os	-7084
▁Ra	-7085
quir	-7086
▁tie	-7087
▁Rail	-7088
▁hole	-7089
▁Guide	-7090
▁Treat	-7091
▁Youth	-7092
▁compr	-7093
▁habit	-7094
bration	-7095
▁Jewish	-7096
▁Proper	-7097
▁dreams	-7098
▁Britain	-7099
▁ensures	-7100
▁involve	-7101
▁Historic	-7102
▁concerned	-7103
▁emotional	-7104
▁reporting	-7105
▁maintained	-7106
▁politician	-7107
26	-7108
FC	-7109
UL	-7110
uls	-7111
▁Ms	-7112
irms	-7113
claim	-7114
ially	-7115
▁1990	-7116
▁Hind	-7117
▁spin	-7118
▁tall	-7119
▁Print	-7120
▁Track	-7121
▁flood	-7122
▁horse	-7123
▁marks	-7124
▁rural	-7125
resents	-7126
▁comedy	-7127
▁random	-7128
▁refund	-7129
▁themes	-7130
lections	-7131
▁Houston	-7132
▁anticip	-7133
▁fishing	-7134
▁affected	-7135
▁identity	-7136
▁operated	-7137
▁priority	-7138
▁contractors	-7139
46	-7140
jo	-7141
….	-7142
▁ly	-7143
anes	-7144
bing	-7145
gypt	-7146
stal	-7147
▁FOR	-7148
▁USB	-7149
▁Ford	-7150
▁2014.	-7151
▁Contin	-7152
▁Excell	-7153
▁Repair	-7154
▁border	-7155
▁dishes	-7156
▁hoping	-7157
▁weekly	-7158
▁booking	-7159
▁writers	-7160
▁clinical	-7161
▁revealed	-7162
▁submitted	-7163
▁..	-7164
hors	-7165
▁Kar	-7166
build	-7167
class	-7168
▁Cand	-7169
▁Phys	-7170
▁conv	-7171
▁rose	-7172
▁vert	-7173
Americ	-7174
atched	-7175
holder	-7176
riving	-7177
terior	-7178
▁Night	-7179
▁Right	-7180
▁Smart	-7181
▁Sound	-7182
▁Store	-7183
▁flash	-7184
▁loves	-7185
▁spoke	-7186
▁usual	-7187
iations	-7188
respond	-7189
▁Golden	-7190
▁Sydney	-7191
▁assets	-7192
▁prison	-7193
▁proven	-7194
▁seemed	-7195
▁wealth	-7196
▁Chapter	-7197
▁Toronto	-7198
▁enables	-7199
▁imagine	-7200
▁proceed	-7201
▁trouble	-7202
▁Assembly	-7203
▁achieved	-7204
Fi	-7205
ii	-7206
edu	-7207
▁5,	-7208
▁CR	-7209
▁SH	-7210
▁Ur	-7211
gent	-7212
irty	-7213
▁Ram	-7214
▁Son	-7215
▁raw	-7216
found	-7217
▁Orig	-7218
▁hero	-7219
▁legs	-7220
living	-7221
▁Davis	-7222
▁affil	-7223
▁clubs	-7224
▁drain	-7225
▁proof	-7226
jection	-7227
ologist	-7228
▁Berlin	-7229
▁Bridge	-7230
▁closer	-7231
▁crisis	-7232
▁critic	-7233
▁elimin	-7234
▁enroll	-7235
▁reward	-7236
language	-7237
▁Eastern	-7238
▁Private	-7239
▁Product	-7240
▁incorpor	-7241
▁Following	-7242
▁Therefore	-7243
▁Environment	-7244
▁authorities	-7245
/4	-7246
SP	-7247
bec	-7248
ulf	-7249
▁Ak	-7250
aven	-7251
▁LLC	-7252
▁ads	-7253
apore	-7254
▁Capt	-7255
▁Hung	-7256
▁Jean	-7257
▁lect	-7258
▁Egypt	-7259
▁bread	-7260
▁teeth	-7261
▁vinyl	-7262
▁mining	-7263
▁vulner	-7264
▁explain	-7265
▁insight	-7266
▁singles	-7267
▁texture	-7268
▁victims	-7269
▁winners	-7270
▁clicking	-7271
▁guaranteed	-7272
▁performances	-7273
▁communications	-7274
gal	-7275
gor	-7276
iti	-7277
udi	-7278
▁33	-7279
▁OS	-7280
▁187	-7281
▁Buy	-7282
▁Las	-7283
▁Prom	-7284
▁boys	-7285
▁mood	-7286
abetes	-7287
ickets	-7288
terest	-7289
▁Liber	-7290
▁Wales	-7291
▁filed	-7292
▁gifts	-7293
▁alumin	-7294
▁bottle	-7295
▁formal	-7296
▁hockey	-7297
▁tennis	-7298
▁theory	-7299
▁undert	-7300
▁Install	-7301
▁Perfect	-7302
▁promise	-7303
▁recipes	-7304
▁incident	-7305
▁ultimate	-7306
▁initially	-7307
▁strategic	-7308
▁represents	-7309
▁implementation	-7310
95	-7311
bi	-7312
ami	-7313
sec	-7314
▁$5	-7315
site	-7316
▁Bol	-7317
▁Sea	-7318
▁Sov	-7319
books	-7320
lades	-7321
ouses	-7322
▁Sale	-7323
▁Want	-7324
▁tiny	-7325
▁Event	-7326
▁Field	-7327
▁Glass	-7328
▁blend	-7329
▁crack	-7330
▁crowd	-7331
▁analyt	-7332
▁animal	-7333
▁decade	-7334
▁errors	-7335
aturally	-7336
missions	-7337
ographic	-7338
▁Univers	-7339
▁drawing	-7340
▁telling	-7341
▁utility	-7342
▁vintage	-7343
▁agricult	-7344
▁medicine	-7345
▁broadcast	-7346
▁dangerous	-7347
▁happening	-7348
▁suppliers	-7349
▁Collection	-7350
▁compliance	-7351
AA	-7352
TP	-7353
Pro	-7354
bro	-7355
ken	-7356
lah	-7357
och	-7358
▁SU	-7359
▁Ath	-7360
▁Rub	-7361
▁sad	-7362
hered	-7363
igate	-7364
udden	-7365
▁Base	-7366
▁deck	-7367
▁diss	-7368
▁lapt	-7369
▁sole	-7370
▁thin	-7371
▁vibr	-7372
acular	-7373
apping	-7374
rating	-7375
▁Bible	-7376
▁Drive	-7377
▁Guard	-7378
▁Still	-7379
▁Visit	-7380
▁pride	-7381
▁solve	-7382
▁split	-7383
achelor	-7384
▁layout	-7385
▁reader	-7386
▁charity	-7387
▁routine	-7388
▁Colorado	-7389
▁distinct	-7390
▁referred	-7391
▁substant	-7392
▁automatic	-7393
▁portfolio	-7394
▁communicate	-7395
▁programming	-7396
▁improvements	-7397
DP	-7398
awa	-7399
aze	-7400
isa	-7401
eras	-7402
oust	-7403
span	-7404
▁Bad	-7405
▁Nic	-7406
▁inn	-7407
cknow	-7408
ennes	-7409
stein	-7410
▁Writ	-7411
▁gate	-7412
▁sink	-7413
▁2015,	-7414
▁Based	-7415
▁Birth	-7416
▁prize	-7417
▁Comput	-7418
▁Simply	-7419
▁compos	-7420
▁county	-7421
▁hospit	-7422
▁vocals	-7423
▁Indones	-7424
▁holidays	-7425
▁producer	-7426
▁attractive	-7427
▁consultation	-7428
23	-7429
LY	-7430
osa	-7431
▁34	-7432
edge	-7433
hell	-7434
ocal	-7435
▁$10	-7436
entle	-7437
▁Barb	-7438
▁Expl	-7439
▁dust	-7440
▁zone	-7441
▁Broad	-7442
▁merch	-7443
▁worse	-7444
▁Rights	-7445
▁Taylor	-7446
▁actors	-7447
▁loving	-7448
▁muscle	-7449
▁closing	-7450
▁facilit	-7451
▁failure	-7452
▁genuine	-7453
▁precise	-7454
▁pricing	-7455
▁reprodu	-7456
▁Standard	-7457
▁spacious	-7458
▁violence	-7459
▁Banglades	-7460
▁assistant	-7461
▁attending	-7462
▁brilliant	-7463
▁immediate	-7464
▁guidelines	-7465
▁officially	-7466
▁photographs	-7467
NC	-7468
oa	-7469
▁Ye	-7470
▁Arm	-7471
▁Kim	-7472
▁slee	-7473
▁till	-7474
atriate	-7475
▁Member	-7476
▁Mobile	-7477
graduate	-7478
▁arrival	-7479
▁concert	-7480
▁minimal	-7481
▁commonly	-7482
▁studying	-7483
▁supposed	-7484
▁framework	-7485
▁resistance	-7486
▁recognition	-7487
Bl	-7488
ni	-7489
han	-7490
rip	-7491
▁(1	-7492
▁MD	-7493
elle	-7494
idal	-7495
▁Aff	-7496
▁Rod	-7497
uling	-7498
under	-7499
▁Give	-7500
▁Kids	-7501
▁Sams	-7502
▁tank	-7503
annels	-7504
asting	-7505
▁chose	-7506
▁equal	-7507
▁recre	-7508
▁trick	-7509
▁union	-7510
▁Soviet	-7511
▁Spirit	-7512
▁invite	-7513
anguages	-7514
▁colours	-7515
▁complim	-7516
▁deposit	-7517
▁Victoria	-7518
▁enjoying	-7519
▁entering	-7520
▁licensed	-7521
▁southern	-7522
▁categories	-7523
▁personally	-7524
▁relatively	-7525
▁Unfortunately	-7526
27	-7527
86	-7528
As	-7529
▁SC	-7530
▁SM	-7531
▁UC	-7532
▁cm	-7533
mann	-7534
mers	-7535
yard	-7536
▁Alp	-7537
▁Hur	-7538
▁NAS	-7539
▁mac	-7540
celer	-7541
▁Dall	-7542
▁Kent	-7543
▁lift	-7544
▁wash	-7545
▁likes	-7546
▁spark	-7547
▁suffe	-7548
quality	-7549
▁Compet	-7550
▁blocks	-7551
▁liquid	-7552
▁resort	-7553
▁Limited	-7554
▁Quality	-7555
▁Storage	-7556
▁Studies	-7557
▁cleaner	-7558
▁founder	-7559
▁recover	-7560
▁surprise	-7561
▁tracking	-7562
▁sensitive	-7563
▁vegetables	-7564
/0	-7565
RS	-7566
sm	-7567
sem	-7568
nger	-7569
zing	-7570
▁Gas	-7571
▁Nav	-7572
achus	-7573
haust	-7574
state	-7575
▁Insp	-7576
▁Snow	-7577
▁aims	-7578
▁bone	-7579
▁duty	-7580
▁mand	-7581
▁solo	-7582
▁Creek	-7583
▁boots	-7584
▁rated	-7585
▁shots	-7586
▁withd	-7587
▁ending	-7588
▁engage	-7589
▁makeup	-7590
▁superv	-7591
▁Machine	-7592
▁Station	-7593
▁portion	-7594
▁stretch	-7595
▁turning	-7596
▁memories	-7597
▁Singapore	-7598
▁purchasing	-7599
▁circumstances	-7600
▁configuration	-7601
AB	-7602
asy	-7603
run	-7604
adel	-7605
alse	-7606
obby	-7607
pack	-7608
ulum	-7609
unes	-7610
▁Ari	-7611
▁Blu	-7612
▁Dam	-7613
▁Han	-7614
berry	-7615
inent	-7616
rates	-7617
▁(194	-7618
▁fasc	-7619
iances	-7620
lessly	-7621
▁Autom	-7622
▁Kelly	-7623
▁Think	-7624
▁actor	-7625
▁divid	-7626
▁frust	-7627
▁hopes	-7628
ificial	-7629
▁Forest	-7630
▁Square	-7631
▁bridge	-7632
▁hidden	-7633
▁orange	-7634
▁widely	-7635
▁ordered	-7636
▁passing	-7637
▁managing	-7638
▁password	-7639
▁inventory	-7640
▁delivering	-7641
▁volunteers	-7642
▁competitions	-7643
21	-7644
De	-7645
MC	-7646
car	-7647
ker	-7648
▁Ku	-7649
amic	-7650
etts	-7651
▁Hun	-7652
▁Pad	-7653
▁Sat	-7654
▁Tel	-7655
amber	-7656
asure	-7657
▁Such	-7658
▁none	-7659
▁oven	-7660
▁recy	-7661
letter	-7662
riends	-7663
▁Quest	-7664
▁blank	-7665
▁crash	-7666
▁newly	-7667
▁sight	-7668
ossible	-7669
▁Course	-7670
▁viewed	-7671
▁instant	-7672
achusetts	-7673
▁Magazine	-7674
▁beneficial	-7675
31	-7676
▁1:	-7677
▁6,	-7678
sole	-7679
ucle	-7680
▁186	-7681
▁Lin	-7682
▁Rap	-7683
▁Tai	-7684
▁tap	-7685
▁Ryan	-7686
▁Webs	-7687
▁fest	-7688
▁outd	-7689
▁vent	-7690
▁Decor	-7691
▁Final	-7692
▁Image	-7693
▁Prime	-7694
▁Trade	-7695
▁flour	-7696
▁stake	-7697
▁acknow	-7698
▁cotton	-7699
▁dollar	-7700
▁legend	-7701
▁planet	-7702
▁portra	-7703
▁speech	-7704
ensation	-7705
▁causing	-7706
▁coaches	-7707
▁durable	-7708
▁engaged	-7709
▁lawyers	-7710
▁repairs	-7711
▁Scotland	-7712
▁normally	-7713
▁childhood	-7714
▁reception	-7715
▁volunteer	-7716
▁workshops	-7717
▁correspond	-7718
▁disappoint	-7719
▁convenience	-7720
▁Massachusetts	-7721
HS	-7722
alo	-7723
▁Ta	-7724
▁tor	-7725
ingly	-7726
raine	-7727
▁Brad	-7728
▁Navy	-7729
▁amen	-7730
▁enem	-7731
▁magn	-7732
▁vice	-7733
▁Cabin	-7734
▁funny	-7735
▁ocean	-7736
▁virus	-7737
▁yours	-7738
inating	-7739
▁attach	-7740
▁driven	-7741
▁linked	-7742
▁profit	-7743
▁slowly	-7744
▁wooden	-7745
▁Atlanta	-7746
▁combine	-7747
▁coordin	-7748
▁folding	-7749
▁mounted	-7750
▁podcast	-7751
▁posting	-7752
▁retired	-7753
▁generate	-7754
▁lifetime	-7755
▁politics	-7756
▁restrict	-7757
▁tomorrow	-7758
▁authority	-7759
▁involving	-7760
▁packaging	-7761
▁promotion	-7762
▁sophistic	-7763
▁Protection	-7764
▁incredibly	-7765
▁interactive	-7766
▁Additionally	-7767
▁participating	-7768
);	-7769
LS	-7770
▁Pa	-7771
fall	-7772
izza	-7773
pson	-7774
▁Ast	-7775
▁Has	-7776
▁Jon	-7777
▁Tot	-7778
▁hat	-7779
▁Auto	-7780
▁Case	-7781
▁Conc	-7782
▁bare	-7783
▁rein	-7784
▁chest	-7785
▁drawn	-7786
▁smile	-7787
ulating	-7788
▁Daniel	-7789
▁golden	-7790
▁inches	-7791
▁murder	-7792
▁attacks	-7793
▁convert	-7794
▁stopped	-7795
▁succeed	-7796
▁carrying	-7797
▁drinking	-7798
▁certification	-7799
37	-7800
▁mm	-7801
▁180	-7802
▁Ess	-7803
▁anx	-7804
▁bid	-7805
▁mut	-7806
▁ram	-7807
▁rig	-7808
▁ski	-7809
ifies	-7810
stery	-7811
uracy	-7812
▁Eliz	-7813
▁dipl	-7814
▁gall	-7815
▁vess	-7816
ronics	-7817
▁2013,	-7818
▁Brook	-7819
▁Korea	-7820
▁blind	-7821
▁colon	-7822
▁crazy	-7823
▁minim	-7824
▁moves	-7825
▁Annual	-7826
▁Season	-7827
ennessee	-7828
▁compete	-7829
▁engines	-7830
▁regions	-7831
▁streets	-7832
▁Military	-7833
▁Products	-7834
▁Software	-7835
▁champion	-7836
▁Architect	-7837
▁objective	-7838
▁preparing	-7839
▁stainless	-7840
▁differences	-7841
▁introduction	-7842
▁productivity	-7843
AY	-7844
50.	-7845
iga	-7846
vet	-7847
was	-7848
adow	-7849
aine	-7850
foot	-7851
keep	-7852
wich	-7853
▁10,	-7854
▁Ron	-7855
▁Sab	-7856
▁ham	-7857
▁lug	-7858
itzer	-7859
▁Bern	-7860
▁Stan	-7861
▁indu	-7862
nesota	-7863
▁2020,	-7864
▁meets	-7865
▁seeds	-7866
ogether	-7867
▁Senate	-7868
▁bodies	-7869
▁Theatre	-7870
▁justice	-7871
▁laundry	-7872
▁noticed	-7873
▁captured	-7874
▁checking	-7875
▁explains	-7876
▁Brazilian	-7877
▁designers	-7878
▁estimated	-7879
▁increases	-7880
▁paintings	-7881
▁traveling	-7882
▁controlled	-7883
CT	-7884
’,	-7885
aza	-7886
▁EP	-7887
▁MO	-7888
arts	-7889
ucky	-7890
uing	-7891
▁Buck	-7892
▁Tree	-7893
▁beer	-7894
▁lets	-7895
▁semi	-7896
▁Civil	-7897
▁Stone	-7898
▁brush	-7899
▁firms	-7900
▁laser	-7901
▁saved	-7902
▁screw	-7903
▁ships	-7904
▁yards	-7905
▁Choose	-7906
▁Dallas	-7907
▁belief	-7908
▁buyers	-7909
▁narrow	-7910
▁visible	-7911
▁younger	-7912
▁Cleaning	-7913
▁Interest	-7914
▁channels	-7915
▁exposure	-7916
▁Beautiful	-7917
▁Melbourne	-7918
▁Secretary	-7919
▁addresses	-7920
▁languages	-7921
▁somewhere	-7922
▁continuing	-7923
▁ultimately	-7924
▁Corporation	-7925
9)	-7926
?"	-7927
For	-7928
oof	-7929
▁ol	-7930
heim	-7931
rams	-7932
then	-7933
urse	-7934
▁god	-7935
▁sac	-7936
▁vib	-7937
ishop	-7938
ounge	-7939
▁Nick	-7940
▁Site	-7941
▁bird	-7942
▁Front	-7943
▁Labor	-7944
▁liked	-7945
▁shock	-7946
ressive	-7947
▁Credit	-7948
▁Regard	-7949
▁acting	-7950
▁nights	-7951
▁Working	-7952
▁arrested	-7953
▁concepts	-7954
▁expenses	-7955
▁warranty	-7956
▁Minnesota	-7957
▁Tennessee	-7958
▁representative	-7959
ja	-7960
mo	-7961
idi	-7962
law	-7963
▁BB	-7964
▁CP	-7965
▁SO	-7966
days	-7967
izer	-7968
umps	-7969
▁BBC	-7970
▁Rog	-7971
ashes	-7972
ilton	-7973
▁Bell	-7974
▁Form	-7975
▁Term	-7976
▁eggs	-7977
▁hurt	-7978
▁rely	-7979
▁rust	-7980
atches	-7981
ifting	-7982
▁2014,	-7983
▁displ	-7984
▁drugs	-7985
▁maxim	-7986
▁noise	-7987
▁shift	-7988
▁hiring	-7989
▁stored	-7990
▁Express	-7991
▁doctors	-7992
▁skilled	-7993
▁Independ	-7994
▁Training	-7995
▁acquired	-7996
▁northern	-7997
▁discussed	-7998
▁recognize	-7999
▁creativity	-8000
▁developers	-8001
▁philosophy	-8002
▁universities	-8003
!)	-8004
100	-8005
iya	-8006
▁MC	-8007
iler	-8008
long	-8009
▁Ban	-8010
▁Cry	-8011
▁Sri	-8012
▁flo	-8013
▁hes	-8014
▁pul	-8015
being	-8016
▁1976	-8017
▁Link	-8018
▁ther	-8019
▁tile	-8020
▁tiss	-8021
lahoma	-8022
▁2013.	-8023
▁Ocean	-8024
▁Quick	-8025
▁empty	-8026
▁pitch	-8027
▁setup	-8028
▁spots	-8029
▁spray	-8030
▁tours	-8031
limited	-8032
▁Region	-8033
▁intent	-8034
▁scheme	-8035
▁signal	-8036
▁strict	-8037
▁terror	-8038
▁Consult	-8039
▁Mexican	-8040
▁Without	-8041
▁graphic	-8042
▁believed	-8043
▁entirely	-8044
▁musicians	-8045
▁accomplish	-8046
▁colleagues	-8047
▁passionate	-8048
▁Philippines	-8049
▁celebration	-8050
▁7,	-8051
▁AD	-8052
▁NO	-8053
cons	-8054
etic	-8055
▁Ont	-8056
▁Tal	-8057
eding	-8058
▁2004	-8059
▁2006	-8060
▁Clin	-8061
▁Cool	-8062
▁Moon	-8063
▁Size	-8064
▁tape	-8065
▁Greek	-8066
▁Obama	-8067
▁abund	-8068
▁giant	-8069
▁loose	-8070
▁Common	-8071
▁Father	-8072
▁Morgan	-8073
▁detect	-8074
American	-8075
outheast	-8076
▁Located	-8077
▁centers	-8078
▁chapter	-8079
▁refresh	-8080
▁speaker	-8081
▁theatre	-8082
▁workout	-8083
▁artistic	-8084
▁controls	-8085
▁ministry	-8086
▁expansion	-8087
▁certificate	-8088
▁collections	-8089
▁publication	-8090
▁Construction	-8091
▁organisations	-8092
!"	-8093
%.	-8094
76	-8095
85	-8096
Ar	-8097
TE	-8098
do	-8099
ogy	-8100
▁LE	-8101
ayer	-8102
cket	-8103
umer	-8104
▁15,	-8105
▁Mom	-8106
▁Pow	-8107
▁adm	-8108
▁cir	-8109
▁tou	-8110
acher	-8111
apped	-8112
iking	-8113
inema	-8114
ordan	-8115
▁1970	-8116
▁Gram	-8117
▁Grow	-8118
▁Marc	-8119
▁Nice	-8120
▁Stay	-8121
▁rice	-8122
charge	-8123
person	-8124
plates	-8125
stream	-8126
urious	-8127
▁Share	-8128
▁Stock	-8129
▁facts	-8130
▁opens	-8131
▁shade	-8132
▁tooth	-8133
▁worst	-8134
holders	-8135
▁compat	-8136
▁export	-8137
▁enthusi	-8138
▁farmers	-8139
▁heading	-8140
▁protein	-8141
▁Communic	-8142
▁Oklahoma	-8143
▁approval	-8144
▁exterior	-8145
▁explained	-8146
▁suggested	-8147
▁Bangladesh	-8148
▁connections	-8149
▁participated	-8150
▁Championships	-8151
▁functionality	-8152
▁recommendations	-8153
:0	-8154
cm	-8155
10.	-8156
axy	-8157
esh	-8158
▁$3	-8159
▁150	-8160
▁Due	-8161
▁adj	-8162
▁sin	-8163
▁tip	-8164
▁resc	-8165
▁seam	-8166
▁weap	-8167
itches	-8168
parent	-8169
▁Falls	-8170
▁Henry	-8171
▁Short	-8172
▁admin	-8173
▁bench	-8174
▁immig	-8175
▁overw	-8176
▁prime	-8177
▁prove	-8178
▁Portug	-8179
▁fairly	-8180
▁marked	-8181
▁Bedroom	-8182
▁alleged	-8183
▁injured	-8184
forcement	-8185
▁Learning	-8186
▁Schedule	-8187
▁diseases	-8188
▁Elizabeth	-8189
▁bathrooms	-8190
▁correctly	-8191
▁resulting	-8192
▁suffering	-8193
▁everywhere	-8194
▁smartphone	-8195
▁accommodation	-8196
mi	-8197
akh	-8198
bar	-8199
oln	-8200
▁Da	-8201
olit	-8202
rell	-8203
▁Emp	-8204
▁Les	-8205
chers	-8206
▁Sant	-8207
▁flag	-8208
▁yard	-8209
ounter	-8210
uclear	-8211
▁2012.	-8212
▁Harry	-8213
▁aside	-8214
▁faced	-8215
▁lists	-8216
lements	-8217
▁Dublin	-8218
▁Kansas	-8219
▁Number	-8220
▁casino	-8221
▁phones	-8222
▁reform	-8223
▁rising	-8224
▁scenes	-8225
▁territ	-8226
▁therap	-8227
▁versat	-8228
▁Samsung	-8229
▁cancell	-8230
▁careful	-8231
▁jewelry	-8232
▁Template	-8233
▁applying	-8234
▁stronger	-8235
▁exception	-8236
▁customized	-8237
▁encouraged	-8238
▁engagement	-8239
▁expression	-8240
▁maintaining	-8241
▁capabilities	-8242
FA	-8243
VC	-8244
ón	-8245
don	-8246
tes	-8247
▁55	-8248
▁FA	-8249
▁LO	-8250
icit	-8251
olis	-8252
quis	-8253
star	-8254
wear	-8255
▁120	-8256
▁Cit	-8257
▁Lux	-8258
▁Mix	-8259
▁Nep	-8260
▁PDF	-8261
▁kil	-8262
icide	-8263
press	-8264
riger	-8265
sters	-8266
▁2003	-8267
▁Exam	-8268
▁Linc	-8269
▁Past	-8270
▁absor	-8271
▁deleg	-8272
▁finds	-8273
▁forth	-8274
▁forum	-8275
▁horiz	-8276
▁https	-8277
▁pilot	-8278
riculum	-8279
▁Polish	-8280
▁accord	-8281
▁carbon	-8282
▁marine	-8283
▁filling	-8284
▁luggage	-8285
▁stylish	-8286
▁feelings	-8287
▁minister	-8288
▁amenities	-8289
▁displayed	-8290
▁surprised	-8291
▁evaluation	-8292
**	-8293
78	-8294
].	-8295
ika	-8296
uma	-8297
you	-8298
▁()	-8299
▁WH	-8300
▁||	-8301
lder	-8302
ools	-8303
▁12,	-8304
▁NEW	-8305
▁cul	-8306
▁lie	-8307
▁tro	-8308
aysia	-8309
cycle	-8310
elled	-8311
otive	-8312
▁2005	-8313
▁Golf	-8314
▁Pers	-8315
▁acts	-8316
▁wave	-8317
▁Saudi	-8318
▁broke	-8319
▁fiber	-8320
▁locks	-8321
ivalent	-8322
▁Athlet	-8323
▁Change	-8324
▁gained	-8325
▁racing	-8326
▁safely	-8327
ologists	-8328
quarters	-8329
▁adopted	-8330
▁healing	-8331
▁persons	-8332
▁resolve	-8333
▁Remember	-8334
▁criminal	-8335
▁downtown	-8336
▁millions	-8337
▁sections	-8338
▁tutorial	-8339
▁container	-8340
▁streaming	-8341
▁Manchester	-8342
▁literature	-8343
▁integration	-8344
▁transaction	-8345
'.	-8346
):	-8347
pre	-8348
uis	-8349
uum	-8350
▁DC	-8351
▁PH	-8352
aren	-8353
aska	-8354
▁Mrs	-8355
▁Ora	-8356
▁Own	-8357
▁arg	-8358
▁que	-8359
eters	-8360
▁evol	-8361
▁pill	-8362
▁slot	-8363
▁Books	-8364
▁suite	-8365
▁usage	-8366
athered	-8367
▁Nether	-8368
▁occurs	-8369
▁sudden	-8370
▁banking	-8371
▁dealing	-8372
▁destroy	-8373
▁hanging	-8374
▁roofing	-8375
▁sending	-8376
▁Everyone	-8377
▁diabetes	-8378
▁donation	-8379
▁employer	-8380
▁promoted	-8381
▁Represent	-8382
▁Solutions	-8383
▁inspection	-8384
▁requirement	-8385
▁participation	-8386
IE	-8387
If	-8388
ml	-8389
bow	-8390
ran	-8391
▁Dy	-8392
arry	-8393
bell	-8394
ouri	-8395
▁Ask	-8396
▁Map	-8397
inery	-8398
inton	-8399
ounce	-8400
▁Prim	-8401
▁fauc	-8402
▁hits	-8403
▁peak	-8404
▁2012,	-8405
▁2020.	-8406
▁Again	-8407
▁Pract	-8408
▁roots	-8409
▁shirt	-8410
▁stamp	-8411
western	-8412
▁Queens	-8413
▁pounds	-8414
▁string	-8415
▁Justice	-8416
▁Natural	-8417
▁Process	-8418
▁shouldn	-8419
▁upgrade	-8420
▁Regional	-8421
▁assigned	-8422
▁contents	-8423
▁describe	-8424
▁opposite	-8425
▁realized	-8426
▁reducing	-8427
▁reserved	-8428
▁inspiring	-8429
▁literally	-8430
▁consideration	-8431
IV	-8432
UM	-8433
po	-8434
800	-8435
acc	-8436
owa	-8437
▁FL	-8438
erts	-8439
ifer	-8440
iral	-8441
page	-8442
roke	-8443
▁Cou	-8444
▁alt	-8445
▁sou	-8446
,000.	-8447
ashed	-8448
nders	-8449
▁Cash	-8450
▁Emer	-8451
▁Hans	-8452
▁Iron	-8453
▁dies	-8454
▁Agree	-8455
▁Maria	-8456
▁Motor	-8457
▁asset	-8458
▁loyal	-8459
▁regul	-8460
▁Source	-8461
▁Nations	-8462
▁Supreme	-8463
▁compare	-8464
▁empower	-8465
▁exhaust	-8466
▁extract	-8467
▁removal	-8468
▁staying	-8469
▁Sciences	-8470
▁athletes	-8471
▁requests	-8472
▁preferred	-8473
▁producing	-8474
▁seriously	-8475
▁initiative	-8476
▁scientists	-8477
▁Netherlands	-8478
?”	-8479
iy	-8480
lu	-8481
uz	-8482
▁€	-8483
Don	-8484
Man	-8485
agu	-8486
aha	-8487
rer	-8488
sex	-8489
▁2-	-8490
▁NC	-8491
▁ft	-8492
rage	-8493
▁2.0	-8494
▁Fab	-8495
▁Lew	-8496
▁lad	-8497
▁pad	-8498
▁pup	-8499
mouth	-8500
pends	-8501
ystem	-8502
▁Anth	-8503
▁clip	-8504
▁dual	-8505
▁trim	-8506
▁entit	-8507
▁casual	-8508
▁explan	-8509
▁stable	-8510
▁suffer	-8511
▁Website	-8512
▁demands	-8513
▁focuses	-8514
▁heavily	-8515
▁remodel	-8516
including	-8517
itzerland	-8518
ventional	-8519
▁Customer	-8520
▁Memorial	-8521
▁Planning	-8522
▁reaching	-8523
▁suffered	-8524
▁Hollywood	-8525
▁fireplace	-8526
▁intention	-8527
▁experiment	-8528
▁percentage	-8529
▁references	-8530
56	-8531
▁)	-8532
▁;	-8533
ela	-8534
iro	-8535
nic	-8536
▁Ox	-8537
asty	-8538
emic	-8539
enny	-8540
fire	-8541
onut	-8542
▁250	-8543
alymp	-8544
anned	-8545
▁1920	-8546
▁1950	-8547
▁Adam	-8548
▁Dave	-8549
▁Fall	-8550
▁bold	-8551
▁coal	-8552
▁drag	-8553
▁edit	-8554
▁pets	-8555
▁sick	-8556
ateful	-8557
gorith	-8558
▁Analy	-8559
▁Kevin	-8560
▁Large	-8561
▁array	-8562
▁chips	-8563
▁crown	-8564
▁salad	-8565
▁shell	-8566
through	-8567
▁Avenue	-8568
▁gentle	-8569
▁stayed	-8570
▁visits	-8571
▁Ontario	-8572
▁Perhaps	-8573
▁Section	-8574
▁possess	-8575
▁scratch	-8576
▁segment	-8577
▁accuracy	-8578
▁assembly	-8579
▁interact	-8580
▁listings	-8581
▁Available	-8582
▁stability	-8583
▁concerning	-8584
▁objectives	-8585
▁flexibility	-8586
79	-8587
GA	-8588
fa	-8589
bel	-8590
hol	-8591
irk	-8592
▁2:	-8593
▁Aw	-8594
▁HR	-8595
olec	-8596
▁Amb	-8597
▁Cut	-8598
▁Mov	-8599
▁era	-8600
▁rib	-8601
icted	-8602
piece	-8603
▁1998	-8604
▁bomb	-8605
▁hide	-8606
▁publ	-8607
phones	-8608
▁Major	-8609
▁clock	-8610
▁falls	-8611
▁juice	-8612
▁lucky	-8613
▁riding	-8614
ordinary	-8615
▁Lincoln	-8616
▁cameras	-8617
▁damaged	-8618
▁believes	-8619
▁wireless	-8620
▁component	-8621
▁reduction	-8622
▁celebrated	-8623
▁impossible	-8624
▁composition	-8625
▁spectacular	-8626
▁temperatures	-8627
▁sophisticated	-8628
98	-8629
cho	-8630
oft	-8631
omy	-8632
▁75	-8633
raid	-8634
▁Hal	-8635
▁kne	-8636
▁unw	-8637
There	-8638
angle	-8639
cribe	-8640
oween	-8641
vania	-8642
▁2001	-8643
▁2002	-8644
▁aged	-8645
▁bact	-8646
▁leak	-8647
▁tone	-8648
▁worn	-8649
▁Cloud	-8650
▁Latin	-8651
▁Sales	-8652
▁storm	-8653
▁talks	-8654
▁Mother	-8655
▁contra	-8656
▁indoor	-8657
▁laptop	-8658
▁sevent	-8659
▁Swedish	-8660
▁checked	-8661
▁flights	-8662
▁greatly	-8663
▁printer	-8664
▁Medicine	-8665
▁Pakistan	-8666
▁Paralymp	-8667
▁Partners	-8668
▁arranged	-8669
▁currency	-8670
▁fighting	-8671
▁Meanwhile	-8672
▁naturally	-8673
▁residence	-8674
▁returning	-8675
▁excellence	-8676
▁retirement	-8677
▁specialists	-8678
34	-8679
ih	-8680
aki	-8681
dro	-8682
erk	-8683
▁37	-8684
▁Jr	-8685
▁ye	-8686
acon	-8687
teen	-8688
▁CON	-8689
▁Yet	-8690
▁asp	-8691
▁sen	-8692
aints	-8693
erate	-8694
ighth	-8695
▁1999	-8696
▁lamp	-8697
▁vacc	-8698
celona	-8699
▁adequ	-8700
▁knock	-8701
▁laugh	-8702
▁robot	-8703
▁trips	-8704
onymous	-8705
▁Double	-8706
▁discip	-8707
▁exceed	-8708
▁mirror	-8709
▁reveal	-8710
▁walked	-8711
▁Islamic	-8712
▁chances	-8713
▁conserv	-8714
▁conflict	-8715
▁focusing	-8716
▁pleasure	-8717
▁discounts	-8718
▁introduce	-8719
▁satisfied	-8720
▁highlights	-8721
▁permission	-8722
▁principles	-8723
▁regardless	-8724
▁anniversary	-8725
58	-8726
VA	-8727
iki	-8728
sen	-8729
▁38	-8730
inch	-8731
ista	-8732
ucks	-8733
wing	-8734
▁12.	-8735
▁Age	-8736
▁gym	-8737
▁lip	-8738
bound	-8739
burgh	-8740
ouver	-8741
world	-8742
▁1996	-8743
▁Drag	-8744
▁fits	-8745
▁mere	-8746
▁tons	-8747
makers	-8748
▁Forum	-8749
▁folks	-8750
▁heads	-8751
▁hesit	-8752
▁parks	-8753
▁roads	-8754
▁Agency	-8755
▁Create	-8756
▁Michel	-8757
▁Wilson	-8758
▁edited	-8759
▁gender	-8760
▁humans	-8761
▁lesson	-8762
▁magnet	-8763
▁outfit	-8764
▁Edition	-8765
▁fulfill	-8766
▁heritage	-8767
▁matching	-8768
▁compliment	-8769
▁beautifully	-8770
▁administrative	-8771
▁representatives	-8772
HT	-8773
zo	-8774
ATE	-8775
Tra	-8776
auge	-8777
char	-8778
lass	-8779
tage	-8780
tech	-8781
▁19,	-8782
▁API	-8783
▁Dri	-8784
▁ISO	-8785
▁Inv	-8786
▁Jam	-8787
▁Tro	-8788
▁bes	-8789
▁vel	-8790
ATION	-8791
acent	-8792
ading	-8793
▁Copy	-8794
▁Lind	-8795
▁Pier	-8796
▁army	-8797
▁blow	-8798
▁buff	-8799
▁cuts	-8800
papers	-8801
▁abuse	-8802
▁cater	-8803
▁discl	-8804
▁faces	-8805
winning	-8806
ylvania	-8807
▁Orange	-8808
▁Sweden	-8809
▁scores	-8810
▁Student	-8811
▁cookies	-8812
▁inspire	-8813
▁raising	-8814
▁ratings	-8815
▁servers	-8816
▁signing	-8817
▁singing	-8818
▁trusted	-8819
▁Bathroom	-8820
▁Industry	-8821
▁Scottish	-8822
▁coaching	-8823
▁constant	-8824
▁responses	-8825
▁temporary	-8826
▁depression	-8827
▁potentially	-8828
▁photographer	-8829
Ad	-8830
Al	-8831
asa	-8832
ori	-8833
unc	-8834
▁AB	-8835
onds	-8836
▁Luc	-8837
▁SEO	-8838
▁Sac	-8839
▁gal	-8840
▁phr	-8841
Press	-8842
▁Fact	-8843
▁Harr	-8844
▁Poly	-8845
▁batt	-8846
▁gran	-8847
▁trib	-8848
cludes	-8849
igious	-8850
uation	-8851
▁Dream	-8852
▁Photo	-8853
▁birds	-8854
▁maker	-8855
▁sharp	-8856
itution	-8857
▁Altern	-8858
▁Easter	-8859
▁Method	-8860
▁Muslim	-8861
▁deploy	-8862
▁pepper	-8863
▁Friends	-8864
▁forever	-8865
▁rapidly	-8866
criptions	-8867
▁Electric	-8868
▁Previous	-8869
▁composed	-8870
▁presents	-8871
▁Barcelona	-8872
▁interpret	-8873
▁Television	-8874
▁equivalent	-8875
▁impression	-8876
▁passengers	-8877
▁structural	-8878
▁Switzerland	-8879
▁personality	-8880
▁establishments	-8881
==	-8882
My	-8883
anz	-8884
▁4-	-8885
▁Ay	-8886
▁CC	-8887
▁EX	-8888
▁Ka	-8889
▁Rs	-8890
agen	-8891
itis	-8892
▁50%	-8893
▁600	-8894
▁dad	-8895
▁nob	-8896
▁riv	-8897
▁1000	-8898
▁Chen	-8899
▁Rout	-8900
▁hook	-8901
▁plot	-8902
▁Floor	-8903
▁Holid	-8904
▁assum	-8905
▁brick	-8906
▁bunch	-8907
▁honey	-8908
▁oblig	-8909
▁tomat	-8910
▁Austin	-8911
▁Junior	-8912
▁Policy	-8913
▁Within	-8914
▁afraid	-8915
▁limits	-8916
▁lowest	-8917
▁scroll	-8918
▁titled	-8919
▁wheels	-8920
ribution	-8921
▁homeown	-8922
▁strange	-8923
▁algorith	-8924
▁breaking	-8925
▁plumbing	-8926
▁talented	-8927
▁contractor	-8928
▁conversion	-8929
▁consumption	-8930
▁intelligence	-8931
▁contributions	-8932
Sc	-8933
aux	-8934
war	-8935
▁EC	-8936
▁PS	-8937
aver	-8938
brid	-8939
enth	-8940
home	-8941
lend	-8942
tery	-8943
uana	-8944
▁1/2	-8945
▁10%	-8946
▁Cab	-8947
▁haz	-8948
▁hol	-8949
▁iOS	-8950
break	-8951
child	-8952
eness	-8953
outer	-8954
pense	-8955
▁Draw	-8956
▁Gene	-8957
▁Wind	-8958
▁clar	-8959
▁grey	-8960
▁seal	-8961
▁Films	-8962
▁Prize	-8963
▁fifth	-8964
▁stuck	-8965
▁towns	-8966
▁acquis	-8967
▁chairs	-8968
▁debate	-8969
▁renown	-8970
▁Besides	-8971
▁Finance	-8972
▁acceler	-8973
▁depends	-8974
▁herself	-8975
▁ranging	-8976
▁accompan	-8977
▁aircraft	-8978
▁attempts	-8979
▁criteria	-8980
▁defeated	-8981
▁portable	-8982
vironments	-8983
▁directors	-8984
▁generated	-8985
▁Experience	-8986
▁continuous	-8987
▁publishing	-8988
▁suggestions	-8989
▁experiencing	-8990
▁Administration	-8991
BM	-8992
KE	-8993
izz	-8994
kyo	-8995
ova	-8996
ref	-8997
▁18,	-8998
▁Hom	-8999
▁Ten	-9000
inals	-9001
▁Easy	-9002
▁Eric	-9003
▁Iowa	-9004
▁Vers	-9005
▁beds	-9006
▁leaf	-9007
▁zero	-9008
making	-9009
▁Innov	-9010
▁Later	-9011
▁Laure	-9012
▁Month	-9013
▁Tokyo	-9014
▁alarm	-9015
▁grace	-9016
▁hydro	-9017
▁oppon	-9018
▁rehab	-9019
▁squad	-9020
▁vocal	-9021
▁checks	-9022
▁neighb	-9023
▁retain	-9024
sylvania	-9025
▁Overall	-9026
▁carrier	-9027
▁screens	-9028
▁Missouri	-9029
▁balanced	-9030
▁occurred	-9031
▁outcomes	-9032
▁overlook	-9033
▁overwhel	-9034
▁struggle	-9035
▁subjects	-9036
▁Assistant	-9037
▁Mountains	-9038
▁exploring	-9039
▁expressed	-9040
▁Federation	-9041
▁completion	-9042
▁directions	-9043
▁supplement	-9044
▁necessarily	-9045
▁championship	-9046
An	-9047
ERE	-9048
hot	-9049
pur	-9050
▁64	-9051
▁8,	-9052
▁BC	-9053
▁CB	-9054
▁tu	-9055
bean	-9056
gate	-9057
igen	-9058
▁30,	-9059
▁Deb	-9060
▁Eth	-9061
▁Gro	-9062
▁PhD	-9063
▁Tig	-9064
▁shr	-9065
▁spa	-9066
athan	-9067
orous	-9068
produ	-9069
style	-9070
▁1968	-9071
▁Gall	-9072
▁Talk	-9073
▁Thus	-9074
▁Trib	-9075
▁Type	-9076
▁Unit	-9077
▁lies	-9078
▁narr	-9079
▁surn	-9080
itched	-9081
▁patio	-9082
▁strip	-9083
▁uncom	-9084
▁Employ	-9085
▁Jordan	-9086
▁franch	-9087
▁reject	-9088
▁Foreign	-9089
▁Matthew	-9090
▁authors	-9091
▁ceiling	-9092
▁retreat	-9093
▁utilize	-9094
▁indicate	-9095
▁Companies	-9096
▁requested	-9097
▁accounting	-9098
▁comparison	-9099
▁definition	-9100
▁networking	-9101
▁documentary	-9102
Be	-9103
QL	-9104
RC	-9105
ige	-9106
ima	-9107
upp	-9108
▁HP	-9109
eman	-9110
ilty	-9111
oted	-9112
pton	-9113
uses	-9114
▁Bru	-9115
▁Hay	-9116
▁hip	-9117
Point	-9118
anted	-9119
proof	-9120
▁1972	-9121
▁Greg	-9122
▁Josh	-9123
▁aest	-9124
▁yoga	-9125
ervice	-9126
ressed	-9127
▁Prior	-9128
▁Vegas	-9129
▁alive	-9130
▁intel	-9131
▁patch	-9132
▁Always	-9133
▁Making	-9134
▁Places	-9135
▁Recent	-9136
▁Server	-9137
▁boards	-9138
▁emails	-9139
▁harder	-9140
▁indeed	-9141
▁packed	-9142
▁remark	-9143
▁resume	-9144
▁stages	-9145
▁wiring	-9146
▁heating	-9147
▁obvious	-9148
▁secured	-9149
▁trailer	-9150
▁viewing	-9151
▁Manufact	-9152
▁Material	-9153
▁Official	-9154
▁engaging	-9155
▁episodes	-9156
▁findings	-9157
▁Entertain	-9158
▁Halloween	-9159
▁signature	-9160
▁wondering	-9161
▁competitors	-9162
▁initiatives	-9163
▁interaction	-9164
▁environments	-9165
SL	-9166
Sp	-9167
Un	-9168
aug	-9169
iag	-9170
▁GP	-9171
▁TX	-9172
▁od	-9173
ania	-9174
athy	-9175
host	-9176
uous	-9177
week	-9178
▁Mir	-9179
▁aer	-9180
▁hun	-9181
▁zip	-9182
agers	-9183
erals	-9184
regon	-9185
▁Dark	-9186
▁Jess	-9187
▁Leon	-9188
▁Prop	-9189
▁Requ	-9190
▁obst	-9191
▁unif	-9192
▁ware	-9193
ailand	-9194
incess	-9195
▁Advis	-9196
▁imper	-9197
▁resid	-9198
henomen	-9199
ropical	-9200
▁Prince	-9201
▁borrow	-9202
▁guides	-9203
▁meters	-9204
ancouver	-9205
▁Capital	-9206
▁Outdoor	-9207
▁Schools	-9208
▁Tickets	-9209
▁analyst	-9210
▁claimed	-9211
▁cooling	-9212
▁formats	-9213
▁picking	-9214
▁tourism	-9215
▁unknown	-9216
ationally	-9217
▁gathered	-9218
▁involves	-9219
▁vertical	-9220
▁Alexander	-9221
▁employers	-9222
▁newspaper	-9223
▁overnight	-9224
▁promoting	-9225
▁appliances	-9226
▁applicable	-9227
▁possibility	-9228
▁Pennsylvania	-9229
▁arrangements	-9230
▁compensation	-9231
▁characteristics	-9232
wr	-9233
pat	-9234
▁CS	-9235
iami	-9236
offe	-9237
step	-9238
tons	-9239
▁16,	-9240
▁cab	-9241
▁ore	-9242
ensus	-9243
rylic	-9244
uties	-9245
▁1940	-9246
▁2021	-9247
▁Ever	-9248
▁hate	-9249
stract	-9250
▁Andre	-9251
▁Anton	-9252
▁Categ	-9253
▁Speed	-9254
▁Study	-9255
▁bands	-9256
▁plane	-9257
▁Regist	-9258
▁Turkey	-9259
▁insert	-9260
▁quotes	-9261
hematics	-9262
▁burning	-9263
▁granted	-9264
▁letting	-9265
▁seating	-9266
▁Malaysia	-9267
▁aluminum	-9268
▁displays	-9269
▁proposal	-9270
▁renowned	-9271
▁speakers	-9272
▁Marketing	-9273
▁operators	-9274
▁advantages	-9275
▁surprising	-9276
▁transmission	-9277
68	-9278
__	-9279
CAA	-9280
lon	-9281
ubs	-9282
▁Ec	-9283
▁Hu	-9284
▁IC	-9285
▁OK	-9286
-200	-9287
aron	-9288
fers	-9289
phia	-9290
▁Fox	-9291
▁III	-9292
▁bab	-9293
▁ear	-9294
▁gre	-9295
▁hyp	-9296
amins	-9297
mates	-9298
▁Beat	-9299
▁Dead	-9300
▁Roll	-9301
▁dent	-9302
▁hell	-9303
▁hung	-9304
▁keys	-9305
earing	-9306
giving	-9307
mented	-9308
season	-9309
▁Girls	-9310
▁Hello	-9311
▁alter	-9312
▁lemon	-9313
▁shelf	-9314
▁yield	-9315
working	-9316
▁diplom	-9317
▁Brother	-9318
▁Officer	-9319
▁Seattle	-9320
▁deserve	-9321
▁divided	-9322
▁falling	-9323
▁massage	-9324
▁venture	-9325
▁vibrant	-9326
▁enhanced	-9327
▁supplier	-9328
▁basically	-9329
▁prominent	-9330
▁replacing	-9331
▁consultant	-9332
▁containing	-9333
▁Certificate	-9334
▁complicated	-9335
▁discussions	-9336
▁Architecture	-9337
▁confidential	-9338
',	-9339
64	-9340
OO	-9341
SW	-9342
ez	-9343
And	-9344
hou	-9345
rus	-9346
sey	-9347
▁#1	-9348
▁3:	-9349
▁9,	-9350
▁BR	-9351
▁DJ	-9352
▁EN	-9353
▁Py	-9354
What	-9355
aria	-9356
oked	-9357
oned	-9358
oper	-9359
▁Ale	-9360
▁Bah	-9361
▁Gre	-9362
▁Ped	-9363
▁Rot	-9364
▁fib	-9365
▁pix	-9366
▁Bush	-9367
▁Date	-9368
▁Door	-9369
▁Turk	-9370
▁cere	-9371
▁neut	-9372
▁Among	-9373
▁Model	-9374
▁pione	-9375
▁Inside	-9376
▁Oregon	-9377
▁advise	-9378
▁shapes	-9379
ffective	-9380
▁Belgium	-9381
▁Restaur	-9382
▁artwork	-9383
▁assured	-9384
▁circuit	-9385
▁underst	-9386
▁Creative	-9387
▁Interior	-9388
▁Thailand	-9389
▁refriger	-9390
▁remained	-9391
▁removing	-9392
▁repeated	-9393
▁suggests	-9394
▁favorites	-9395
▁mountains	-9396
▁completing	-9397
▁legislation	-9398
▁lightweight	-9399
▁conservation	-9400
▁representing	-9401
54	-9402
HA	-9403
és	-9404
rix	-9405
▁Rh	-9406
▁SD	-9407
agle	-9408
iche	-9409
odge	-9410
unal	-9411
zona	-9412
▁13.	-9413
▁DIY	-9414
▁PRO	-9415
attan	-9416
▁Comb	-9417
▁Hamp	-9418
▁Rand	-9419
▁Tech	-9420
▁belt	-9421
▁moon	-9422
▁puzz	-9423
angers	-9424
▁Chall	-9425
▁Lewis	-9426
▁Plant	-9427
▁Swiss	-9428
▁aimed	-9429
▁fault	-9430
▁remem	-9431
▁smoke	-9432
▁wider	-9433
▁Nature	-9434
▁advent	-9435
▁drying	-9436
▁gotten	-9437
▁prayer	-9438
▁sexual	-9439
▁2019–20	-9440
▁exposed	-9441
▁pockets	-9442
▁reserve	-9443
▁settled	-9444
▁wanting	-9445
▁Agricult	-9446
▁commands	-9447
▁constitu	-9448
▁disaster	-9449
▁fabulous	-9450
▁keyboard	-9451
▁operates	-9452
▁pleasant	-9453
▁province	-9454
▁resident	-9455
▁romantic	-9456
▁Indonesia	-9457
▁Louisiana	-9458
▁WordPress	-9459
▁workplace	-9460
▁Application	-9461
▁manufactured	-9462
TC	-9463
uj	-9464
nie	-9465
oyd	-9466
▁Ug	-9467
alia	-9468
iley	-9469
oken	-9470
onna	-9471
uten	-9472
▁Cos	-9473
▁Cow	-9474
▁Nat	-9475
▁mob	-9476
arest	-9477
riers	-9478
▁Gree	-9479
▁Must	-9480
▁Verm	-9481
▁cher	-9482
▁toys	-9483
▁twin	-9484
ingham	-9485
orship	-9486
semble	-9487
▁2011.	-9488
▁Miami	-9489
amental	-9490
ocation	-9491
▁Fellow	-9492
▁breath	-9493
▁headed	-9494
▁ranked	-9495
▁sensor	-9496
adelphia	-9497
unicipal	-9498
▁visitor	-9499
▁basement	-9500
▁attorneys	-9501
▁finishing	-9502
▁installing	-9503
▁contributed	-9504
vo	-9505
oen	-9506
▁5-	-9507
▁eB	-9508
airy	-9509
ogen	-9510
walk	-9511
▁11,	-9512
▁Bag	-9513
▁Kit	-9514
▁Sha	-9515
▁Sir	-9516
stall	-9517
ureau	-9518
▁Diam	-9519
▁Move	-9520
▁Sure	-9521
▁Vice	-9522
▁laid	-9523
▁susp	-9524
covery	-9525
ijuana	-9526
▁Brian	-9527
▁Kings	-9528
▁Story	-9529
▁fleet	-9530
▁fraud	-9531
▁holes	-9532
▁prest	-9533
▁semin	-9534
▁smell	-9535
▁surve	-9536
pending	-9537
▁Poland	-9538
▁baking	-9539
▁copies	-9540
▁deeply	-9541
▁faucet	-9542
▁floral	-9543
▁funded	-9544
▁fundra	-9545
▁judges	-9546
▁Amazing	-9547
▁Defense	-9548
▁anymore	-9549
▁cultures	-9550
▁grateful	-9551
unicipality	-9552
▁newsletter	-9553
▁revolution	-9554
▁surrounded	-9555
▁attractions	-9556
▁restoration	-9557
▁Philadelphia	-9558
▁Sportspeople	-9559
▁personalized	-9560
51	-9561
59	-9562
62	-9563
94	-9564
MI	-9565
TR	-9566
tw	-9567
aud	-9568
boy	-9569
olo	-9570
she	-9571
▁CL	-9572
▁IF	-9573
▁Kl	-9574
▁TR	-9575
▁id	-9576
high	-9577
ints	-9578
rets	-9579
▁Bon	-9580
▁Fig	-9581
▁Lot	-9582
▁Mas	-9583
▁Nik	-9584
▁Was	-9585
onder	-9586
otted	-9587
words	-9588
▁Born	-9589
▁Pain	-9590
▁boss	-9591
▁bron	-9592
▁sear	-9593
▁stir	-9594
▁unus	-9595
ellite	-9596
encing	-9597
icious	-9598
iented	-9599
ortion	-9600
ricted	-9601
▁Along	-9602
▁Daily	-9603
▁Hills	-9604
▁Homes	-9605
▁Marsh	-9606
▁Psych	-9607
ruption	-9608
▁Argent	-9609
▁Castle	-9610
▁Cooper	-9611
▁excite	-9612
▁fought	-9613
▁poetry	-9614
▁sheets	-9615
▁Arizona	-9616
▁Stadium	-9617
▁auction	-9618
▁catalog	-9619
▁tonight	-9620
▁Computer	-9621
▁combines	-9622
▁delivers	-9623
▁phenomen	-9624
▁withdraw	-9625
▁Biography	-9626
▁Hampshire	-9627
▁Transport	-9628
▁contained	-9629
▁accordance	-9630
▁apparently	-9631
▁mechanical	-9632
▁opposition	-9633
▁vulnerable	-9634
▁Performance	-9635
▁arrangement	-9636
▁distributed	-9637
▁efficiently	-9638
▁placeholder	-9639
▁translation	-9640
?!	-9641
EE	-9642
New	-9643
dep	-9644
rac	-9645
▁tv	-9646
olly	-9647
▁13,	-9648
▁Coc	-9649
▁Dun	-9650
ceeds	-9651
iller	-9652
rants	-9653
▁Feel	-9654
▁Nort	-9655
▁Pitt	-9656
▁Race	-9657
▁Rain	-9658
▁cous	-9659
▁ille	-9660
▁isol	-9661
▁lawn	-9662
▁mild	-9663
arring	-9664
▁false	-9665
▁globe	-9666
▁promo	-9667
▁react	-9668
▁towel	-9669
▁width	-9670
▁drinks	-9671
▁guilty	-9672
▁newest	-9673
▁temple	-9674
▁twenty	-9675
▁Premier	-9676
▁amongst	-9677
▁amounts	-9678
▁applies	-9679
▁experim	-9680
▁intense	-9681
▁largely	-9682
▁privile	-9683
▁restore	-9684
▁watched	-9685
▁western	-9686
mentation	-9687
▁Exchange	-9688
▁distingu	-9689
▁frequent	-9690
▁Currently	-9691
▁Political	-9692
▁Vancouver	-9693
▁engineers	-9694
▁exercises	-9695
▁occasions	-9696
▁retailers	-9697
▁secondary	-9698
▁specified	-9699
▁approaches	-9700
▁sufficient	-9701
▁developments	-9702
▁possibilities	-9703
pg	-9704
-12	-9705
aga	-9706
dam	-9707
ito	-9708
oli	-9709
▁(0	-9710
▁DE	-9711
▁RO	-9712
▁Si	-9713
aret	-9714
aura	-9715
erto	-9716
from	-9717
hour	-9718
oche	-9719
onic	-9720
▁20,	-9721
▁ALL	-9722
▁Aqu	-9723
▁Bib	-9724
▁Gun	-9725
▁Sud	-9726
▁von	-9727
bered	-9728
ontal	-9729
rible	-9730
ridge	-9731
▁1997	-9732
▁Hold	-9733
▁Rick	-9734
▁Upon	-9735
▁cogn	-9736
▁pour	-9737
▁wake	-9738
ieties	-9739
▁Fight	-9740
▁Nepal	-9741
▁align	-9742
▁balls	-9743
▁crisp	-9744
▁pizza	-9745
▁steam	-9746
▁taxes	-9747
naments	-9748
ributes	-9749
▁Action	-9750
▁Manual	-9751
▁cooked	-9752
▁defeat	-9753
▁loaded	-9754
▁refuge	-9755
▁sought	-9756
▁Several	-9757
▁Writing	-9758
▁beaches	-9759
▁compact	-9760
▁editing	-9761
▁suspect	-9762
▁warning	-9763
▁washing	-9764
▁Property	-9765
▁dressing	-9766
▁relative	-9767
▁releases	-9768
▁vitamins	-9769
▁chemicals	-9770
▁developer	-9771
▁followers	-9772
▁principal	-9773
▁screening	-9774
▁curriculum	-9775
▁medication	-9776
▁popularity	-9777
▁implemented	-9778
▁consequences	-9779
▁publications	-9780
▁transactions	-9781
▁Entertainment	-9782
▁representation	-9783
Pl	-9784
RL	-9785
gi	-9786
ERS	-9787
cor	-9788
oty	-9789
sis	-9790
▁PR	-9791
abil	-9792
iere	-9793
ping	-9794
▁Dom	-9795
▁Fle	-9796
▁Him	-9797
▁Nin	-9798
▁Rud	-9799
▁bub	-9800
enter	-9801
▁Kind	-9802
▁Pick	-9803
▁calm	-9804
▁caps	-9805
▁fert	-9806
▁fing	-9807
▁flaw	-9808
▁iPad	-9809
▁loop	-9810
▁sees	-9811
iology	-9812
minute	-9813
oustic	-9814
overty	-9815
ussion	-9816
▁Hawai	-9817
▁Level	-9818
▁liber	-9819
▁plain	-9820
▁scope	-9821
▁stack	-9822
▁toler	-9823
▁Donald	-9824
▁Really	-9825
▁Return	-9826
▁extent	-9827
▁fruits	-9828
▁grocer	-9829
▁pollut	-9830
▁superb	-9831
▁tissue	-9832
▁worker	-9833
▁Captain	-9834
▁curious	-9835
▁optimal	-9836
▁samples	-9837
▁threats	-9838
▁annually	-9839
▁diameter	-9840
▁emerging	-9841
▁precious	-9842
▁shoulder	-9843
▁Condition	-9844
▁Technical	-9845
▁diversity	-9846
▁intellect	-9847
▁medalists	-9848
▁processor	-9849
▁Everything	-9850
▁footballer	-9851
▁constructed	-9852
▁instruments	-9853
▁announcement	-9854
vd	-9855
EST	-9856
htt	-9857
iac	-9858
log	-9859
oto	-9860
▁04	-9861
▁1-	-9862
▁44	-9863
▁46	-9864
▁Az	-9865
▁FR	-9866
▁UP	-9867
▁Wr	-9868
comm	-9869
gets	-9870
inos	-9871
mont	-9872
otes	-9873
▁Ali	-9874
▁Bry	-9875
▁Gab	-9876
▁Hey	-9877
▁Inn	-9878
▁Var	-9879
▁pic	-9880
chair	-9881
isure	-9882
nered	-9883
store	-9884
▁Core	-9885
▁chip	-9886
▁stem	-9887
ultane	-9888
▁Break	-9889
▁Liter	-9890
▁aband	-9891
▁bills	-9892
▁cloth	-9893
▁nutri	-9894
chestra	-9895
▁Cancer	-9896
▁Oracle	-9897
▁anyway	-9898
▁broker	-9899
▁combat	-9900
▁fitted	-9901
▁garlic	-9902
▁pulled	-9903
▁spokes	-9904
▁Nigeria	-9905
▁advised	-9906
▁coconut	-9907
▁cricket	-9908
▁earning	-9909
▁powered	-9910
▁summary	-9911
▁confront	-9912
▁outdoors	-9913
▁overview	-9914
▁directory	-9915
▁donations	-9916
▁estimates	-9917
▁decorative	-9918
▁electricity	-9919
▁examination	-9920
▁transferred	-9921
▁extraordinary	-9922
UD	-9923
pa	-9924
uy	-9925
AND	-9926
esy	-9927
rob	-9928
▁GA	-9929
angh	-9930
avor	-9931
onge	-9932
rena	-9933
rend	-9934
rosc	-9935
▁14,	-9936
▁Alf	-9937
▁Bat	-9938
▁Bit	-9939
▁pdf	-9940
antry	-9941
edded	-9942
organ	-9943
power	-9944
speed	-9945
▁Cher	-9946
▁Mall	-9947
▁NCAA	-9948
▁bell	-9949
▁encl	-9950
▁hasn	-9951
▁inse	-9952
▁oral	-9953
▁pace	-9954
▁puts	-9955
▁tube	-9956
▁vari	-9957
▁ward	-9958
▁Clark	-9959
▁Craft	-9960
▁Exhib	-9961
▁alike	-9962
▁opera	-9963
▁reply	-9964
▁votes	-9965
selling	-9966
▁Photos	-9967
▁dealer	-9968
▁deeper	-9969
▁exists	-9970
▁folder	-9971
▁prints	-9972
▁pursue	-9973
▁titles	-9974
▁Explore	-9975
▁Reserve	-9976
▁damages	-9977
▁harvest	-9978
▁lasting	-9979
▁scoring	-9980
▁duration	-9981
▁moisture	-9982
▁opinions	-9983
▁produces	-9984
▁prosecut	-9985
▁resulted	-9986
▁strongly	-9987
▁targeted	-9988
▁associate	-9989
▁conscious	-9990
▁indicated	-9991
▁investing	-9992
▁artificial	-9993
▁interviews	-9994
▁respective	-9995
▁statements	-9996
▁thoroughly	-9997
▁accompanied	-9998
▁specialized	-9999
▁conditioning	-10000
▁Certification	-10001
PL	-10002
sk	-10003
ti	-10004
▁39	-10005
▁GM	-10006
▁Ky	-10007
▁Ts	-10008
▁WW	-10009
aded	-10010
aire	-10011
onda	-10012
racy	-10013
rons	-10014
zech	-10015
▁COM	-10016
▁Dor	-10017
▁Roy	-10018
▁ink	-10019
▁sed	-10020
etary	-10021
group	-10022
▁Mini	-10023
▁cats	-10024
▁cock	-10025
▁cord	-10026
▁keen	-10027
▁lady	-10028
▁myth	-10029
▁scar	-10030
abling	-10031
writer	-10032
▁Carib	-10033
▁Schol	-10034
▁greet	-10035
▁handy	-10036
▁overl	-10037
▁relay	-10038
▁swing	-10039
▁Morris	-10040
▁aggreg	-10041
▁finger	-10042
▁flying	-10043
▁module	-10044
▁plates	-10045
▁portal	-10046
▁robust	-10047
▁seller	-10048
▁towels	-10049
▁Channel	-10050
▁Islands	-10051
▁bedding	-10052
▁mistake	-10053
▁qualify	-10054
▁rolling	-10055
▁shelves	-10056
▁Advanced	-10057
▁Analysis	-10058
▁declared	-10059
▁estimate	-10060
▁insights	-10061
▁religion	-10062
▁reviewed	-10063
▁showcase	-10064
▁sleeping	-10065
▁Cambridge	-10066
▁computers	-10067
▁processed	-10068
▁versatile	-10069
▁Production	-10070
▁consulting	-10071
▁protecting	-10072
▁accommodate	-10073
▁exclusively	-10074
▁operational	-10075
▁entertaining	-10076
▁subscription	-10077
▁documentation	-10078
RP	-10079
hr	-10080
300	-10081
VID	-10082
olk	-10083
yes	-10084
▁AW	-10085
▁PL	-10086
▁SW	-10087
▁ax	-10088
▁sq	-10089
anth	-10090
fish	-10091
quet	-10092
that	-10093
ylon	-10094
▁Dim	-10095
▁bio	-10096
▁fer	-10097
▁gig	-10098
▁roy	-10099
asket	-10100
wered	-10101
▁(199	-10102
▁Cele	-10103
▁Circ	-10104
▁Gord	-10105
▁Sets	-10106
▁Spec	-10107
▁cong	-10108
▁frag	-10109
▁rede	-10110
▁sung	-10111
atable	-10112
boards	-10113
▁Attor	-10114
▁Death	-10115
▁Krist	-10116
▁Sarah	-10117
▁olive	-10118
▁overs	-10119
▁tired	-10120
berries	-10121
▁Dining	-10122
▁Events	-10123
▁talked	-10124
▁bearing	-10125
▁decline	-10126
▁enabled	-10127
▁gardens	-10128
▁hunting	-10129
▁locally	-10130
▁Birthday	-10131
▁Nigerian	-10132
▁organize	-10133
▁reaction	-10134
▁somewhat	-10135
▁liability	-10136
▁passenger	-10137
▁purchases	-10138
▁telephone	-10139
▁renovation	-10140
▁conventional	-10141
▁independence	-10142
TI	-10143
ILL	-10144
UST	-10145
iot	-10146
▁65	-10147
▁Ot	-10148
▁WA	-10149
acht	-10150
azed	-10151
card	-10152
ummy	-10153
wart	-10154
wick	-10155
▁Jer	-10156
▁Rom	-10157
▁hel	-10158
▁lin	-10159
ctive	-10160
isdom	-10161
month	-10162
owned	-10163
▁Marg	-10164
▁Rome	-10165
▁Used	-10166
▁dess	-10167
▁pipe	-10168
▁warn	-10169
▁wrap	-10170
assion	-10171
iatric	-10172
inking	-10173
itects	-10174
rovers	-10175
▁2010.	-10176
▁Apply	-10177
▁Metro	-10178
▁coins	-10179
▁Justin	-10180
▁assume	-10181
▁equity	-10182
▁routes	-10183
▁shades	-10184
▁surely	-10185
▁Affairs	-10186
▁Command	-10187
▁inspect	-10188
▁Particip	-10189
▁admitted	-10190
▁relaxing	-10191
▁Pinterest	-10192
▁admission	-10193
▁campaigns	-10194
▁contracts	-10195
▁franchise	-10196
▁machinery	-10197
▁precision	-10198
▁realistic	-10199
▁Industrial	-10200
▁disability	-10201
▁parameters	-10202
▁strengthen	-10203
▁investments	-10204
▁consistently	-10205
▁respectively	-10206
61	-10207
EX	-10208
▁а	-10209
rif	-10210
uru	-10211
▁Op	-10212
▁Wy	-10213
▁ru	-10214
enez	-10215
iang	-10216
iary	-10217
olds	-10218
pany	-10219
tail	-10220
town	-10221
▁191	-10222
▁Cop	-10223
▁Emb	-10224
▁Kal	-10225
▁Pas	-10226
essed	-10227
ormal	-10228
oscow	-10229
ospel	-10230
▁Five	-10231
▁Fram	-10232
▁Hart	-10233
▁Java	-10234
▁Mail	-10235
▁Self	-10236
▁Side	-10237
▁drum	-10238
anship	-10239
ervous	-10240
screen	-10241
▁Paper	-10242
▁alert	-10243
▁blogs	-10244
▁desce	-10245
▁hosts	-10246
▁mouse	-10247
▁straw	-10248
▁wound	-10249
assador	-10250
▁Estate	-10251
▁Oxford	-10252
▁Palace	-10253
▁Quebec	-10254
▁Single	-10255
▁Temple	-10256
▁drives	-10257
▁hearts	-10258
▁strive	-10259
▁Remodel	-10260
▁anxiety	-10261
▁console	-10262
▁credits	-10263
▁entries	-10264
▁footage	-10265
▁nations	-10266
▁vendors	-10267
▁Jennifer	-10268
▁evaluate	-10269
▁addressed	-10270
▁analytics	-10271
▁designing	-10272
▁responded	-10273
▁struggling	-10274
▁fundamental	-10275
▁institution	-10276
▁instruction	-10277
▁substantial	-10278
▁architectural	-10279
▁knowledgeable	-10280
")	-10281
57	-10282
63	-10283
89	-10284
aro	-10285
imp	-10286
jan	-10287
nai	-10288
sor	-10289
▁AV	-10290
▁DO	-10291
▁Ga	-10292
atin	-10293
bits	-10294
dale	-10295
ghan	-10296
▁DNA	-10297
▁Kay	-10298
▁Sug	-10299
▁rum	-10300
ested	-10301
gener	-10302
rator	-10303
▁1964	-10304
▁Barn	-10305
▁Cape	-10306
▁Doll	-10307
▁Mans	-10308
▁chef	-10309
▁perm	-10310
▁scal	-10311
▁sour	-10312
▁Dubai	-10313
▁Liver	-10314
▁buyer	-10315
▁fewer	-10316
▁inher	-10317
▁tries	-10318
▁ultra	-10319
▁boasts	-10320
▁courts	-10321
▁decent	-10322
▁frozen	-10323
▁tablet	-10324
▁Ukraine	-10325
▁coupons	-10326
▁equally	-10327
▁shortly	-10328
▁Bachelor	-10329
▁attitude	-10330
▁colleges	-10331
▁colorful	-10332
▁entitled	-10333
▁musician	-10334
▁promises	-10335
▁wildlife	-10336
▁audiences	-10337
▁customize	-10338
▁describes	-10339
▁hopefully	-10340
▁integrity	-10341
▁pregnancy	-10342
▁navigation	-10343
▁parliament	-10344
▁demonstrate	-10345
▁departments	-10346
▁reliability	-10347
▁partnerships	-10348
69	-10349
CP	-10350
FS	-10351
HL	-10352
ho	-10353
km	-10354
uv	-10355
TER	-10356
obb	-10357
▁je	-10358
osph	-10359
otte	-10360
▁11.	-10361
▁Alb	-10362
▁Ave	-10363
▁Fer	-10364
▁Row	-10365
▁cer	-10366
▁gam	-10367
▁jam	-10368
▁odd	-10369
dings	-10370
lined	-10371
ushes	-10372
▁Boys	-10373
▁Chel	-10374
▁Fran	-10375
▁Hair	-10376
▁Pear	-10377
▁conj	-10378
▁jazz	-10379
▁slip	-10380
▁snap	-10381
ctuary	-10382
▁Blues	-10383
▁Delhi	-10384
▁piano	-10385
lington	-10386
▁Bulgar	-10387
▁Parent	-10388
▁Record	-10389
▁Simple	-10390
▁Tigers	-10391
▁charts	-10392
▁cosmet	-10393
▁holder	-10394
▁intrig	-10395
▁tender	-10396
▁voters	-10397
▁Chamber	-10398
▁Patrick	-10399
▁Success	-10400
▁dancing	-10401
▁encount	-10402
▁formula	-10403
▁grounds	-10404
▁roughly	-10405
▁sectors	-10406
▁survive	-10407
▁Coloring	-10408
▁Lawrence	-10409
▁Pictures	-10410
▁hesitate	-10411
▁receives	-10412
▁Authority	-10413
▁Copyright	-10414
▁Resources	-10415
▁gathering	-10416
▁luxurious	-10417
▁nominated	-10418
▁obviously	-10419
▁resistant	-10420
▁simultane	-10421
▁sponsored	-10422
▁Commercial	-10423
▁capability	-10424
▁incorporate	-10425
▁measurement	-10426
▁restrictions	-10427
CD	-10428
Hz	-10429
PP	-10430
Qu	-10431
ELL	-10432
▁4:	-10433
▁AI	-10434
▁IV	-10435
lies	-10436
raul	-10437
▁25,	-10438
▁McG	-10439
▁Moh	-10440
▁Mun	-10441
▁Pun	-10442
▁ans	-10443
▁bay	-10444
named	-10445
plant	-10446
stock	-10447
▁1930	-10448
▁1988	-10449
▁2022	-10450
▁Docu	-10451
▁Lady	-10452
▁Lank	-10453
▁Tele	-10454
▁Text	-10455
▁True	-10456
azines	-10457
market	-10458
▁2007.	-10459
▁Bring	-10460
▁Could	-10461
▁Grace	-10462
▁Intel	-10463
▁Plans	-10464
▁Solid	-10465
▁roast	-10466
▁slide	-10467
ishment	-10468
issions	-10469
▁Battle	-10470
▁Edward	-10471
▁Hunter	-10472
▁Miller	-10473
▁Moscow	-10474
▁Shower	-10475
▁clinic	-10476
▁legacy	-10477
▁lyrics	-10478
▁mixing	-10479
▁oldest	-10480
▁settle	-10481
▁tradem	-10482
▁Congrat	-10483
▁Meeting	-10484
▁accused	-10485
▁bottles	-10486
▁crystal	-10487
▁eastern	-10488
▁fabrics	-10489
▁poverty	-10490
ilitation	-10491
▁Province	-10492
▁engineer	-10493
▁operator	-10494
▁striking	-10495
▁surfaces	-10496
▁Published	-10497
▁Treatment	-10498
▁delighted	-10499
▁expanding	-10500
▁universal	-10501
▁automation	-10502
▁Independent	-10503
▁undergraduate	-10504
43	-10505
EA	-10506
MW	-10507
ey	-10508
gs	-10509
ée	-10510
IST	-10511
aba	-10512
die	-10513
har	-10514
lie	-10515
ohn	-10516
zed	-10517
▁Ca	-10518
coin	-10519
phan	-10520
ques	-10521
this	-10522
vard	-10523
▁1.5	-10524
▁20%	-10525
▁28,	-10526
▁Ark	-10527
▁Bor	-10528
▁Der	-10529
▁Eve	-10530
▁Kon	-10531
▁NFL	-10532
▁bol	-10533
bling	-10534
ppers	-10535
shirt	-10536
stick	-10537
track	-10538
uster	-10539
▁Coun	-10540
▁Tony	-10541
▁cann	-10542
▁lens	-10543
▁rend	-10544
▁wins	-10545
▁wise	-10546
ussels	-10547
▁Simon	-10548
▁Staff	-10549
▁Third	-10550
▁Veter	-10551
▁gauge	-10552
▁stays	-10553
▁voted	-10554
▁weigh	-10555
▁Anyone	-10556
▁Doctor	-10557
▁Greece	-10558
▁Resort	-10559
▁Things	-10560
▁abroad	-10561
▁browse	-10562
▁christ	-10563
▁define	-10564
▁layers	-10565
▁soccer	-10566
fections	-10567
▁Between	-10568
▁Fashion	-10569
▁Railway	-10570
▁killing	-10571
▁modules	-10572
▁reduces	-10573
▁tourist	-10574
▁Bookmark	-10575
▁semester	-10576
▁thousand	-10577
▁troubles	-10578
▁abilities	-10579
▁converted	-10580
▁discovery	-10581
▁evolution	-10582
▁impressed	-10583
▁specially	-10584
▁territory	-10585
▁Individual	-10586
▁Leadership	-10587
▁excitement	-10588
▁Furthermore	-10589
▁encouraging	-10590
▁contribution	-10591
▁occasionally	-10592
▁identification	-10593
▁transformation	-10594
GO	-10595
On	-10596
Or	-10597
obs	-10598
oda	-10599
sea	-10600
▁(3	-10601
game	-10602
orks	-10603
rant	-10604
stop	-10605
▁Dal	-10606
▁Six	-10607
▁Tru	-10608
athon	-10609
idges	-10610
lects	-10611
uther	-10612
▁1984	-10613
▁1993	-10614
▁Mess	-10615
▁Prep	-10616
▁Rent	-10617
▁Ross	-10618
▁Wire	-10619
▁libr	-10620
▁sits	-10621
▁soap	-10622
ceived	-10623
erving	-10624
malink	-10625
▁Coffe	-10626
▁Czech	-10627
▁Dance	-10628
▁Jason	-10629
▁Legal	-10630
▁Mayor	-10631
▁angle	-10632
▁domin	-10633
▁poker	-10634
▁Advent	-10635
▁Alumni	-10636
▁breaks	-10637
▁festiv	-10638
▁rescue	-10639
▁Culture	-10640
▁Jewelry	-10641
▁Masters	-10642
▁Springs	-10643
▁chronic	-10644
▁comprom	-10645
▁landing	-10646
▁outcome	-10647
▁premier	-10648
▁surname	-10649
▁theater	-10650
▁Comments	-10651
▁Heritage	-10652
▁emphasis	-10653
▁Caribbean	-10654
▁Equipment	-10655
▁synthetic	-10656
▁collecting	-10657
▁supporters	-10658
▁appreciated	-10659
▁fascinating	-10660
▁continuously	-10661
▁specifications	-10662
52	-10663
Up	-10664
All	-10665
eld	-10666
lee	-10667
rot	-10668
▁52	-10669
▁Om	-10670
▁VP	-10671
▁na	-10672
abad	-10673
acle	-10674
case	-10675
hyth	-10676
prof	-10677
▁14.	-10678
▁Haz	-10679
▁Kil	-10680
▁Nev	-10681
▁Tea	-10682
▁diy	-10683
guard	-10684
immer	-10685
oenix	-10686
opher	-10687
unate	-10688
▁Budd	-10689
▁Cart	-10690
▁Crew	-10691
▁Dean	-10692
▁Deep	-10693
▁Gary	-10694
▁Gran	-10695
▁Much	-10696
▁Name	-10697
▁Salt	-10698
▁crop	-10699
▁gamb	-10700
▁glob	-10701
▁vine	-10702
▁wing	-10703
cribed	-10704
ruptcy	-10705
▁2011,	-10706
▁Fresh	-10707
▁divor	-10708
▁manif	-10709
▁recon	-10710
▁sorry	-10711
▁tiles	-10712
▁Casino	-10713
▁commit	-10714
▁convey	-10715
▁venues	-10716
itations	-10717
▁buttons	-10718
▁cycling	-10719
▁easiest	-10720
▁muscles	-10721
▁worship	-10722
▁Alliance	-10723
▁employed	-10724
▁mistakes	-10725
▁modified	-10726
▁overcome	-10727
▁quantity	-10728
▁uploaded	-10729
▁wherever	-10730
▁dependent	-10731
▁existence	-10732
▁infection	-10733
▁permalink	-10734
▁adjustable	-10735
▁apartments	-10736
▁compatible	-10737
▁connecting	-10738
▁controvers	-10739
▁designated	-10740
▁motorcycle	-10741
▁acquisition	-10742
▁celebrating	-10743
▁cooperation	-10744
▁technicians	-10745
▁Environmental	-10746
65	-10747
Is	-10748
aft	-10749
ipt	-10750
cycl	-10751
flix	-10752
isan	-10753
pool	-10754
vity	-10755
▁Jay	-10756
▁Nob	-10757
▁gap	-10758
allel	-10759
angel	-10760
annah	-10761
isted	-10762
rooms	-10763
▁$100	-10764
▁Kenn	-10765
▁Mand	-10766
▁Path	-10767
▁Virt	-10768
▁beef	-10769
▁bran	-10770
▁dash	-10771
▁exit	-10772
▁nail	-10773
▁nose	-10774
estone	-10775
▁Cheap	-10776
▁Clear	-10777
▁Faith	-10778
▁Purch	-10779
▁Range	-10780
▁Trail	-10781
▁Years	-10782
▁hills	-10783
▁molec	-10784
▁walks	-10785
fulness	-10786
▁Choice	-10787
▁Empire	-10788
▁Palest	-10789
▁Posted	-10790
▁crafts	-10791
▁divide	-10792
▁latter	-10793
▁overse	-10794
▁strike	-10795
▁voting	-10796
aughters	-10797
▁Barbara	-10798
▁Reading	-10799
▁Vermont	-10800
▁nervous	-10801
▁shipped	-10802
▁targets	-10803
▁unusual	-10804
▁vessels	-10805
▁hardwood	-10806
▁supplied	-10807
▁automated	-10808
▁copyright	-10809
▁enjoyable	-10810
▁specialty	-10811
▁practition	-10812
▁programmes	-10813
▁travelling	-10814
▁appearances	-10815
/7	-10816
1%	-10817
SM	-10818
20.	-10819
ete	-10820
inf	-10821
mph	-10822
omi	-10823
raq	-10824
ugs	-10825
▁6-	-10826
best	-10827
cker	-10828
elli	-10829
onia	-10830
pled	-10831
pose	-10832
▁Chi	-10833
▁Fem	-10834
▁Fix	-10835
▁Hig	-10836
▁Lam	-10837
▁Nap	-10838
▁Vit	-10839
▁unp	-10840
▁wax	-10841
oding	-10842
▁Bird	-10843
▁Buff	-10844
▁Fast	-10845
▁Gulf	-10846
▁Heat	-10847
▁folk	-10848
▁gray	-10849
▁nest	-10850
▁sofa	-10851
▁span	-10852
▁tags	-10853
father	-10854
▁Allen	-10855
▁Appro	-10856
▁Craig	-10857
▁Money	-10858
▁Perry	-10859
▁Sheet	-10860
▁Songs	-10861
▁beans	-10862
▁edges	-10863
▁hyper	-10864
▁inhab	-10865
▁lease	-10866
▁paste	-10867
▁pools	-10868
▁rocks	-10869
▁tweet	-10870
ixtures	-10871
ometric	-10872
osystem	-10873
▁Galaxy	-10874
▁Marvel	-10875
▁Remove	-10876
▁bronze	-10877
▁caring	-10878
▁cement	-10879
▁crying	-10880
▁delete	-10881
▁jacket	-10882
▁recall	-10883
▁roster	-10884
▁Holiday	-10885
▁Stephen	-10886
▁acquire	-10887
▁carries	-10888
▁donated	-10889
▁trigger	-10890
ervations	-10891
▁adequate	-10892
▁adjacent	-10893
▁expanded	-10894
▁tropical	-10895
▁Excellent	-10896
▁encounter	-10897
▁instantly	-10898
▁printable	-10899
▁meaningful	-10900
▁enforcement	-10901
▁explanation	-10902
▁Communications	-10903
BO	-10904
PM	-10905
oz	-10906
ITH	-10907
▁42	-10908
emed	-10909
even	-10910
hoot	-10911
ican	-10912
rors	-10913
rous	-10914
unct	-10915
▁(17	-10916
▁15.	-10917
▁17,	-10918
▁22,	-10919
▁Lad	-10920
▁Wee	-10921
▁jaw	-10922
icals	-10923
ifted	-10924
▁1975	-10925
▁1986	-10926
▁Body	-10927
▁Chap	-10928
▁Fine	-10929
▁Jane	-10930
▁Lane	-10931
▁Less	-10932
▁Tell	-10933
▁Wolf	-10934
▁oils	-10935
▁ties	-10936
▁tune	-10937
master	-10938
ocracy	-10939
▁Apart	-10940
▁Excel	-10941
▁Stage	-10942
▁cakes	-10943
▁elder	-10944
▁ought	-10945
▁ratio	-10946
▁sized	-10947
▁slots	-10948
▁stood	-10949
▁waves	-10950
▁Orland	-10951
▁almond	-10952
▁balcon	-10953
▁passes	-10954
▁plugin	-10955
▁priced	-10956
▁stones	-10957
▁tackle	-10958
▁vacuum	-10959
▁wisdom	-10960
▁fiction	-10961
▁filters	-10962
▁flavors	-10963
▁highway	-10964
▁neither	-10965
▁nuclear	-10966
▁nursing	-10967
▁tension	-10968
▁Brooklyn	-10969
▁Complete	-10970
▁Shipping	-10971
▁actively	-10972
▁argument	-10973
▁educated	-10974
▁Challenge	-10975
▁locksmith	-10976
▁memorable	-10977
▁substance	-10978
▁expatriate	-10979
▁regulatory	-10980
▁importantly	-10981
▁prestigious	-10982
▁headquarters	-10983
▁intellectual	-10984
▁Congratulations	-10985
▁Representatives	-10986
/8	-10987
cat	-10988
cia	-10989
▁pc	-10990
anny	-10991
esty	-10992
ruit	-10993
▁Gig	-10994
▁McK	-10995
▁Yan	-10996
▁mud	-10997
lings	-10998
pport	-10999
white	-11000
▁Batt	-11001
▁Burn	-11002
▁Cell	-11003
▁Niss	-11004
▁Roof	-11005
▁Sony	-11006
▁Wine	-11007
▁bite	-11008
▁bulk	-11009
▁cott	-11010
▁disk	-11011
▁glow	-11012
▁math	-11013
▁nuts	-11014
apolis	-11015
author	-11016
bility	-11017
cticut	-11018
finals	-11019
▁1,000	-11020
▁Flash	-11021
▁Metal	-11022
▁Title	-11023
▁cyber	-11024
▁drove	-11025
▁pasta	-11026
▁porch	-11027
colspan	-11028
olesale	-11029
▁Albert	-11030
▁Bishop	-11031
▁Bureau	-11032
▁Coffee	-11033
▁Future	-11034
▁Landsc	-11035
▁Script	-11036
▁Visual	-11037
▁escape	-11038
▁hiking	-11039
▁junior	-11040
▁losses	-11041
▁parish	-11042
▁powers	-11043
▁refers	-11044
▁trails	-11045
▁unlock	-11046
▁waters	-11047
▁assists	-11048
▁dismiss	-11049
▁fastest	-11050
▁leisure	-11051
▁seventh	-11052
▁worried	-11053
irational	-11054
ividually	-11055
▁Atlantic	-11056
▁Designer	-11057
▁Kentucky	-11058
▁Together	-11059
▁answered	-11060
▁disorder	-11061
▁governor	-11062
▁navigate	-11063
▁tailored	-11064
ographical	-11065
▁Southeast	-11066
▁diagnosis	-11067
▁ownership	-11068
▁selecting	-11069
▁surprises	-11070
▁dedication	-11071
▁difficulty	-11072
▁influenced	-11073
▁physically	-11074
▁reportedly	-11075
▁governments	-11076
▁journalists	-11077
▁medications	-11078
▁verification	-11079
9%	-11080
hu	-11081
-18	-11082
How	-11083
ICE	-11084
gie	-11085
gov	-11086
uan	-11087
▁CF	-11088
▁Et	-11089
▁NJ	-11090
▁ic	-11091
acco	-11092
arel	-11093
emet	-11094
plus	-11095
rape	-11096
test	-11097
▁21,	-11098
▁360	-11099
▁Beh	-11100
▁Ger	-11101
▁USD	-11102
▁Zen	-11103
▁caf	-11104
▁pig	-11105
aceut	-11106
cover	-11107
ndant	-11108
scale	-11109
union	-11110
▁Anna	-11111
▁Coal	-11112
▁Cold	-11113
▁Iraq	-11114
▁NASA	-11115
▁Pant	-11116
▁dirt	-11117
▁gast	-11118
▁hill	-11119
▁hood	-11120
▁hors	-11121
▁mask	-11122
▁soup	-11123
▁tent	-11124
anghai	-11125
itutes	-11126
orious	-11127
▁flows	-11128
▁fluid	-11129
▁grill	-11130
borough	-11131
urities	-11132
▁Beauty	-11133
▁Carpet	-11134
▁Scient	-11135
▁Update	-11136
▁accent	-11137
▁donate	-11138
▁lounge	-11139
▁purple	-11140
▁referr	-11141
▁struck	-11142
▁trials	-11143
ographer	-11144
▁Element	-11145
▁affects	-11146
▁anytime	-11147
▁backing	-11148
▁cheaper	-11149
▁endless	-11150
▁illegal	-11151
▁inflamm	-11152
▁nearest	-11153
▁suspend	-11154
▁bacteria	-11155
▁earnings	-11156
▁integral	-11157
▁universe	-11158
▁variable	-11159
▁achieving	-11160
▁advertise	-11161
▁attempted	-11162
▁execution	-11163
▁recipient	-11164
▁applicants	-11165
▁complement	-11166
▁conclusion	-11167
▁invitation	-11168
▁journalist	-11169
▁remarkable	-11170
▁understood	-11171
▁conferences	-11172
▁participant	-11173
▁scholarship	-11174
▁subsequently	-11175
▁entrepreneurs	-11176
▁internationally	-11177
!”	-11178
HD	-11179
NY	-11180
No	-11181
án	-11182
▁’	-11183
600	-11184
bes	-11185
esc	-11186
▁($	-11187
▁41	-11188
▁DM	-11189
▁Ki	-11190
▁ME	-11191
▁MN	-11192
ante	-11193
ardo	-11194
enna	-11195
isms	-11196
orms	-11197
quer	-11198
▁(1)	-11199
▁17.	-11200
▁Dif	-11201
▁Dol	-11202
▁Jen	-11203
▁Vac	-11204
acter	-11205
after	-11206
atoes	-11207
aware	-11208
color	-11209
▁Crit	-11210
▁Days	-11211
▁Mang	-11212
▁Stop	-11213
▁bout	-11214
▁burg	-11215
▁chem	-11216
▁okay	-11217
▁pand	-11218
▁shoe	-11219
astern	-11220
hesive	-11221
linary	-11222
ricane	-11223
▁Block	-11224
▁Doors	-11225
▁Multi	-11226
▁chill	-11227
▁femin	-11228
▁rings	-11229
▁stair	-11230
▁tasty	-11231
▁tower	-11232
artered	-11233
▁Hockey	-11234
▁Puerto	-11235
▁Survey	-11236
▁cruise	-11237
▁divers	-11238
▁prizes	-11239
▁pushed	-11240
▁rarely	-11241
▁shirts	-11242
▁Phoenix	-11243
▁Weather	-11244
▁derived	-11245
▁interse	-11246
▁protest	-11247
▁relaxed	-11248
▁reverse	-11249
▁teaches	-11250
▁Moreover	-11251
▁floating	-11252
▁optional	-11253
▁pregnant	-11254
▁soldiers	-11255
▁treating	-11256
▁happiness	-11257
▁satellite	-11258
▁Restaurant	-11259
▁Throughout	-11260
▁attendance	-11261
▁subsequent	-11262
▁anticipated	-11263
OSE	-11264
bus	-11265
ikh	-11266
iva	-11267
ugg	-11268
xus	-11269
▁49	-11270
▁CM	-11271
▁MB	-11272
▁NA	-11273
▁Na	-11274
anne	-11275
atsu	-11276
geon	-11277
phic	-11278
thur	-11279
▁27,	-11280
▁Fat	-11281
▁Lyn	-11282
▁Tip	-11283
▁Tus	-11284
▁hem	-11285
▁rod	-11286
asion	-11287
quiry	-11288
reach	-11289
▁1992	-11290
▁1995	-11291
▁Airl	-11292
▁Bike	-11293
▁Bott	-11294
▁Nike	-11295
▁coin	-11296
lasses	-11297
▁2009.	-11298
▁Banks	-11299
▁Maint	-11300
▁Style	-11301
▁bones	-11302
▁dough	-11303
▁logic	-11304
▁resil	-11305
▁suits	-11306
ictions	-11307
ilation	-11308
mediate	-11309
▁Arabia	-11310
▁Better	-11311
▁Bright	-11312
▁Native	-11313
▁accred	-11314
▁cables	-11315
▁compan	-11316
▁vendor	-11317
▁violin	-11318
commerce	-11319
▁Awesome	-11320
▁Mission	-11321
▁Turkish	-11322
▁colored	-11323
▁fitting	-11324
▁granite	-11325
▁ranking	-11326
▁suicide	-11327
▁Athletic	-11328
▁Economic	-11329
▁Robinson	-11330
▁Whatever	-11331
▁disabled	-11332
▁dramatic	-11333
▁Relations	-11334
▁ecosystem	-11335
▁offerings	-11336
▁producers	-11337
▁Additional	-11338
▁nationwide	-11339
▁Installation	-11340
▁agricultural	-11341
▁commissioned	-11342
▁confirmation	-11343
▁demonstrated	-11344
▁incorporated	-11345
▁presidential	-11346
Do	-11347
GS	-11348
ALL	-11349
cci	-11350
gee	-11351
lad	-11352
lav	-11353
mad	-11354
xts	-11355
ère	-11356
▁CT	-11357
▁IL	-11358
▁Ow	-11359
▁kg	-11360
ahoo	-11361
aran	-11362
conf	-11363
icts	-11364
ippi	-11365
rose	-11366
▁23,	-11367
▁Sel	-11368
▁Vin	-11369
▁toy	-11370
emade	-11371
otion	-11372
table	-11373
▁Cole	-11374
▁Deal	-11375
▁Drug	-11376
▁Finn	-11377
▁Host	-11378
▁Mitc	-11379
▁Safe	-11380
▁Stra	-11381
▁Utah	-11382
▁Viet	-11383
▁buck	-11384
▁bund	-11385
▁caut	-11386
▁intu	-11387
▁slic	-11388
iating	-11389
▁Begin	-11390
▁Opera	-11391
▁Phill	-11392
▁Solar	-11393
▁Syria	-11394
▁Venez	-11395
▁accum	-11396
▁acres	-11397
▁admit	-11398
▁engra	-11399
▁minds	-11400
▁sorts	-11401
arrings	-11402
perform	-11403
quisite	-11404
ropract	-11405
▁agenda	-11406
▁assemb	-11407
▁babies	-11408
▁basics	-11409
▁copper	-11410
▁danger	-11411
▁dispos	-11412
▁steady	-11413
▁timely	-11414
▁vector	-11415
▁Harvard	-11416
▁Highway	-11417
▁Nothing	-11418
▁Orlando	-11419
▁Quarter	-11420
▁advisor	-11421
▁crafted	-11422
▁diagram	-11423
▁dressed	-11424
▁outlets	-11425
▁smoking	-11426
▁terrace	-11427
▁Language	-11428
▁Mitchell	-11429
▁Portland	-11430
▁crushing	-11431
▁dialogue	-11432
▁globally	-11433
▁detection	-11434
▁eliminate	-11435
▁movements	-11436
▁provision	-11437
▁Convention	-11438
▁challenged	-11439
▁compassion	-11440
▁decorating	-11441
▁productive	-11442
▁recordings	-11443
▁restricted	-11444
▁electronics	-11445
▁implementing	-11446
▁individually	-11447
81	-11448
Ne	-11449
ji	-11450
ASE	-11451
iah	-11452
ims	-11453
nom	-11454
str	-11455
▁IM	-11456
▁pp	-11457
iour	-11458
itsu	-11459
offs	-11460
oons	-11461
plan	-11462
stan	-11463
▁16.	-11464
▁2.5	-11465
▁24,	-11466
▁29,	-11467
▁Fal	-11468
▁Gib	-11469
▁Hug	-11470
▁Joy	-11471
▁Pod	-11472
▁Unt	-11473
▁sne	-11474
/2019	-11475
ching	-11476
maker	-11477
overs	-11478
owing	-11479
ricts	-11480
shore	-11481
tains	-11482
▁1994	-11483
▁Answ	-11484
▁Bart	-11485
▁Calc	-11486
▁Chef	-11487
▁Flex	-11488
▁Hunt	-11489
▁Zone	-11490
▁ende	-11491
▁skip	-11492
▁tang	-11493
▁tort	-11494
ilarly	-11495
ocated	-11496
places	-11497
prises	-11498
raulic	-11499
shaped	-11500
uisine	-11501
urches	-11502
▁2010,	-11503
▁Dynam	-11504
▁Monte	-11505
▁Wheel	-11506
▁antib	-11507
▁breed	-11508
▁crypt	-11509
▁lever	-11510
▁outer	-11511
▁snack	-11512
▁spare	-11513
▁winds	-11514
▁Assess	-11515
▁Vision	-11516
▁backup	-11517
▁corpor	-11518
▁costly	-11519
▁explos	-11520
▁fridge	-11521
▁gently	-11522
▁iconic	-11523
▁wishes	-11524
▁writes	-11525
▁Finland	-11526
▁Getting	-11527
▁Jessica	-11528
▁Netflix	-11529
▁Trinity	-11530
▁density	-11531
▁dresses	-11532
▁expense	-11533
▁railway	-11534
▁voltage	-11535
▁Airlines	-11536
▁Hamilton	-11537
▁brothers	-11538
▁chairman	-11539
▁charming	-11540
▁emotions	-11541
▁invested	-11542
▁merchand	-11543
▁Agreement	-11544
▁Questions	-11545
▁decorated	-11546
▁financing	-11547
▁formation	-11548
▁frequency	-11549
▁Background	-11550
▁discussing	-11551
▁Connecticut	-11552
▁underground	-11553
▁Thanksgiving	-11554
▁alternatives	-11555
▁entrepreneur	-11556
▁illustration	-11557
84	-11558
Me	-11559
NE	-11560
aa	-11561
INE	-11562
ais	-11563
aph	-11564
ois	-11565
▁//	-11566
▁MT	-11567
disc	-11568
leep	-11569
opes	-11570
oria	-11571
▁Bos	-11572
▁Sin	-11573
▁Ton	-11574
▁Ult	-11575
▁Wow	-11576
▁bat	-11577
▁fur	-11578
▁mit	-11579
count	-11580
ipper	-11581
isers	-11582
rison	-11583
umbai	-11584
▁Bron	-11585
▁Sett	-11586
▁Tool	-11587
▁bits	-11588
▁damp	-11589
▁inex	-11590
▁tops	-11591
▁wool	-11592
ousing	-11593
rowave	-11594
▁Adobe	-11595
▁Apost	-11596
▁Horse	-11597
▁Laura	-11598
▁Movie	-11599
▁Pharm	-11600
▁Ranch	-11601
▁Singh	-11602
▁Upper	-11603
▁apple	-11604
▁begun	-11605
▁manip	-11606
▁penal	-11607
▁races	-11608
▁sixth	-11609
▁weren	-11610
▁Danish	-11611
▁Images	-11612
▁Nissan	-11613
▁allerg	-11614
▁cultiv	-11615
▁duties	-11616
▁gloves	-11617
▁grants	-11618
▁heated	-11619
▁ladies	-11620
▁shaped	-11621
▁subtle	-11622
▁suited	-11623
otherapy	-11624
▁Address	-11625
▁Mississ	-11626
▁examine	-11627
▁neutral	-11628
▁placing	-11629
▁profits	-11630
▁signals	-11631
▁Commerce	-11632
▁Lighting	-11633
▁embedded	-11634
▁ordinary	-11635
▁protocol	-11636
▁relating	-11637
▁Certified	-11638
▁acknowled	-11639
▁appliance	-11640
▁countless	-11641
▁magazines	-11642
▁marijuana	-11643
▁physician	-11644
▁qualities	-11645
▁Enterprise	-11646
▁Revolution	-11647
▁fundraising	-11648
▁Organization	-11649
71	-11650
DC	-11651
▁%	-11652
ESS	-11653
ITY	-11654
cre	-11655
iox	-11656
▁BU	-11657
▁Ba	-11658
atus	-11659
ouds	-11660
rett	-11661
rish	-11662
size	-11663
udes	-11664
vens	-11665
▁Ful	-11666
▁Had	-11667
▁Hem	-11668
▁LGB	-11669
▁Tak	-11670
▁ash	-11671
▁hal	-11672
▁rab	-11673
▁urg	-11674
amily	-11675
ateur	-11676
gment	-11677
quake	-11678
sized	-11679
▁Bowl	-11680
▁Conn	-11681
▁Corp	-11682
▁Curt	-11683
▁Math	-11684
▁Mind	-11685
▁User	-11686
▁WiFi	-11687
▁cust	-11688
▁dedu	-11689
▁dont	-11690
ishers	-11691
washer	-11692
▁Chess	-11693
▁Linux	-11694
▁Pages	-11695
▁Sweet	-11696
▁Value	-11697
▁drums	-11698
▁eager	-11699
▁hired	-11700
▁legit	-11701
▁loads	-11702
▁ranks	-11703
▁spell	-11704
▁treas	-11705
▁uncle	-11706
▁valve	-11707
emetery	-11708
theless	-11709
▁Editor	-11710
▁Ground	-11711
▁Howard	-11712
▁convin	-11713
▁heaven	-11714
▁prohib	-11715
▁proved	-11716
▁puzzle	-11717
▁speeds	-11718
▁valued	-11719
!!!!!!!!	-11720
boarding	-11721
▁Cabinet	-11722
▁Charlie	-11723
▁Faculty	-11724
▁grocery	-11725
▁implant	-11726
▁regards	-11727
▁reveals	-11728
▁sailing	-11729
▁tractor	-11730
effective	-11731
▁Chairman	-11732
▁Venezuel	-11733
▁acoustic	-11734
▁contacts	-11735
▁decrease	-11736
▁enabling	-11737
▁grinding	-11738
▁maximize	-11739
▁measured	-11740
▁mounting	-11741
▁relation	-11742
▁accidents	-11743
▁diagnosed	-11744
▁organised	-11745
▁utilizing	-11746
▁workforce	-11747
▁bankruptcy	-11748
▁executives	-11749
▁imagination	-11750
▁specializes	-11751
▁accomplished	-11752
▁appreciation	-11753
▁complimentary	-11754
▁independently	-11755
72	-11756
001	-11757
ACT	-11758
ede	-11759
enz	-11760
ido	-11761
lar	-11762
ogs	-11763
pot	-11764
rin	-11765
▁Ll	-11766
Best	-11767
ipur	-11768
itty	-11769
pres	-11770
▁Abb	-11771
▁Fly	-11772
▁Jos	-11773
▁Kod	-11774
▁Kum	-11775
▁Sep	-11776
▁awa	-11777
▁cha	-11778
adows	-11779
arner	-11780
chain	-11781
elson	-11782
hythm	-11783
inkle	-11784
oline	-11785
opper	-11786
shine	-11787
▁Alab	-11788
▁Anne	-11789
▁Anti	-11790
▁Beng	-11791
▁File	-11792
▁Fill	-11793
▁Gate	-11794
▁Herm	-11795
▁Jazz	-11796
▁Mars	-11797
▁WITH	-11798
▁hack	-11799
▁tact	-11800
ellery	-11801
hattan	-11802
icular	-11803
irable	-11804
necess	-11805
veland	-11806
▁Costa	-11807
▁Grove	-11808
▁Moroc	-11809
▁Sorry	-11810
▁Wayne	-11811
▁annoy	-11812
▁enemy	-11813
▁explo	-11814
▁groom	-11815
▁knife	-11816
▁poems	-11817
▁punch	-11818
▁roofs	-11819
▁wines	-11820
▁wings	-11821
rection	-11822
▁Beyond	-11823
▁Letter	-11824
▁Mechan	-11825
▁incent	-11826
▁nicely	-11827
▁repeat	-11828
▁replic	-11829
▁sketch	-11830
▁spoken	-11831
▁Anthony	-11832
▁Connect	-11833
▁Reviews	-11834
▁analyze	-11835
▁courage	-11836
▁electro	-11837
▁honored	-11838
▁islands	-11839
▁lawsuit	-11840
▁loading	-11841
▁menards	-11842
▁preview	-11843
▁proport	-11844
▁Academic	-11845
▁Consumer	-11846
▁Features	-11847
▁Medicare	-11848
▁branches	-11849
▁seasonal	-11850
▁weakness	-11851
▁computing	-11852
▁demanding	-11853
▁hospitals	-11854
▁indicates	-11855
▁permitted	-11856
▁requiring	-11857
▁secretary	-11858
▁unlimited	-11859
▁Industries	-11860
▁durability	-11861
▁supportive	-11862
▁continually	-11863
▁generations	-11864
▁hospitality	-11865
▁promotional	-11866
▁Contemporary	-11867
▁connectivity	-11868
▁destinations	-11869
BL	-11870
CL	-11871
SF	-11872
kh	-11873
vi	-11874
Mar	-11875
Pal	-11876
TON	-11877
aco	-11878
fly	-11879
oil	-11880
ped	-11881
▁$4	-11882
▁56	-11883
▁CV	-11884
▁Dh	-11885
▁GO	-11886
▁OP	-11887
▁Ze	-11888
amel	-11889
ikip	-11890
issa	-11891
roit	-11892
upid	-11893
▁$1.	-11894
▁350	-11895
▁Alt	-11896
▁Dad	-11897
▁Hud	-11898
▁Lic	-11899
▁Lif	-11900
▁Nag	-11901
heart	-11902
icity	-11903
ifier	-11904
ument	-11905
▁Bass	-11906
▁Mant	-11907
▁Pink	-11908
▁Send	-11909
▁cush	-11910
etooth	-11911
itters	-11912
▁2021,	-11913
▁Bloom	-11914
▁Ident	-11915
▁Judge	-11916
▁Seven	-11917
▁Total	-11918
▁Urban	-11919
▁audit	-11920
▁bloom	-11921
▁boats	-11922
▁comic	-11923
▁grows	-11924
▁onion	-11925
▁shine	-11926
service	-11927
▁Afghan	-11928
▁Browse	-11929
▁Harris	-11930
▁Import	-11931
▁Mumbai	-11932
▁Nevada	-11933
▁Screen	-11934
▁Taiwan	-11935
▁Ukrain	-11936
▁guided	-11937
▁infect	-11938
▁lately	-11939
▁trucks	-11940
children	-11941
▁Alabama	-11942
▁Israeli	-11943
▁Players	-11944
▁handled	-11945
▁pushing	-11946
▁queries	-11947
▁startup	-11948
▁Attorney	-11949
▁Delivery	-11950
▁Designed	-11951
▁Discover	-11952
▁Recently	-11953
▁confused	-11954
▁consecut	-11955
▁implants	-11956
▁minerals	-11957
▁peaceful	-11958
▁portrait	-11959
▁premises	-11960
▁profiles	-11961
▁scenario	-11962
▁accompany	-11963
▁classical	-11964
▁destroyed	-11965
▁elsewhere	-11966
▁migration	-11967
▁placement	-11968
▁uncertain	-11969
▁vegetable	-11970
▁Queensland	-11971
▁classified	-11972
▁dimensions	-11973
▁prevention	-11974
▁refreshing	-11975
▁Competition	-11976
▁achievement	-11977
▁corporation	-11978
▁intelligent	-11979
▁investigate	-11980
▁progressive	-11981
▁tournaments	-11982
7%	-11983
At	-11984
SD	-11985
ía	-11986
agn	-11987
azi	-11988
jar	-11989
ols	-11990
▁43	-11991
▁UA	-11992
agne	-11993
ando	-11994
comp	-11995
▁19.	-11996
▁Abs	-11997
▁Bab	-11998
▁Bou	-11999
▁RSS	-12000
▁SEA	-12001
▁Sad	-12002
▁Saw	-12003
▁Tun	-12004
▁Wat	-12005
▁Won	-12006
▁oak	-12007
enery	-12008
grade	-12009
green	-12010
odium	-12011
ostic	-12012
party	-12013
riven	-12014
trans	-12015
▁1979	-12016
▁Brew	-12017
▁Hell	-12018
▁Near	-12019
▁Orth	-12020
▁Prob	-12021
▁carb	-12022
▁demo	-12023
▁gang	-12024
▁hass	-12025
▁hike	-12026
▁lung	-12027
▁mold	-12028
▁outs	-12029
▁pots	-12030
▁pupp	-12031
▁refe	-12032
▁rush	-12033
▁trad	-12034
ensing	-12035
ounced	-12036
▁Audio	-12037
▁delet	-12038
▁fired	-12039
▁hence	-12040
▁login	-12041
▁royal	-12042
▁tuned	-12043
quiries	-12044
writing	-12045
▁Chrome	-12046
▁Former	-12047
▁Madrid	-12048
▁Origin	-12049
▁Rivers	-12050
▁Switch	-12051
▁Unlike	-12052
▁boring	-12053
▁builds	-12054
▁immune	-12055
▁locate	-12056
▁lovers	-12057
▁novels	-12058
▁paired	-12059
▁parcel	-12060
▁poster	-12061
▁regime	-12062
atherine	-12063
▁Sheriff	-12064
▁acrylic	-12065
▁mileage	-12066
▁mystery	-12067
▁observe	-12068
▁opposed	-12069
▁pension	-12070
▁satisfy	-12071
▁abstract	-12072
▁delicate	-12073
▁inviting	-12074
▁manually	-12075
▁mattress	-12076
▁Essential	-12077
▁concluded	-12078
▁expecting	-12079
▁measuring	-12080
▁virtually	-12081
▁homeowners	-12082
▁nomination	-12083
▁practicing	-12084
▁settlement	-12085
▁Mississippi	-12086
▁Photography	-12087
▁Distribution	-12088
▁stakeholders	-12089
DI	-12090
FF	-12091
SI	-12092
Tr	-12093
Us	-12094
eu	-12095
sl	-12096
ART	-12097
SQL	-12098
rog	-12099
▁iT	-12100
avan	-12101
inis	-12102
mind	-12103
omal	-12104
▁Hab	-12105
▁Tab	-12106
▁Toy	-12107
▁lap	-12108
▁ske	-12109
ailed	-12110
clude	-12111
oning	-12112
▁1989	-12113
▁Andy	-12114
▁Pool	-12115
▁Sail	-12116
▁asks	-12117
▁fake	-12118
▁guns	-12119
▁sons	-12120
called	-12121
olitan	-12122
rament	-12123
▁2008.	-12124
▁Flore	-12125
▁Guest	-12126
▁Match	-12127
▁Susan	-12128
▁Train	-12129
▁backs	-12130
▁brace	-12131
▁demol	-12132
▁herbs	-12133
▁lined	-12134
▁rides	-12135
▁sweep	-12136
▁weird	-12137
▁woods	-12138
▁Anyway	-12139
▁Luxury	-12140
▁canvas	-12141
▁freely	-12142
▁merely	-12143
▁spices	-12144
▁verify	-12145
▁wallet	-12146
▁Designs	-12147
▁Heights	-12148
▁evident	-12149
▁imaging	-12150
▁notable	-12151
▁packing	-12152
▁periods	-12153
▁runners	-12154
▁sensors	-12155
▁singers	-12156
▁vanilla	-12157
▁Category	-12158
▁Cultural	-12159
▁climbing	-12160
▁deadline	-12161
▁sporting	-12162
▁Charlotte	-12163
▁Cleveland	-12164
▁Medalists	-12165
▁abundance	-12166
▁centuries	-12167
▁cognitive	-12168
▁inclusion	-12169
▁Specialist	-12170
▁Tournament	-12171
▁aggressive	-12172
▁downloaded	-12173
▁facilitate	-12174
▁consecutive	-12175
▁limitations	-12176
▁intervention	-12177
▁measurements	-12178
▁effectiveness	-12179
▁unfortunately	-12180
▁simultaneously	-12181
Fr	-12182
ür	-12183
dig	-12184
dis	-12185
tub	-12186
uct	-12187
whe	-12188
▁BY	-12189
▁HA	-12190
andy	-12191
ardi	-12192
eron	-12193
hist	-12194
iffs	-12195
nect	-12196
oret	-12197
robe	-12198
▁Ald	-12199
▁Ara	-12200
▁Lem	-12201
▁Nut	-12202
▁bot	-12203
▁eco	-12204
▁wed	-12205
depth	-12206
▁Bach	-12207
▁Bapt	-12208
▁Bear	-12209
▁Gift	-12210
▁HERE	-12211
▁Maur	-12212
▁Push	-12213
▁foam	-12214
▁horm	-12215
▁kits	-12216
▁pics	-12217
▁spir	-12218
▁tied	-12219
▁tier	-12220
around	-12221
icking	-12222
▁Domin	-12223
▁Dress	-12224
▁Honda	-12225
▁Nancy	-12226
▁Ready	-12227
▁Shelf	-12228
▁Stars	-12229
▁Treas	-12230
▁chess	-12231
▁dried	-12232
▁drops	-12233
▁fancy	-12234
▁humor	-12235
▁irrit	-12236
▁meter	-12237
▁parad	-12238
▁rival	-12239
istical	-12240
lishing	-12241
mitting	-12242
▁Alaska	-12243
▁Analyt	-12244
▁Candid	-12245
▁Celebr	-12246
▁Commun	-12247
▁Denver	-12248
▁Friend	-12249
▁Norway	-12250
▁backed	-12251
▁eighth	-12252
▁hardly	-12253
▁onions	-12254
▁provin	-12255
▁tunnel	-12256
ditional	-12257
fortable	-12258
▁Article	-12259
▁Clinton	-12260
▁Greater	-12261
▁assault	-12262
▁cleaned	-12263
▁loyalty	-12264
▁mailing	-12265
▁planted	-12266
▁reconst	-12267
▁somehow	-12268
▁talents	-12269
▁weapons	-12270
▁Anderson	-12271
▁Fighting	-12272
▁compiled	-12273
▁consolid	-12274
▁generous	-12275
▁investor	-12276
▁observed	-12277
▁promised	-12278
▁suddenly	-12279
▁updating	-12280
▁Buildings	-12281
▁aesthetic	-12282
▁attendees	-12283
▁integrate	-12284
▁motivated	-12285
▁stressful	-12286
▁vibration	-12287
▁acceptable	-12288
▁affiliated	-12289
▁controller	-12290
▁friendship	-12291
▁submission	-12292
▁overwhelming	-12293
▁collaborative	-12294
IO	-12295
Se	-12296
UE	-12297
di	-12298
yd	-12299
ACK	-12300
Can	-12301
OME	-12302
Our	-12303
alg	-12304
bul	-12305
ele	-12306
igo	-12307
kok	-12308
▁BA	-12309
▁CN	-12310
▁Li	-12311
▁RA	-12312
▁SL	-12313
elve	-12314
ethe	-12315
lace	-12316
only	-12317
owed	-12318
pets	-12319
spec	-12320
wind	-12321
zens	-12322
▁$25	-12323
▁ABC	-12324
▁Kra	-12325
▁Moo	-12326
▁Pom	-12327
▁SUV	-12328
▁nin	-12329
▁vou	-12330
addle	-12331
amine	-12332
atics	-12333
eland	-12334
phalt	-12335
▁Chev	-12336
▁Cuba	-12337
▁Fish	-12338
▁Kath	-12339
▁Kirk	-12340
▁Orle	-12341
▁Viol	-12342
▁YOUR	-12343
▁amid	-12344
▁dock	-12345
▁grat	-12346
▁lean	-12347
▁pear	-12348
▁pron	-12349
comple	-12350
ovable	-12351
tended	-12352
▁Activ	-12353
▁Chase	-12354
▁Coach	-12355
▁Colon	-12356
▁Grade	-12357
▁Hence	-12358
▁Phone	-12359
▁burst	-12360
▁gains	-12361
▁icons	-12362
▁nurse	-12363
▁panor	-12364
▁scary	-12365
▁wires	-12366
ificent	-12367
itivity	-12368
ometers	-12369
regular	-12370
▁Flower	-12371
▁Johnny	-12372
▁Leader	-12373
▁Marine	-12374
▁Retail	-12375
▁Valent	-12376
▁buried	-12377
▁circle	-12378
▁digest	-12379
▁essays	-12380
▁filing	-12381
▁habits	-12382
▁hybrid	-12383
▁intend	-12384
▁modify	-12385
▁praise	-12386
▁pupils	-12387
▁recycl	-12388
▁rustic	-12389
heastern	-12390
izations	-12391
▁Chester	-12392
▁Diamond	-12393
▁Hungary	-12394
▁Present	-12395
▁briefly	-12396
▁educate	-12397
▁fingers	-12398
▁impacts	-12399
▁refused	-12400
▁uniform	-12401
▁volumes	-12402
necessary	-12403
▁Portugal	-12404
▁Princess	-12405
▁avoiding	-12406
▁courtesy	-12407
▁curtains	-12408
▁parallel	-12409
▁preserve	-12410
▁Ukrainian	-12411
▁behaviour	-12412
▁daughters	-12413
▁disorders	-12414
▁everybody	-12415
▁intensity	-12416
▁neighbour	-12417
▁releasing	-12418
▁attraction	-12419
▁automotive	-12420
▁decoration	-12421
▁regulation	-12422
▁agriculture	-12423
▁introducing	-12424
▁recruitment	-12425
▁Technologies	-12426
▁achievements	-12427
▁additionally	-12428
▁sportspeople	-12429
▁concentration	-12430
▁conversations	-12431
▁professionally	-12432
3%	-12433
74	-12434
EG	-12435
ci	-12436
kg	-12437
18.	-12438
19.	-12439
ITE	-12440
cam	-12441
lig	-12442
oub	-12443
pay	-12444
rik	-12445
via	-12446
–18	-12447
▁5%	-12448
▁ox	-12449
agan	-12450
atar	-12451
esis	-12452
idel	-12453
olen	-12454
tops	-12455
▁3.5	-12456
▁Ble	-12457
▁Dra	-12458
▁RAM	-12459
▁Syn	-12460
▁dil	-12461
comed	-12462
neath	-12463
phant	-12464
woman	-12465
▁LOVE	-12466
▁Lath	-12467
▁Lisa	-12468
▁Mira	-12469
▁aver	-12470
▁hunt	-12471
▁knee	-12472
▁neat	-12473
▁sust	-12474
▁unin	-12475
erseys	-12476
herent	-12477
orized	-12478
▁Bench	-12479
▁Built	-12480
▁Email	-12481
▁Joint	-12482
▁Mills	-12483
▁Panel	-12484
▁candy	-12485
▁choir	-12486
▁penet	-12487
▁query	-12488
▁stops	-12489
▁sunny	-12490
▁toxic	-12491
itative	-12492
▁Arthur	-12493
▁Harbor	-12494
▁Johann	-12495
▁Rather	-12496
▁Supply	-12497
▁hazard	-12498
▁horses	-12499
▁iTunes	-12500
▁labels	-12501
▁ranges	-12502
▁sleeve	-12503
▁speaks	-12504
▁stocks	-12505
▁thesis	-12506
▁thinks	-12507
ikipedia	-12508
▁Alexand	-12509
▁Crusher	-12510
▁Details	-12511
▁Popular	-12512
▁Studios	-12513
▁airline	-12514
▁athlete	-12515
▁divorce	-12516
▁emotion	-12517
▁magical	-12518
▁seniors	-12519
aceutical	-12520
▁Campaign	-12521
▁entities	-12522
▁finishes	-12523
▁spectrum	-12524
▁Mansfield	-12525
▁Northwest	-12526
▁contacted	-12527
▁excessive	-12528
▁templates	-12529
▁thickness	-12530
▁welcoming	-12531
▁Elementary	-12532
▁acceptance	-12533
▁assignment	-12534
▁discipline	-12535
▁presenting	-12536
▁researcher	-12537
▁separately	-12538
▁translated	-12539
▁transparent	-12540
▁appointments	-12541
▁recreational	-12542
/1	-12543
GR	-12544
!).	-12545
-15	-12546
ANT	-12547
App	-12548
IFA	-12549
One	-12550
cha	-12551
cul	-12552
dle	-12553
weg	-12554
▁DR	-12555
▁EA	-12556
▁NM	-12557
arus	-12558
atta	-12559
heet	-12560
http	-12561
lift	-12562
poke	-12563
▁18.	-12564
▁26,	-12565
▁365	-12566
▁Koh	-12567
▁Lag	-12568
▁Rug	-12569
▁duo	-12570
estes	-12571
imens	-12572
istle	-12573
izard	-12574
olved	-12575
onsin	-12576
xygen	-12577
▁1966	-12578
▁1974	-12579
▁1977	-12580
▁Alan	-12581
▁Balt	-12582
▁Desk	-12583
▁HTML	-12584
▁Jobs	-12585
▁Ther	-12586
▁Wisc	-12587
▁bicy	-12588
▁bull	-12589
▁clim	-12590
▁cups	-12591
▁dump	-12592
▁junk	-12593
▁nick	-12594
▁nood	-12595
▁nort	-12596
▁nurt	-12597
▁ster	-12598
ancell	-12599
athlon	-12600
▁Alber	-12601
▁Bruce	-12602
▁Croat	-12603
▁Honey	-12604
▁Jacob	-12605
▁Recru	-12606
▁Route	-12607
▁Storm	-12608
▁Suite	-12609
▁armed	-12610
▁coord	-12611
▁enorm	-12612
▁inaug	-12613
▁paths	-12614
▁saves	-12615
▁tones	-12616
compass	-12617
inciple	-12618
▁Dragon	-12619
▁Driver	-12620
▁Uganda	-12621
▁desert	-12622
▁mature	-12623
▁nobody	-12624
▁phrase	-12625
▁priest	-12626
jections	-12627
oriented	-12628
▁Antonio	-12629
▁Denmark	-12630
▁Gardens	-12631
▁Iranian	-12632
▁captain	-12633
▁devoted	-12634
▁failing	-12635
▁mineral	-12636
▁museums	-12637
▁painful	-12638
▁sisters	-12639
▁sliding	-12640
▁sponsor	-12641
▁Intellig	-12642
▁Recovery	-12643
▁connects	-12644
▁goodness	-12645
▁overseas	-12646
▁survival	-12647
▁switched	-12648
▁unlikely	-12649
▁Apostolic	-12650
▁Manhattan	-12651
▁Socialist	-12652
▁Wisconsin	-12653
▁addiction	-12654
▁appealing	-12655
▁batteries	-12656
▁dimension	-12657
▁narrative	-12658
▁Employment	-12659
▁Excellence	-12660
▁addressing	-12661
▁infections	-12662
▁traditions	-12663
▁installations	-12664
▁photographers	-12665
NG	-12666
/4"	-12667
ASH	-12668
Out	-12669
RES	-12670
iev	-12671
pin	-12672
uxe	-12673
▁08	-12674
aman	-12675
hill	-12676
idth	-12677
inge	-12678
kind	-12679
osit	-12680
pert	-12681
rise	-12682
▁BMW	-12683
▁Cha	-12684
▁Dak	-12685
▁Esc	-12686
▁Ign	-12687
▁Sor	-12688
▁dup	-12689
▁sib	-12690
anium	-12691
backs	-12692
cloth	-12693
iches	-12694
osity	-12695
oting	-12696
ponse	-12697
▁1982	-12698
▁Clar	-12699
▁Info	-12700
▁Khan	-12701
▁Magn	-12702
▁Ring	-12703
▁THIS	-12704
▁Tips	-12705
▁Whit	-12706
▁epic	-12707
▁font	-12708
▁tire	-12709
Donald	-12710
ateral	-12711
utters	-12712
utures	-12713
worthy	-12714
▁2009,	-12715
▁Armen	-12716
▁Blood	-12717
▁COVID	-12718
▁Estab	-12719
▁Given	-12720
▁Grant	-12721
▁Pitts	-12722
▁batch	-12723
▁exams	-12724
▁lands	-12725
▁pipes	-12726
▁queen	-12727
▁reven	-12728
▁scrap	-12729
▁shore	-12730
inction	-12731
itarian	-12732
▁Colomb	-12733
▁Taking	-12734
▁Walter	-12735
▁barrel	-12736
▁booked	-12737
▁closet	-12738
▁deputy	-12739
▁enjoys	-12740
▁myster	-12741
▁permit	-12742
▁solely	-12743
▁voices	-12744
rolestes	-12745
▁Iceland	-12746
▁Introdu	-12747
▁Volunte	-12748
▁absence	-12749
▁adapted	-12750
▁blessed	-12751
▁columns	-12752
▁dialing	-12753
▁flowing	-12754
▁freezer	-12755
▁hitting	-12756
▁reminds	-12757
▁travels	-12758
▁whereas	-12759
▁Maryland	-12760
▁Shopping	-12761
▁branding	-12762
▁compound	-12763
▁founding	-12764
▁homemade	-12765
▁memorial	-12766
▁pandemic	-12767
▁regarded	-12768
▁rejected	-12769
▁departure	-12770
▁healthier	-12771
▁inclusive	-12772
▁neighbors	-12773
▁suspended	-12774
▁variables	-12775
▁Christians	-12776
▁authorized	-12777
▁boundaries	-12778
▁containers	-12779
▁horizontal	-12780
▁laboratory	-12781
▁mainstream	-12782
▁newspapers	-12783
73	-12784
93	-12785
GM	-12786
bn	-12787
dc	-12788
sa	-12789
||	-12790
17)	-12791
asi	-12792
enh	-12793
mel	-12794
mir	-12795
nut	-12796
▁1)	-12797
▁5:	-12798
▁ET	-12799
▁Pi	-12800
▁ca	-12801
▁dx	-12802
----	-12803
code	-12804
gree	-12805
uris	-12806
▁10-	-12807
▁Amy	-12808
▁Ana	-12809
▁Enc	-12810
▁GPS	-12811
▁Gay	-12812
▁Hop	-12813
▁Obs	-12814
▁Por	-12815
▁Say	-12816
▁Sty	-12817
▁Too	-12818
▁env	-12819
▁lid	-12820
anean	-12821
built	-12822
chant	-12823
erget	-12824
erver	-12825
iders	-12826
iterr	-12827
marks	-12828
ocket	-12829
▁1987	-12830
▁Brun	-12831
▁Cass	-12832
▁Cork	-12833
▁Duke	-12834
▁Flag	-12835
▁Juan	-12836
▁Left	-12837
▁Lock	-12838
▁Nurs	-12839
▁Plot	-12840
▁gown	-12841
▁rect	-12842
▁tear	-12843
▁tray	-12844
inance	-12845
rifice	-12846
urring	-12847
vation	-12848
▁2005.	-12849
▁Arena	-12850
▁Fried	-12851
▁Theme	-12852
▁blame	-12853
▁buses	-12854
▁dairy	-12855
▁encry	-12856
▁flags	-12857
▁gonna	-12858
▁peers	-12859
▁slice	-12860
▁wheat	-12861
▁Linked	-12862
▁Wonder	-12863
▁assort	-12864
▁cinema	-12865
▁metres	-12866
▁stupid	-12867
▁valley	-12868
▁varied	-12869
▁warmth	-12870
▁Chelsea	-12871
▁Detroit	-12872
▁Feature	-12873
▁Regular	-12874
▁Related	-12875
▁Sisters	-12876
▁centres	-12877
▁consent	-12878
▁cuisine	-12879
▁forming	-12880
▁painter	-12881
▁persist	-12882
▁pointed	-12883
▁viewers	-12884
▁Includes	-12885
▁Margaret	-12886
▁Shanghai	-12887
▁Whenever	-12888
▁advocate	-12889
▁churches	-12890
▁drawings	-12891
▁handmade	-12892
▁publicly	-12893
▁sentence	-12894
▁sequence	-12895
▁somebody	-12896
▁thrilled	-12897
▁villages	-12898
▁welcomed	-12899
▁Liverpool	-12900
▁abandoned	-12901
▁actresses	-12902
▁injection	-12903
▁intensive	-12904
▁launching	-12905
▁reputable	-12906
▁Investment	-12907
▁Statistics	-12908
▁consisting	-12909
▁graduation	-12910
▁meditation	-12911
▁provisions	-12912
▁Paralympics	-12913
▁concentrate	-12914
▁differently	-12915
▁essentially	-12916
▁identifying	-12917
▁Jacksonville	-12918
▁Lathrolestes	-12919
▁illustrations	-12920
87	-12921
96	-12922
ARD	-12923
chi	-12924
hin	-12925
mus	-12926
pal	-12927
uke	-12928
▁(6	-12929
▁Il	-12930
▁RC	-12931
▁RV	-12932
emor	-12933
ften	-12934
ivic	-12935
mate	-12936
onts	-12937
reck	-12938
▁30-	-12939
▁Cav	-12940
▁Dry	-12941
▁Ele	-12942
▁Gil	-12943
▁Got	-12944
▁RBI	-12945
▁Tah	-12946
▁URL	-12947
▁Upl	-12948
▁bun	-12949
▁laz	-12950
arten	-12951
glass	-12952
opter	-12953
ourse	-12954
▁1991	-12955
▁Clip	-12956
▁Glen	-12957
▁Hack	-12958
▁Lion	-12959
▁Pour	-12960
▁glue	-12961
▁grid	-12962
▁pond	-12963
▁tale	-12964
▁torn	-12965
health	-12966
isting	-12967
mother	-12968
ometry	-12969
stairs	-12970
▁2006,	-12971
▁Brist	-12972
▁Capit	-12973
▁Extra	-12974
▁Ideal	-12975
▁amend	-12976
▁arise	-12977
▁blues	-12978
▁cheer	-12979
▁dozen	-12980
▁embra	-12981
▁grain	-12982
▁pants	-12983
htaking	-12984
iciency	-12985
sterdam	-12986
writers	-12987
▁Deputy	-12988
▁Summit	-12989
▁ancest	-12990
▁comply	-12991
▁desper	-12992
▁devast	-12993
▁harmon	-12994
▁immers	-12995
▁pedest	-12996
▁pencil	-12997
▁propri	-12998
▁roller	-12999
iplinary	-13000
rigation	-13001
▁Earlier	-13002
▁Francis	-13003
▁antique	-13004
▁autonom	-13005
▁ceramic	-13006
▁charter	-13007
▁corners	-13008
▁deleted	-13009
▁dispute	-13010
▁enemies	-13011
▁insured	-13012
▁palette	-13013
▁rewards	-13014
▁trainer	-13015
▁tremend	-13016
▁Arkansas	-13017
▁Starting	-13018
▁literary	-13019
▁optimize	-13020
▁potatoes	-13021
▁receiver	-13022
▁reflects	-13023
▁starring	-13024
▁subscrib	-13025
▁Democrats	-13026
▁Depending	-13027
▁Hopefully	-13028
▁accepting	-13029
▁calculate	-13030
▁companion	-13031
▁libraries	-13032
▁opponents	-13033
▁reflected	-13034
▁renewable	-13035
▁collective	-13036
▁discounted	-13037
▁households	-13038
▁physicians	-13039
▁playground	-13040
▁remembered	-13041
▁sunglasses	-13042
▁consultants	-13043
▁marketplace	-13044
▁transformed	-13045
▁unnecessary	-13046
▁difficulties	-13047
▁establishing	-13048
▁experimental	-13049
▁presentations	-13050
83	-13051
Te	-13052
],	-13053
10,	-13054
30.	-13055
50,	-13056
ORT	-13057
cht	-13058
flu	-13059
gow	-13060
isp	-13061
pie	-13062
ski	-13063
▁02	-13064
▁Ax	-13065
▁GB	-13066
▁SB	-13067
▁oh	-13068
gged	-13069
omic	-13070
▁20.	-13071
▁IBM	-13072
▁MEP	-13073
▁Pap	-13074
▁Tob	-13075
▁bin	-13076
▁hub	-13077
▁mos	-13078
aines	-13079
asant	-13080
asive	-13081
cards	-13082
chron	-13083
icked	-13084
urers	-13085
urope	-13086
▁Cant	-13087
▁Fern	-13088
▁Ster	-13089
▁Ward	-13090
▁evil	-13091
▁stom	-13092
▁swap	-13093
apters	-13094
astics	-13095
driven	-13096
resist	-13097
school	-13098
▁Alexa	-13099
▁Avoid	-13100
▁Billy	-13101
▁Defin	-13102
▁FedEx	-13103
▁Initi	-13104
▁Offer	-13105
▁Sudan	-13106
▁Until	-13107
▁fragr	-13108
▁inequ	-13109
▁landl	-13110
▁pairs	-13111
▁Cinema	-13112
▁Geneva	-13113
▁autumn	-13114
▁handed	-13115
▁hassle	-13116
▁inject	-13117
building	-13118
ceptions	-13119
▁Bitcoin	-13120
▁Guarant	-13121
▁Improve	-13122
▁Morning	-13123
▁Strateg	-13124
▁arrives	-13125
▁balcony	-13126
▁coastal	-13127
▁diamond	-13128
▁fantasy	-13129
▁glasses	-13130
▁habitat	-13131
▁passage	-13132
▁Consider	-13133
▁Wildlife	-13134
▁backyard	-13135
▁fixtures	-13136
▁gambling	-13137
▁magnetic	-13138
▁ordering	-13139
▁planting	-13140
▁reserves	-13141
▁Argentina	-13142
▁Bluetooth	-13143
▁Emergency	-13144
▁cancelled	-13145
▁districts	-13146
▁festivals	-13147
▁galleries	-13148
▁incidents	-13149
▁inflation	-13150
▁maintains	-13151
▁nutrients	-13152
▁partnered	-13153
▁warehouse	-13154
▁calculated	-13155
▁conducting	-13156
▁litigation	-13157
▁nationally	-13158
▁promotions	-13159
▁substitute	-13160
▁underneath	-13161
▁highlighted	-13162
▁Municipality	-13163
▁encouragement	-13164
2%	-13165
8%	-13166
DR	-13167
Ed	-13168
FO	-13169
MO	-13170
UC	-13171
VP	-13172
mn	-13173
si	-13174
–1	-13175
ECT	-13176
IRE	-13177
Mon	-13178
adi	-13179
ema	-13180
opt	-13181
sky	-13182
who	-13183
▁47	-13184
▁8:	-13185
▁ED	-13186
▁EM	-13187
▁GT	-13188
▁Wa	-13189
When	-13190
ader	-13191
asis	-13192
bage	-13193
beat	-13194
ifle	-13195
mile	-13196
rers	-13197
type	-13198
▁(2)	-13199
▁24-	-13200
▁700	-13201
▁BBQ	-13202
▁CMS	-13203
▁Cir	-13204
▁HTC	-13205
▁Imm	-13206
▁Occ	-13207
▁Osc	-13208
▁Tag	-13209
▁cow	-13210
▁dat	-13211
▁gad	-13212
▁tum	-13213
check	-13214
etics	-13215
final	-13216
innam	-13217
olves	-13218
pling	-13219
range	-13220
rolet	-13221
urred	-13222
▁Dest	-13223
▁Glas	-13224
▁Shah	-13225
▁Yeah	-13226
▁cant	-13227
▁cycl	-13228
▁exec	-13229
▁pays	-13230
▁pine	-13231
▁silk	-13232
▁styl	-13233
cester	-13234
hedral	-13235
houses	-13236
irates	-13237
listed	-13238
wegian	-13239
▁Basic	-13240
▁Tower	-13241
▁Woman	-13242
▁acids	-13243
▁brake	-13244
▁congr	-13245
▁excav	-13246
▁fence	-13247
▁lobby	-13248
▁mayor	-13249
▁ports	-13250
▁rally	-13251
▁whisk	-13252
claimed	-13253
ergetic	-13254
forward	-13255
rencies	-13256
▁Branch	-13257
▁Instru	-13258
▁Integr	-13259
▁Lights	-13260
▁PayPal	-13261
▁Peters	-13262
▁Player	-13263
▁Potter	-13264
▁counts	-13265
▁ignore	-13266
▁implic	-13267
▁locals	-13268
▁makers	-13269
▁offset	-13270
▁pixels	-13271
▁shadow	-13272
▁Bangkok	-13273
▁Belgian	-13274
▁Climate	-13275
▁Notable	-13276
▁Partner	-13277
▁Premium	-13278
▁Running	-13279
▁barrier	-13280
▁flavour	-13281
▁longest	-13282
▁permits	-13283
▁solving	-13284
▁tribute	-13285
▁wrapped	-13286
▁Brussels	-13287
▁Champion	-13288
▁Investig	-13289
▁Palestin	-13290
▁Practice	-13291
▁Projects	-13292
▁assisted	-13293
▁athletic	-13294
▁calories	-13295
▁charging	-13296
▁counties	-13297
▁facebook	-13298
▁moderate	-13299
▁sponsors	-13300
▁stopping	-13301
▁Amsterdam	-13302
▁Reception	-13303
▁Sacrament	-13304
▁Universal	-13305
▁complaint	-13306
▁emissions	-13307
▁indicator	-13308
▁instances	-13309
▁portraits	-13310
▁promising	-13311
▁publisher	-13312
▁separated	-13313
▁switching	-13314
▁Expatriate	-13315
▁Publishing	-13316
▁counseling	-13317
▁instructor	-13318
▁visibility	-13319
▁acknowledge	-13320
▁distinctive	-13321
▁functioning	-13322
▁proceedings	-13323
▁associations	-13324
▁negotiations	-13325
▁significance	-13326
▁establishment	-13327
92	-13328
ui	-13329
isi	-13330
oca	-13331
uki	-13332
vol	-13333
▁(4	-13334
▁00	-13335
▁2)	-13336
▁IA	-13337
▁Od	-13338
▁PO	-13339
Star	-13340
asha	-13341
link	-13342
otal	-13343
rama	-13344
▁(10	-13345
▁11:	-13346
▁12:	-13347
▁Cad	-13348
▁Fel	-13349
▁Hat	-13350
▁NBA	-13351
▁NSW	-13352
▁OEM	-13353
▁Pip	-13354
▁Unc	-13355
▁Vik	-13356
▁bou	-13357
mount	-13358
tends	-13359
▁1967	-13360
▁Anim	-13361
▁Cond	-13362
▁Dund	-13363
▁Fuel	-13364
▁Lift	-13365
▁Mack	-13366
▁Poll	-13367
▁Publ	-13368
▁Semi	-13369
▁barg	-13370
▁barn	-13371
▁boil	-13372
▁bugs	-13373
▁bust	-13374
▁cozy	-13375
▁exch	-13376
▁peer	-13377
▁thro	-13378
ilings	-13379
izable	-13380
rapeut	-13381
ulates	-13382
▁2005,	-13383
▁2008,	-13384
▁Compl	-13385
▁Lower	-13386
▁Parts	-13387
▁bikes	-13388
▁brave	-13389
▁chrom	-13390
▁freel	-13391
▁gross	-13392
▁indul	-13393
▁lasts	-13394
▁picks	-13395
▁quilt	-13396
▁reign	-13397
▁ruled	-13398
▁tempt	-13399
▁wides	-13400
▁wrest	-13401
atorial	-13402
illance	-13403
▁Garage	-13404
▁Graham	-13405
▁Mining	-13406
▁Murphy	-13407
▁Transl	-13408
▁Upload	-13409
▁cannab	-13410
▁deemed	-13411
▁diesel	-13412
▁dozens	-13413
▁forums	-13414
▁frames	-13415
▁locked	-13416
▁marble	-13417
▁metall	-13418
▁rounds	-13419
▁ruling	-13420
▁serial	-13421
▁timing	-13422
▁topped	-13423
▁Finding	-13424
▁Workers	-13425
▁affairs	-13426
▁beloved	-13427
▁couples	-13428
▁elastic	-13429
▁harmful	-13430
▁passive	-13431
▁posters	-13432
▁subsidi	-13433
▁Baseball	-13434
▁Guardian	-13435
▁abortion	-13436
▁blogging	-13437
▁concerts	-13438
▁interpre	-13439
▁veterans	-13440
▁weddings	-13441
iterranean	-13442
▁Hungarian	-13443
▁accessory	-13444
▁affecting	-13445
▁creatures	-13446
▁encompass	-13447
▁forgotten	-13448
▁furnished	-13449
▁gradually	-13450
▁incorrect	-13451
▁mechanism	-13452
▁precisely	-13453
▁proposals	-13454
▁relatives	-13455
▁rewarding	-13456
▁agreements	-13457
▁influences	-13458
▁organizing	-13459
▁possession	-13460
▁qualifying	-13461
▁relaxation	-13462
▁exhibitions	-13463
▁immigration	-13464
▁involvement	-13465
▁manufacture	-13466
▁mathematics	-13467
▁obligations	-13468
▁preferences	-13469
▁instrumental	-13470
▁specializing	-13471
DB	-13472
IX	-13473
So	-13474
dr	-13475
”)	-13476
/16	-13477
OUN	-13478
aho	-13479
cca	-13480
haw	-13481
idy	-13482
jab	-13483
ovo	-13484
sew	-13485
▁(“	-13486
▁UM	-13487
▁Ub	-13488
▁WE	-13489
▁oz	-13490
▁py	-13491
IGHT	-13492
Tech	-13493
bags	-13494
bery	-13495
laim	-13496
once	-13497
thon	-13498
uese	-13499
ymph	-13500
▁Boo	-13501
▁Fra	-13502
▁Guy	-13503
▁Lay	-13504
▁Mut	-13505
▁Xia	-13506
▁pit	-13507
▁tel	-13508
akery	-13509
cedes	-13510
click	-13511
ethyl	-13512
ierra	-13513
ilies	-13514
nings	-13515
oples	-13516
▁(192	-13517
▁(197	-13518
▁1983	-13519
▁Bent	-13520
▁Beth	-13521
▁Dame	-13522
▁Epis	-13523
▁Jump	-13524
▁Liga	-13525
▁Malt	-13526
▁Mort	-13527
▁Peak	-13528
▁Skin	-13529
▁Wing	-13530
▁beam	-13531
▁dear	-13532
▁gene	-13533
▁lips	-13534
▁marg	-13535
▁mesh	-13536
▁poem	-13537
▁tote	-13538
ancies	-13539
anners	-13540
rative	-13541
▁Lakes	-13542
▁Leave	-13543
▁Lloyd	-13544
▁Often	-13545
▁Touch	-13546
▁beads	-13547
▁drill	-13548
▁genre	-13549
▁steak	-13550
innamon	-13551
keepers	-13552
leyball	-13553
▁Coupon	-13554
▁Dennis	-13555
▁Nation	-13556
▁Prices	-13557
▁Timber	-13558
▁beings	-13559
▁grades	-13560
▁nomine	-13561
▁silent	-13562
▁superm	-13563
▁tailor	-13564
▁tastes	-13565
regation	-13566
▁Chicken	-13567
▁Collins	-13568
▁Orleans	-13569
▁Respons	-13570
▁bespoke	-13571
▁cartoon	-13572
▁citizen	-13573
▁envelop	-13574
▁exhibit	-13575
▁gaining	-13576
▁needing	-13577
▁portray	-13578
▁refined	-13579
▁specify	-13580
▁tuition	-13581
▁vitamin	-13582
▁Clinical	-13583
▁Original	-13584
▁Selected	-13585
▁accessed	-13586
▁adorable	-13587
▁commemor	-13588
▁cosmetic	-13589
▁declined	-13590
▁enrolled	-13591
▁proceeds	-13592
▁seamless	-13593
▁wardrobe	-13594
▁Norwegian	-13595
▁Orchestra	-13596
▁Paintings	-13597
▁algorithm	-13598
▁animation	-13599
▁configure	-13600
▁defensive	-13601
▁legendary	-13602
▁municipal	-13603
▁pollution	-13604
▁radiation	-13605
▁varieties	-13606
▁Innovation	-13607
▁recognised	-13608
▁wheelchair	-13609
▁accordingly	-13610
▁assessments	-13611
▁backgrounds	-13612
▁conjunction	-13613
▁decorations	-13614
▁exploration	-13615
▁merchandise	-13616
▁Registration	-13617
▁disabilities	-13618
▁disappointed	-13619
▁inflammation	-13620
▁demonstration	-13621
En	-13622
SU	-13623
VB	-13624
hh	-13625
-11	-13626
400	-13627
bie	-13628
cal	-13629
eno	-13630
hum	-13631
jet	-13632
oya	-13633
uka	-13634
uri	-13635
▁("	-13636
▁72	-13637
▁86	-13638
▁BL	-13639
▁Ni	-13640
▁PT	-13641
▁VA	-13642
assy	-13643
aved	-13644
burn	-13645
held	-13646
isal	-13647
oder	-13648
park	-13649
will	-13650
▁$50	-13651
▁20-	-13652
▁Ach	-13653
▁CAN	-13654
▁Egg	-13655
▁Ens	-13656
▁Kas	-13657
▁Ori	-13658
▁Pix	-13659
▁Tib	-13660
▁Tow	-13661
▁Upd	-13662
▁arc	-13663
▁cyl	-13664
▁dye	-13665
▁los	-13666
agine	-13667
atson	-13668
brook	-13669
idity	-13670
itime	-13671
ocent	-13672
ogram	-13673
rolog	-13674
▁Auck	-13675
▁Brig	-13676
▁Bull	-13677
▁EVER	-13678
▁Garc	-13679
▁Grey	-13680
▁Jews	-13681
▁Late	-13682
▁Palm	-13683
▁Ship	-13684
▁Soph	-13685
▁Spot	-13686
▁Swan	-13687
▁Uber	-13688
▁cure	-13689
▁drew	-13690
▁jail	-13691
▁orth	-13692
▁ours	-13693
▁Chile	-13694
▁Close	-13695
▁Evans	-13696
▁Keith	-13697
▁Moore	-13698
▁Terry	-13699
▁Voice	-13700
▁bears	-13701
▁blast	-13702
▁bride	-13703
▁conce	-13704
▁draws	-13705
▁gates	-13706
▁genus	-13707
▁inhib	-13708
▁marry	-13709
▁shake	-13710
▁spice	-13711
▁villa	-13712
▁Active	-13713
▁Clinic	-13714
▁Legisl	-13715
▁Nelson	-13716
▁Parish	-13717
▁Target	-13718
▁bounce	-13719
▁cooler	-13720
▁parade	-13721
▁pickup	-13722
▁sewing	-13723
▁shield	-13724
▁shorts	-13725
▁snacks	-13726
▁stolen	-13727
▁tenant	-13728
▁termin	-13729
▁testim	-13730
▁thrown	-13731
▁traded	-13732
▁weapon	-13733
▁Conserv	-13734
▁Options	-13735
▁Parents	-13736
▁Picture	-13737
▁Russell	-13738
▁Sustain	-13739
▁Version	-13740
▁elderly	-13741
▁inhabit	-13742
▁shelter	-13743
itutional	-13744
liography	-13745
ropolitan	-13746
▁Contract	-13747
▁Response	-13748
▁checkout	-13749
▁composer	-13750
▁deciding	-13751
▁dynamics	-13752
▁enormous	-13753
▁explores	-13754
▁homework	-13755
▁promptly	-13756
▁visually	-13757
▁Communist	-13758
▁aggregate	-13759
▁breathing	-13760
▁energetic	-13761
▁headboard	-13762
▁projected	-13763
▁referring	-13764
▁Candidates	-13765
▁Portuguese	-13766
▁earthquake	-13767
▁governance	-13768
▁graduating	-13769
▁motivation	-13770
▁consistency	-13771
▁determining	-13772
▁enterprises	-13773
▁illustrated	-13774
▁surroundings	-13775
▁corresponding	-13776
▁distinguished	-13777
▁technological	-13778
91	-13779
To	-13780
WA	-13781
/18	-13782
???	-13783
def	-13784
hit	-13785
kan	-13786
occ	-13787
orf	-13788
urf	-13789
wed	-13790
▁$6	-13791
▁54	-13792
▁Ho	-13793
▁ip	-13794
empl	-13795
hard	-13796
mart	-13797
nals	-13798
name	-13799
orde	-13800
rary	-13801
shot	-13802
urst	-13803
ushi	-13804
▁(16	-13805
▁Eye	-13806
▁Fit	-13807
▁Mig	-13808
▁NYC	-13809
▁Neg	-13810
▁ONE	-13811
▁Rio	-13812
▁Sed	-13813
▁Tap	-13814
ellar	-13815
matic	-13816
retty	-13817
▁Bond	-13818
▁Cafe	-13819
▁Jagu	-13820
▁LGBT	-13821
▁Lanc	-13822
▁Male	-13823
▁clay	-13824
▁fare	-13825
▁jury	-13826
▁pose	-13827
▁toss	-13828
▁unem	-13829
▁visa	-13830
▁Honor	-13831
▁Lions	-13832
▁Magic	-13833
▁Maine	-13834
▁Patri	-13835
▁Shoot	-13836
▁Tamil	-13837
▁comed	-13838
▁disag	-13839
▁lakes	-13840
▁pound	-13841
▁reads	-13842
▁unfor	-13843
▁uphol	-13844
▁upset	-13845
bitious	-13846
commend	-13847
▁Forces	-13848
▁Freder	-13849
▁Parker	-13850
▁Racing	-13851
▁Sounds	-13852
▁Weekly	-13853
▁amazed	-13854
▁astron	-13855
▁banner	-13856
▁burden	-13857
▁creamy	-13858
▁crimes	-13859
▁elabor	-13860
▁fisher	-13861
▁labour	-13862
▁rivers	-13863
▁salmon	-13864
▁scared	-13865
▁stitch	-13866
▁stroll	-13867
▁velvet	-13868
breaking	-13869
▁Baptist	-13870
▁Buffalo	-13871
▁Chennai	-13872
▁Collect	-13873
▁Driving	-13874
▁Plastic	-13875
▁Vietnam	-13876
▁acclaim	-13877
▁curtain	-13878
▁handles	-13879
▁silence	-13880
▁violent	-13881
▁Auckland	-13882
▁Programs	-13883
▁Reserved	-13884
▁Teaching	-13885
▁Thompson	-13886
▁Wireless	-13887
▁educator	-13888
▁offshore	-13889
▁restored	-13890
▁utilized	-13891
rimination	-13892
▁Economics	-13893
▁Fireplace	-13894
▁Stainless	-13895
▁affiliate	-13896
▁broadband	-13897
▁combining	-13898
▁consisted	-13899
▁exhibited	-13900
▁schedules	-13901
▁struggles	-13902
▁Exhibition	-13903
▁Pittsburgh	-13904
▁attempting	-13905
▁obligation	-13906
▁preference	-13907
▁protective	-13908
▁Agriculture	-13909
▁informative	-13910
▁interviewed	-13911
▁understands	-13912
▁corporations	-13913
▁interactions	-13914
▁notification	-13915
▁optimization	-13916
▁prescription	-13917
▁institutional	-13918
▁sustainability	-13919
,.	-13920
1-	-13921
97	-13922
PR	-13923
SO	-13924
VM	-13925
ao	-13926
cs	-13927
ju	-13928
▁ا	-13929
11.	-13930
12.	-13931
Eng	-13932
IVE	-13933
abb	-13934
div	-13935
lia	-13936
lla	-13937
opl	-13938
rys	-13939
▁BI	-13940
▁RF	-13941
▁TB	-13942
▁ji	-13943
▁mg	-13944
▁vo	-13945
amps	-13946
anga	-13947
arer	-13948
ashi	-13949
aton	-13950
bris	-13951
cure	-13952
idae	-13953
imid	-13954
irie	-13955
turn	-13956
ugly	-13957
usal	-13958
wait	-13959
▁$20	-13960
▁ACC	-13961
▁Aid	-13962
▁EPA	-13963
▁Hyd	-13964
▁Ing	-13965
▁Lar	-13966
▁MAR	-13967
▁OFF	-13968
▁Rol	-13969
▁SIM	-13970
▁gem	-13971
▁maj	-13972
▁neu	-13973
▁tin	-13974
agles	-13975
alion	-13976
amboo	-13977
enger	-13978
hesis	-13979
izers	-13980
kends	-13981
lette	-13982
pread	-13983
▁Cars	-13984
▁Cort	-13985
▁FIFA	-13986
▁Fame	-13987
▁Merc	-13988
▁Same	-13989
▁Sean	-13990
▁Shaw	-13991
▁Sink	-13992
▁alph	-13993
▁anch	-13994
▁buzz	-13995
▁flor	-13996
▁fool	-13997
▁incl	-13998
▁pale	-13999
▁quiz	-14000
▁Bobby	-14001
▁Clara	-14002
▁Corps	-14003
▁Emily	-14004
▁Hindu	-14005
▁Mario	-14006
▁Rosen	-14007
▁Spect	-14008
▁angry	-14009
▁cargo	-14010
▁chees	-14011
▁cinem	-14012
▁couch	-14013
▁digit	-14014
▁dying	-14015
▁exped	-14016
▁frost	-14017
▁gloss	-14018
▁rugby	-14019
▁seeks	-14020
▁sends	-14021
founder	-14022
▁Animal	-14023
▁Around	-14024
▁Butter	-14025
▁Device	-14026
▁Hawaii	-14027
▁Hudson	-14028
▁Luther	-14029
▁clever	-14030
▁cooker	-14031
▁herbal	-14032
▁linear	-14033
▁outlet	-14034
▁resemb	-14035
▁rolled	-14036
▁salary	-14037
▁solved	-14038
▁strain	-14039
▁versus	-14040
liminary	-14041
▁Century	-14042
▁Display	-14043
▁Healthy	-14044
▁Stewart	-14045
▁Virtual	-14046
▁blocked	-14047
▁deliber	-14048
▁descent	-14049
▁figured	-14050
▁insects	-14051
▁lifting	-14052
▁pumpkin	-14053
▁rentals	-14054
▁revised	-14055
ictionary	-14056
▁Absolute	-14057
▁LinkedIn	-14058
▁adoption	-14059
▁assessed	-14060
▁bachelor	-14061
▁deposits	-14062
▁earrings	-14063
▁intimate	-14064
▁survived	-14065
▁tourists	-14066
▁Chevrolet	-14067
▁Directors	-14068
▁assisting	-14069
▁comprises	-14070
▁graduates	-14071
▁intuitive	-14072
▁principle	-14073
▁sacrifice	-14074
▁southwest	-14075
▁transfers	-14076
▁Laboratory	-14077
▁calculator	-14078
▁distribute	-14079
▁performers	-14080
▁foundations	-14081
▁permanently	-14082
▁celebrations	-14083
▁combinations	-14084
▁Mediterranean	-14085
▁administrator	-14086
Am	-14087
FT	-14088
KS	-14089
PI	-14090
700	-14091
Aut	-14092
COM	-14093
Col	-14094
ORD	-14095
agh	-14096
fan	-14097
oni	-14098
pop	-14099
▁(5	-14100
▁6:	-14101
▁>>	-14102
▁ML	-14103
▁UT	-14104
arta	-14105
bird	-14106
coal	-14107
died	-14108
iasm	-14109
isor	-14110
omas	-14111
yler	-14112
▁Arc	-14113
▁CAR	-14114
▁GRE	-14115
▁Ian	-14116
▁Ott	-14117
▁Pil	-14118
▁Raw	-14119
▁VPN	-14120
▁jet	-14121
▁mad	-14122
▁ups	-14123
acles	-14124
agger	-14125
andel	-14126
arios	-14127
creat	-14128
grand	-14129
iator	-14130
paren	-14131
rella	-14132
techn	-14133
▁1956	-14134
▁Nash	-14135
▁Subs	-14136
▁Vien	-14137
▁Wool	-14138
▁acre	-14139
▁herb	-14140
▁mall	-14141
▁mart	-14142
▁owns	-14143
▁stur	-14144
▁unve	-14145
alties	-14146
arness	-14147
owered	-14148
▁2003.	-14149
▁2007,	-14150
▁2021.	-14151
▁Aaron	-14152
▁Elite	-14153
▁Marie	-14154
▁Ridge	-14155
▁Roger	-14156
▁Steam	-14157
▁brass	-14158
▁chore	-14159
▁datab	-14160
▁dense	-14161
▁excel	-14162
▁flame	-14163
▁hasht	-14164
▁liver	-14165
▁metab	-14166
▁pursu	-14167
▁safer	-14168
▁shaft	-14169
▁shame	-14170
▁steep	-14171
▁sweat	-14172
▁tires	-14173
▁wrist	-14174
ampagne	-14175
▁Alfred	-14176
▁Camera	-14177
▁Campus	-14178
▁Dakota	-14179
▁Expert	-14180
▁Format	-14181
▁Steven	-14182
▁assure	-14183
▁barely	-14184
▁clicks	-14185
▁drawer	-14186
▁foster	-14187
▁partly	-14188
▁stairs	-14189
▁storyt	-14190
▁tempor	-14191
▁thrive	-14192
complete	-14193
ergarten	-14194
irations	-14195
specific	-14196
▁Crystal	-14197
▁Founded	-14198
▁Pattern	-14199
▁Release	-14200
▁borders	-14201
▁cousins	-14202
▁furnish	-14203
▁manuals	-14204
▁penalty	-14205
▁proudly	-14206
▁reaches	-14207
▁stomach	-14208
▁vaccine	-14209
▁veteran	-14210
placement	-14211
ropractic	-14212
▁Actually	-14213
▁Brothers	-14214
▁Montreal	-14215
▁Resource	-14216
▁Scholars	-14217
▁Speaking	-14218
▁Transfer	-14219
▁manifest	-14220
▁mobility	-14221
▁overhead	-14222
▁pressing	-14223
▁reminder	-14224
▁searches	-14225
▁terrible	-14226
▁throwing	-14227
▁tomatoes	-14228
▁Different	-14229
▁allegedly	-14230
▁supplying	-14231
▁Especially	-14232
▁Historical	-14233
▁Originally	-14234
▁adjustment	-14235
▁ingredient	-14236
▁preventing	-14237
▁structured	-14238
▁widespread	-14239
▁Afghanistan	-14240
▁encountered	-14241
▁extensively	-14242
▁populations	-14243
▁contributing	-14244
▁complications	-14245
▁classification	-14246
++	-14247
06	-14248
82	-14249
HR	-14250
LD	-14251
PG	-14252
Pr	-14253
RT	-14254
kk	-14255
Res	-14256
USA	-14257
aws	-14258
iad	-14259
ods	-14260
oks	-14261
▁95	-14262
▁99	-14263
▁BO	-14264
▁Ja	-14265
▁SK	-14266
▁SN	-14267
They	-14268
acts	-14269
amas	-14270
aque	-14271
arms	-14272
chen	-14273
drop	-14274
note	-14275
orse	-14276
orus	-14277
risk	-14278
rost	-14279
such	-14280
vals	-14281
▁25%	-14282
▁25.	-14283
▁Abu	-14284
▁Kos	-14285
▁Lan	-14286
▁Led	-14287
▁Lie	-14288
▁Spa	-14289
▁Yuk	-14290
▁ZIP	-14291
▁aqu	-14292
▁aug	-14293
▁ber	-14294
▁les	-14295
align	-14296
gered	-14297
heric	-14298
rives	-14299
▁$500	-14300
▁1500	-14301
▁Boot	-14302
▁Bour	-14303
▁Dick	-14304
▁Edge	-14305
▁Emma	-14306
▁Luck	-14307
▁Mega	-14308
▁Mine	-14309
▁Prec	-14310
▁Rank	-14311
▁Rico	-14312
▁Seed	-14313
▁Teak	-14314
▁Wait	-14315
▁bene	-14316
▁mamm	-14317
▁odds	-14318
▁pole	-14319
ashing	-14320
forced	-14321
▁Benef	-14322
▁Cards	-14323
▁Colin	-14324
▁Crist	-14325
▁Neigh	-14326
▁Pearl	-14327
▁Vista	-14328
▁Yanke	-14329
▁adopt	-14330
▁alleg	-14331
▁coats	-14332
▁diver	-14333
▁drunk	-14334
▁fears	-14335
▁lying	-14336
crafted	-14337
▁Adjust	-14338
▁Guests	-14339
▁Indeed	-14340
▁Rachel	-14341
▁Recogn	-14342
▁Wright	-14343
▁Yellow	-14344
▁adhere	-14345
▁breach	-14346
▁bridal	-14347
▁candle	-14348
▁duplic	-14349
▁facial	-14350
▁google	-14351
▁header	-14352
▁horror	-14353
▁killer	-14354
▁medals	-14355
▁orient	-14356
▁relate	-14357
▁sooner	-14358
▁splend	-14359
▁timber	-14360
ventions	-14361
▁Glasgow	-14362
▁Liberty	-14363
▁Payment	-14364
▁Therapy	-14365
▁beliefs	-14366
▁brokers	-14367
▁closest	-14368
▁decides	-14369
▁embrace	-14370
▁malware	-14371
▁matched	-14372
▁outline	-14373
▁readily	-14374
▁sellers	-14375
▁styling	-14376
▁symbols	-14377
▁Cemetery	-14378
▁Chemical	-14379
▁Continue	-14380
▁Florence	-14381
▁Franklin	-14382
▁cheapest	-14383
▁deserves	-14384
▁premiere	-14385
▁rankings	-14386
▁unwanted	-14387
▁workflow	-14388
▁Something	-14389
▁activists	-14390
▁anonymous	-14391
▁criticism	-14392
▁detailing	-14393
▁dominated	-14394
▁exquisite	-14395
▁jewellery	-14396
▁northwest	-14397
▁prospects	-14398
▁sanctuary	-14399
▁sculpture	-14400
▁targeting	-14401
▁SharePoint	-14402
▁compelling	-14403
▁enthusiasm	-14404
▁occasional	-14405
▁profitable	-14406
▁remodeling	-14407
▁responsive	-14408
▁scheduling	-14409
▁variations	-14410
▁waterproof	-14411
▁Christopher	-14412
▁Publications	-14413
▁intersection	-14414
▁interpretation	-14415
▁recommendation	-14416
=#	-14417
?)	-14418
NS	-14419
PO	-14420
UI	-14421
wl	-14422
ás	-14423
-17	-14424
Med	-14425
bag	-14426
bek	-14427
cur	-14428
fix	-14429
kit	-14430
mic	-14431
olt	-14432
uda	-14433
ulu	-14434
▁09	-14435
▁7:	-14436
▁FM	-14437
▁GR	-14438
▁Ry	-14439
boat	-14440
cats	-14441
fits	-14442
gedy	-14443
leys	-14444
nial	-14445
ohyd	-14446
olia	-14447
otta	-14448
otto	-14449
rine	-14450
▁$15	-14451
▁130	-14452
▁Hit	-14453
▁Jun	-14454
▁Maj	-14455
▁Mes	-14456
▁Moz	-14457
▁Ted	-14458
▁din	-14459
▁hed	-14460
▁tob	-14461
elect	-14462
first	-14463
icone	-14464
ingle	-14465
uters	-14466
▁1918	-14467
▁1985	-14468
▁24/7	-14469
▁Birm	-14470
▁Karl	-14471
▁Kash	-14472
▁Lots	-14473
▁Luis	-14474
▁Pros	-14475
▁Risk	-14476
▁Sold	-14477
▁Soon	-14478
▁Warm	-14479
▁Yoga	-14480
▁bind	-14481
▁dose	-14482
▁dull	-14483
▁feas	-14484
▁hint	-14485
▁inev	-14486
▁loud	-14487
▁pads	-14488
▁prox	-14489
▁turf	-14490
cyclop	-14491
enberg	-14492
iosity	-14493
normal	-14494
oppers	-14495
ourmet	-14496
outube	-14497
wealth	-14498
▁2006.	-14499
▁Album	-14500
▁Draft	-14501
▁Freed	-14502
▁Fruit	-14503
▁Heath	-14504
▁Helen	-14505
▁Hydro	-14506
▁Kenya	-14507
▁Kumar	-14508
▁Woods	-14509
▁aging	-14510
▁crust	-14511
▁harsh	-14512
▁infin	-14513
▁racer	-14514
▁stove	-14515
▁tears	-14516
▁texts	-14517
comfort	-14518
▁Clarks	-14519
▁Hannah	-14520
▁Moving	-14521
▁Sierra	-14522
▁Walker	-14523
▁angles	-14524
▁brides	-14525
▁embark	-14526
▁excuse	-14527
▁handic	-14528
▁oxygen	-14529
▁sticks	-14530
▁strips	-14531
▁suites	-14532
▁treats	-14533
▁washer	-14534
▁Counsel	-14535
▁Frances	-14536
▁Georget	-14537
▁Traffic	-14538
▁approve	-14539
▁besides	-14540
▁biology	-14541
▁congrat	-14542
▁critics	-14543
▁desires	-14544
▁ethical	-14545
▁farming	-14546
▁lighter	-14547
▁manages	-14548
▁mirrors	-14549
▁modular	-14550
▁moistur	-14551
▁pharmac	-14552
▁prosper	-14553
▁surveys	-14554
▁thereby	-14555
▁Panthers	-14556
▁Platform	-14557
▁boundary	-14558
▁cannabis	-14559
▁catching	-14560
▁ceilings	-14561
▁evenings	-14562
▁finances	-14563
▁likewise	-14564
▁passport	-14565
▁protests	-14566
▁reporter	-14567
▁retailer	-14568
▁securely	-14569
▁segments	-14570
▁terminal	-14571
▁treasure	-14572
▁Corporate	-14573
▁assurance	-14574
▁delegates	-14575
▁educators	-14576
▁microwave	-14577
▁seemingly	-14578
▁translate	-14579
▁wellbeing	-14580
▁Birmingham	-14581
▁algorithms	-14582
▁biological	-14583
▁recruiting	-14584
▁responding	-14585
▁underlying	-14586
▁vegetarian	-14587
▁Recruitment	-14588
▁magnificent	-14589
▁breathtaking	-14590
▁troubleshoot	-14591
.’	-14592
/3	-14593
Gu	-14594
VI	-14595
bb	-14596
py	-14597
ré	-14598
▁с	-14599
▁�	-14600
=12	-14601
IDE	-14602
Net	-14603
obi	-14604
oro	-14605
rod	-14606
▁ES	-14607
▁HO	-14608
===#	-14609
alph	-14610
brew	-14611
eded	-14612
etry	-14613
imir	-14614
oooo	-14615
opic	-14616
requ	-14617
resa	-14618
rien	-14619
uffy	-14620
▁110	-14621
▁Cov	-14622
▁FBI	-14623
▁Fuj	-14624
▁Gov	-14625
▁Kan	-14626
▁Sof	-14627
▁amp	-14628
▁dip	-14629
▁ion	-14630
▁kay	-14631
attoo	-14632
const	-14633
ioned	-14634
ocate	-14635
▁1933	-14636
▁1978	-14637
▁Belf	-14638
▁Carm	-14639
▁Dise	-14640
▁Eleg	-14641
▁Flat	-14642
▁Gray	-14643
▁Hero	-14644
▁Kate	-14645
▁MEPs	-14646
▁Pine	-14647
▁Stir	-14648
▁Vlad	-14649
▁anat	-14650
▁dict	-14651
▁earl	-14652
▁echo	-14653
▁fats	-14654
▁heal	-14655
▁mins	-14656
▁pian	-14657
▁reel	-14658
▁synd	-14659
ampton	-14660
castle	-14661
ielder	-14662
racted	-14663
▁2,000	-14664
▁Canon	-14665
▁Cisco	-14666
▁Forex	-14667
▁Gabri	-14668
▁Hindi	-14669
▁Lanka	-14670
▁MySQL	-14671
▁Rugby	-14672
▁baked	-14673
▁dirty	-14674
▁energ	-14675
▁fires	-14676
▁neuro	-14677
anthrop	-14678
leading	-14679
parency	-14680
vanized	-14681
▁Artist	-14682
▁Basket	-14683
▁Dinner	-14684
▁Lovely	-14685
▁Philip	-14686
▁Reader	-14687
▁Strong	-14688
▁Vienna	-14689
▁Weight	-14690
▁Whilst	-14691
▁apolog	-14692
▁blades	-14693
▁cleans	-14694
▁entity	-14695
▁margin	-14696
▁mutual	-14697
▁potato	-14698
▁preced	-14699
▁tomato	-14700
▁triple	-14701
▁Austria	-14702
▁Belarus	-14703
▁Boating	-14704
▁Bristol	-14705
▁Holland	-14706
▁Instant	-14707
▁Profile	-14708
▁boaters	-14709
▁delayed	-14710
▁dessert	-14711
▁disturb	-14712
▁doubles	-14713
▁forests	-14714
▁genetic	-14715
▁immense	-14716
▁lenders	-14717
▁priests	-14718
▁pulling	-14719
▁stating	-14720
▁strings	-14721
▁tablets	-14722
▁Database	-14723
▁Discount	-14724
▁Election	-14725
▁Mercedes	-14726
▁catering	-14727
▁develops	-14728
▁occupied	-14729
▁pharmacy	-14730
▁profound	-14731
▁stressed	-14732
▁strictly	-14733
▁traveled	-14734
▁Analytics	-14735
▁Methodist	-14736
▁Southwest	-14737
▁alternate	-14738
▁clearance	-14739
▁databases	-14740
▁mediation	-14741
▁recycling	-14742
▁renovated	-14743
▁succeeded	-14744
▁Assessment	-14745
▁complaints	-14746
▁landscapes	-14747
▁perception	-14748
▁recreation	-14749
▁reflection	-14750
▁Maintenance	-14751
▁subscribers	-14752
▁Commonwealth	-14753
▁refrigerator	-14754
▁rehabilitation	-14755
.;	-14756
BB	-14757
wy	-14758
/19	-14759
201	-14760
May	-14761
irs	-14762
rud	-14763
▁MI	-14764
▁SF	-14765
▁Yu	-14766
/200	-14767
airo	-14768
apse	-14769
bank	-14770
brev	-14771
desh	-14772
igue	-14773
illo	-14774
oard	-14775
open	-14776
ourt	-14777
rand	-14778
raph	-14779
▁0.0	-14780
▁10:	-14781
▁ARE	-14782
▁Bee	-14783
▁Esp	-14784
▁Kur	-14785
▁Len	-14786
▁MAC	-14787
▁MAT	-14788
▁Nam	-14789
▁Ned	-14790
▁PHP	-14791
alone	-14792
andal	-14793
gmail	-14794
ijing	-14795
reeze	-14796
▁1910	-14797
▁Berg	-14798
▁Cany	-14799
▁Dipl	-14800
▁Fans	-14801
▁Ferr	-14802
▁Fest	-14803
▁Hend	-14804
▁Mull	-14805
▁Pand	-14806
▁REAL	-14807
▁Surg	-14808
▁Tail	-14809
▁Todd	-14810
▁anth	-14811
▁cort	-14812
▁heel	-14813
▁mock	-14814
▁pert	-14815
▁seas	-14816
▁taxi	-14817
ainted	-14818
center	-14819
heimer	-14820
ippers	-14821
mphony	-14822
olving	-14823
rected	-14824
retion	-14825
rupted	-14826
shirts	-14827
▁2004.	-14828
▁Barry	-14829
▁Exerc	-14830
▁Idaho	-14831
▁Index	-14832
▁Robin	-14833
▁Sugar	-14834
▁Users	-14835
▁blade	-14836
▁cited	-14837
▁coinc	-14838
▁condo	-14839
▁elite	-14840
▁grasp	-14841
▁membr	-14842
▁ridic	-14843
▁sleek	-14844
▁theft	-14845
▁twist	-14846
ascular	-14847
entials	-14848
olester	-14849
pensive	-14850
station	-14851
▁Almost	-14852
▁Fabric	-14853
▁Fisher	-14854
▁Growth	-14855
▁Kuwait	-14856
▁Samuel	-14857
▁Thread	-14858
▁cancel	-14859
▁debris	-14860
▁evenly	-14861
▁fallen	-14862
▁fertil	-14863
▁ginger	-14864
▁intake	-14865
▁joints	-14866
▁kicked	-14867
▁landed	-14868
▁perpet	-14869
▁rhythm	-14870
▁thirty	-14871
▁trains	-14872
▁tricky	-14873
▁vessel	-14874
▁yearly	-14875
etheless	-14876
▁Biology	-14877
▁Parking	-14878
▁Teacher	-14879
▁Vintage	-14880
▁adverse	-14881
▁binding	-14882
▁camping	-14883
▁careers	-14884
▁crossed	-14885
▁dealers	-14886
▁feeding	-14887
▁jumping	-14888
▁monster	-14889
▁prayers	-14890
▁renamed	-14891
▁shorter	-14892
▁sincere	-14893
▁sleeves	-14894
▁Broadway	-14895
▁Bulgaria	-14896
▁Politics	-14897
▁Settings	-14898
▁animated	-14899
▁annoying	-14900
▁browsing	-14901
▁chapters	-14902
▁cinnamon	-14903
▁colonial	-14904
▁culinary	-14905
▁journals	-14906
▁recharge	-14907
▁resolved	-14908
▁steering	-14909
▁Standards	-14910
▁ambitious	-14911
▁discusses	-14912
▁dishcloth	-14913
▁economics	-14914
▁enjoyment	-14915
▁hydraulic	-14916
▁logistics	-14917
▁privilege	-14918
▁regulated	-14919
▁scenarios	-14920
▁Paralympic	-14921
▁accurately	-14922
▁adventures	-14923
▁compromise	-14924
▁convention	-14925
▁dishwasher	-14926
[...]
