{
  "version": "1.0",
  "truncation": null,
  "padding": null,
  "added_tokens": [
    {
      "id": 0,
      "content": "<unk>",
      "single_word": false,
      "lstrip": false,
      "rstrip": false,
      "normalized": false,
      "special": true
    },
    {
      "id": 1,
      "content": "<s>",
      "single_word": false,
      "lstrip": false,
      "rstrip": false,
      "normalized": false,
      "special": true
    },
    {
      "id": 2,
      "content": "</s>",
      "single_word": false,
      "lstrip": false,
      "rstrip": false,
      "normalized": false,
      "special": true
    },
    {
      "id": 3,
      "content": "<pad>",
      "single_word": false,
      "lstrip": false,
      "rstrip": false,
      "normalized": false,
      "special": true
    }
  ],
  "normalizer": {
    "type": "Sequence",
    "normalizers": [
      {
        "type": "Prepend",
        "prepend": "▁"
      },
      {
        "type": "Replace",
        "pattern": {
          "String": " "
        },
        "content": "▁"
      }
    ]
  },
  "pre_tokenizer": null,
  "post_processor": {
    "type": "TemplateProcessing",
    "single": [
      {
        "SpecialToken": {
          "id": "<s>",
          "type_id": 0
        }
      },
      {
        "Sequence": {
          "id": "A",
          "type_id": 0
        }
      }
    ],
    "pair": [
      {
        "SpecialToken": {
          "id": "<s>",
          "type_id": 0
        }
      },
      {
        "Sequence": {
          "id": "A",
          "type_id": 0
        }
      },
      {
        "SpecialToken": {
          "id": "<s>",
          "type_id": 1
        }
      },
      {
        "Sequence": {
          "id": "B",
          "type_id": 1
        }
      }
    ],
    "special_tokens": {
      "<s>": {
        "id": "<s>",
        "ids": [
          1
        ],
        "tokens": [
          "<s>"
        ]
      }
    }
  },
  "decoder": {
    "type": "Sequence",
    "decoders": [
      {
        "type": "Replace",
        "pattern": {
          "String": "▁"
        },
        "content": " "
      },
      {
        "type": "ByteFallback"
      },
      {
        "type": "Fuse"
      },
      {
        "type": "Strip",
        "content": " ",
        "start": 1,
        "stop": 0
      }
    ]
  },
  "model": {
    "type": "BPE",
    "dropout": null,
    "unk_token": "<unk>",
    "continuing_subword_prefix": null,
    "end_of_word_suffix": null,
    "fuse_unk": true,
    "byte_fallback": true,
    "ignore_merges": false,
    "vocab": {
      "<unk>": 0,
      "<s>": 1,
      "</s>": 2,
      "<pad>": 3,
      "<0x00>": 4,
      "<0x01>": 5,
      "<0x02>": 6,
      "<0x03>": 7,
      "<0x04>": 8,
      "<0x05>": 9,
      "<0x06>": 10,
      "<0x07>": 11,
      "<0x08>": 12,
      "<0x09>": 13,
      "<0x0A>": 14,
      "<0x0B>": 15,
      "<0x0C>": 16,
      "<0x0D>": 17,
      "<0x0E>": 18,
      "<0x0F>": 19,
      "<0x10>": 20,
      "<0x11>": 21,
      "<0x12>": 22,
      "<0x13>": 23,
      "<0x14>": 24,
      "<0x15>": 25,
      "<0x16>": 26,
      "<0x17>": 27,
      "<0x18>": 28,
      "<0x19>": 29,
      "<0x1A>": 30,
      "<0x1B>": 31,
      "<0x1C>": 32,
      "<0x1D>": 33,
      "<0x1E>": 34,
      "<0x1F>": 35,
      "<0x20>": 36,
      "<0x21>": 37,
      "<0x22>": 38,
      "<0x23>": 39,
      "<0x24>": 40,
      "<0x25>": 41,
      "<0x26>": 42,
      "<0x27>": 43,
      "<0x28>": 44,
      "<0x29>": 45,
      "<0x2A>": 46,
      "<0x2B>": 47,
      "<0x2C>": 48,
      "<0x2D>": 49,
      "<0x2E>": 50,
      "<0x2F>": 51,
      "<0x30>": 52,
      "<0x31>": 53,
      "<0x32>": 54,
      "<0x33>": 55,
      "<0x34>": 56,
      "<0x35>": 57,
      "<0x36>": 58,
      "<0x37>": 59,
      "<0x38>": 60,
      "<0x39>": 61,
      "<0x3A>": 62,
      "<0x3B>": 63,
      "<0x3C>": 64,
      "<0x3D>": 65,
      "<0x3E>": 66,
      "<0x3F>": 67,
      "<0x40>": 68,
      "<0x41>": 69,
      "<0x42>": 70,
      "<0x43>": 71,
      "<0x44>": 72,
      "<0x45>": 73,
      "<0x46>": 74,
      "<0x47>": 75,
      "<0x48>": 76,
      "<0x49>": 77,
      "<0x4A>": 78,
      "<0x4B>": 79,
      "<0x4C>": 80,
      "<0x4D>": 81,
      "<0x4E>": 82,
      "<0x4F>": 83,
      "<0x50>": 84,
      "<0x51>": 85,
      "<0x52>": 86,
      "<0x53>": 87,
      "<0x54>": 88,
      "<0x55>": 89,
      "<0x56>": 90,
      "<0x57>": 91,
      "<0x58>": 92,
      "<0x59>": 93,
      "<0x5A>": 94,
      "<0x5B>": 95,
      "<0x5C>": 96,
      "<0x5D>": 97,
      "<0x5E>": 98,
      "<0x5F>": 99,
      "<0x60>": 100,
      "<0x61>": 101,
      "<0x62>": 102,
      "<0x63>": 103,
      "<0x64>": 104,
      "<0x65>": 105,
      "<0x66>": 106,
      "<0x67>": 107,
      "<0x68>": 108,
      "<0x69>": 109,
      "<0x6A>": 110,
      "<0x6B>": 111,
      "<0x6C>": 112,
      "<0x6D>": 113,
      "<0x6E>": 114,
      "<0x6F>": 115,
      "<0x70>": 116,
      "<0x71>": 117,
      "<0x72>": 118,
      "<0x73>": 119,
      "<0x74>": 120,
      "<0x75>": 121,
      "<0x76>": 122,
      "<0x77>": 123,
      "<0x78>": 124,
      "<0x79>": 125,
      "<0x7A>": 126,
      "<0x7B>": 127,
      "<0x7C>": 128,
      "<0x7D>": 129,
      "<0x7E>": 130,
      "<0x7F>": 131,
      "<0x80>": 132,
      "<0x81>": 133,
      "<0x82>": 134,
      "<0x83>": 135,
      "<0x84>": 136,
      "<0x85>": 137,
      "<0x86>": 138,
      "<0x87>": 139,
      "<0x88>": 140,
      "<0x89>": 141,
      "<0x8A>": 142,
      "<0x8B>": 143,
      "<0x8C>": 144,
      "<0x8D>": 145,
      "<0x8E>": 146,
      "<0x8F>": 147,
      "<0x90>": 148,
      "<0x91>": 149,
      "<0x92>": 150,
      "<0x93>": 151,
      "<0x94>": 152,
      "<0x95>": 153,
      "<0x96>": 154,
      "<0x97>": 155,
      "<0x98>": 156,
      "<0x99>": 157,
      "<0x9A>": 158,
      "<0x9B>": 159,
      "<0x9C>": 160,
      "<0x9D>": 161,
      "<0x9E>": 162,
      "<0x9F>": 163,
      "<0xA0>": 164,
      "<0xA1>": 165,
      "<0xA2>": 166,
      "<0xA3>": 167,
      "<0xA4>": 168,
      "<0xA5>": 169,
      "<0xA6>": 170,
      "<0xA7>": 171,
      "<0xA8>": 172,
      "<0xA9>": 173,
      "<0xAA>": 174,
      "<0xAB>": 175,
      "<0xAC>": 176,
      "<0xAD>": 177,
      "<0xAE>": 178,
      "<0xAF>": 179,
      "<0xB0>": 180,
      "<0xB1>": 181,
      "<0xB2>": 182,
      "<0xB3>": 183,
      "<0xB4>": 184,
      "<0xB5>": 185,
      "<0xB6>": 186,
      "<0xB7>": 187,
      "<0xB8>": 188,
      "<0xB9>": 189,
      "<0xBA>": 190,
      "<0xBB>": 191,
      "<0xBC>": 192,
      "<0xBD>": 193,
      "<0xBE>": 194,
      "<0xBF>": 195,
      "<0xC0>": 196,
      "<0xC1>": 197,
      "<0xC2>": 198,
      "<0xC3>": 199,
      "<0xC4>": 200,
      "<0xC5>": 201,
      "<0xC6>": 202,
      "<0xC7>": 203,
      "<0xC8>": 204,
      "<0xC9>": 205,
      "<0xCA>": 206,
      "<0xCB>": 207,
      "<0xCC>": 208,
      "<0xCD>": 209,
      "<0xCE>": 210,
      "<0xCF>": 211,
      "<0xD0>": 212,
      "<0xD1>": 213,
      "<0xD2>": 214,
      "<0xD3>": 215,
      "<0xD4>": 216,
      "<0xD5>": 217,
      "<0xD6>": 218,
      "<0xD7>": 219,
      "<0xD8>": 220,
      "<0xD9>": 221,
      "<0xDA>": 222,
      "<0xDB>": 223,
      "<0xDC>": 224,
      "<0xDD>": 225,
      "<0xDE>": 226,
      "<0xDF>": 227,
      "<0xE0>": 228,
      "<0xE1>": 229,
      "<0xE2>": 230,
      "<0xE3>": 231,
      "<0xE4>": 232,
      "<0xE5>": 233,
      "<0xE6>": 234,
      "<0xE7>": 235,
      "<0xE8>": 236,
      "<0xE9>": 237,
      "<0xEA>": 238,
      "<0xEB>": 239,
      "<0xEC>": 240,
      "<0xED>": 241,
      "<0xEE>": 242,
      "<0xEF>": 243,
      "<0xF0>": 244,
      "<0xF1>": 245,
      "<0xF2>": 246,
      "<0xF3>": 247,
      "<0xF4>": 248,
      "<0xF5>": 249,
      "<0xF6>": 250,
      "<0xF7>": 251,
      "<0xF8>": 252,
      "<0xF9>": 253,
      "<0xFA>": 254,
      "<0xFB>": 255,
      "<0xFC>": 256,
      "<0xFD>": 257,
      "<0xFE>": 258,
      "<0xFF>": 259,
      "▁t": 260,
      "▁a": 261,
      "he": 262,
      "in": 263,
      "er": 264,
      "on": 265,
      "▁the": 266,
      "re": 267,
      "or": 268,
      "▁s": 269,
      "an": 270,
      "en": 271,
      "at": 272,
      "▁w": 273,
      "▁o": 274,
      "is": 275,
      "es": 276,
      "ed": 277,
      "it": 278,
      "al": 279,
      "▁c": 280,
      "▁f": 281,
      "ar": 282,
      "nd": 283,
      "▁p": 284,
      "▁of": 285,
      "▁in": 286,
      "▁b": 287,
      "ing": 288,
      "ou": 289,
      "▁and": 290,
      "ic": 291,
      "as": 292,
      "▁m": 293,
      "▁to": 294,
      "ion": 295,
      "le": 296,
      "▁d": 297,
      "om": 298,
      "▁S": 299,
      "▁T": 300,
      "▁C": 301,
      "▁A": 302,
      "▁h": 303,
      "il": 304,
      "ent": 305,
      "st": 306,
      "ro": 307,
      "▁1": 308,
      "▁M": 309,
      "▁I": 310,
      "el": 311,
      "▁re": 312,
      "▁l": 313,
      "am": 314,
      "ol": 315,
      "ct": 316,
      "▁th": 317,
      "et": 318,
      "▁P": 319,
      "iv": 320,
      "▁2": 321,
      "▁B": 322,
      "▁n": 323,
      "ur": 324,
      "▁e": 325,
      "ers": 326,
      "ad": 327,
      "ch": 328,
      "▁R": 329,
      "▁for": 330,
      "▁g": 331,
      "ot": 332,
      "▁on": 333,
      "▁H": 334,
      "ation": 335,
      "ay": 336,
      "ig": 337,
      "ce": 338,
      "▁is": 339,
      "id": 340,
      "ir": 341,
      "ly": 342,
      "ut": 343,
      "us": 344,
      "im": 345,
      "▁D": 346,
      "▁F": 347,
      "▁(": 348,
      "▁L": 349,
      "▁The": 350,
      "▁was": 351,
      "▁y": 352,
      "ow": 353,
      "▁W": 354,
      "▁be": 355,
      "▁20": 356,
      "ith": 357,
      "ter": 358,
      "▁as": 359,
      "▁st": 360,
      "ra": 361,
      "em": 362,
      "▁19": 363,
      "▁E": 364,
      "ist": 365,
      "▁N": 366,
      "▁he": 367,
      "▁G": 368,
      "th": 369,
      "▁with": 370,
      "un": 371,
      "ul": 372,
      "▁you": 373,
      "▁al": 374,
      "▁at": 375,
      "ag": 376,
      "ver": 377,
      "and": 378,
      "rom": 379,
      "▁J": 380,
      "▁that": 381,
      "▁O": 382,
      "▁an": 383,
      "op": 384,
      "os": 385,
      "um": 386,
      "ac": 387,
      "est": 388,
      "▁wh": 389,
      "if": 390,
      "ve": 391,
      "▁pro": 392,
      "▁by": 393,
      "her": 394,
      "▁con": 395,
      "▁it": 396,
      "ill": 397,
      "▁from": 398,
      "▁com": 399,
      "▁de": 400,
      "ate": 401,
      "ri": 402,
      "oc": 403,
      "ity": 404,
      "ab": 405,
      "ak": 406,
      "all": 407,
      "art": 408,
      "od": 409,
      "ort": 410,
      "res": 411,
      "▁v": 412,
      "ess": 413,
      "▁In": 414,
      "▁se": 415,
      "ain": 416,
      "ian": 417,
      "▁U": 418,
      "pp": 419,
      "ber": 420,
      "▁K": 421,
      "▁201": 422,
      "▁are": 423,
      "igh": 424,
      "ew": 425,
      "▁pl": 426,
      "ore": 427,
      "ies": 428,
      "ard": 429,
      "ld": 430,
      "▁or": 431,
      "qu": 432,
      "ud": 433,
      "▁Re": 434,
      "our": 435,
      "ant": 436,
      "se": 437,
      "▁r": 438,
      "ia": 439,
      "ment": 440,
      "ive": 441,
      "▁ex": 442,
      "pe": 443,
      "fer": 444,
      "ust": 445,
      "▁ch": 446,
      "▁St": 447,
      "ub": 448,
      "og": 449,
      "ip": 450,
      "end": 451,
      "▁Ch": 452,
      "ear": 453,
      "ge": 454,
      "ial": 455,
      "ary": 456,
      "▁ha": 457,
      "ell": 458,
      "ich": 459,
      "nt": 460,
      "up": 461,
      "ast": 462,
      "▁\"": 463,
      "enc": 464,
      "ure": 465,
      "ight": 466,
      "ine": 467,
      "ated": 468,
      "▁sh": 469,
      "ks": 470,
      "rou": 471,
      "ong": 472,
      "ions": 473,
      "mer": 474,
      "ap": 475,
      "▁V": 476,
      "▁le": 477,
      "▁his": 478,
      "ov": 479,
      "ost": 480,
      "ish": 481,
      "are": 482,
      "▁comp": 483,
      "ue": 484,
      "▁wor": 485,
      "ire": 486,
      "▁|": 487,
      "▁He": 488,
      "▁we": 489,
      "gh": 490,
      "▁k": 491,
      "20": 492,
      "so": 493,
      "ok": 494,
      "out": 495,
      "ect": 496,
      "▁have": 497,
      "ical": 498,
      "▁not": 499,
      "▁us": 500,
      "▁Y": 501,
      "ie": 502,
      "▁your": 503,
      "uc": 504,
      "ame": 505,
      "ice": 506,
      "ome": 507,
      "pt": 508,
      "▁Un": 509,
      "▁this": 510,
      "ide": 511,
      "ran": 512,
      "ff": 513,
      "ign": 514,
      "▁can": 515,
      "age": 516,
      "▁play": 517,
      "▁has": 518,
      "▁Th": 519,
      "ry": 520,
      "▁It": 521,
      "▁also": 522,
      "▁j": 523,
      "av": 524,
      "▁te": 525,
      "tern": 526,
      "00": 527,
      "ople": 528,
      "▁whe": 529,
      "ences": 530,
      "erv": 531,
      "cl": 532,
      "▁ab": 533,
      "▁which": 534,
      "ere": 535,
      "iz": 536,
      "▁ad": 537,
      "ther": 538,
      "ack": 539,
      "▁cl": 540,
      "▁un": 541,
      "ous": 542,
      "ult": 543,
      "ass": 544,
      "ord": 545,
      "ould": 546,
      "rit": 547,
      "per": 548,
      "▁all": 549,
      "ik": 550,
      "▁ar": 551,
      "eople": 552,
      "ations": 553,
      "▁3": 554,
      "ater": 555,
      "▁will": 556,
      "ime": 557,
      "ction": 558,
      "und": 559,
      "ence": 560,
      "ach": 561,
      "irst": 562,
      "▁their": 563,
      "▁go": 564,
      "▁su": 565,
      "ib": 566,
      "▁cont": 567,
      "▁her": 568,
      "ric": 569,
      "▁ne": 570,
      "ferences": 571,
      "ond": 572,
      "▁Al": 573,
      "▁were": 574,
      "▁Se": 575,
      "▁De": 576,
      "orm": 577,
      "ount": 578,
      "ational": 579,
      "▁res": 580,
      "te": 581,
      "orn": 582,
      "ang": 583,
      "ake": 584,
      "▁part": 585,
      "▁References": 586,
      "ru": 587,
      "▁but": 588,
      "hed": 589,
      "amp": 590,
      "▁ac": 591,
      "▁who": 592,
      "ition": 593,
      "),": 594,
      "ound": 595,
      "port": 596,
      "ree": 597,
      "one": 598,
      "ind": 599,
      "able": 600,
      "▁18": 601,
      "ace": 602,
      "any": 603,
      "▁app": 604,
      "▁one": 605,
      "ents": 606,
      "ivers": 607,
      "19": 608,
      "ember": 609,
      "own": 610,
      "ory": 611,
      "▁up": 612,
      "▁first": 613,
      "pl": 614,
      "▁en": 615,
      "▁out": 616,
      "▁work": 617,
      "ph": 618,
      "▁int": 619,
      "fter": 620,
      "ite": 621,
      "▁year": 622,
      "ally": 623,
      "▁had": 624,
      "ng": 625,
      "▁im": 626,
      "▁people": 627,
      "ile": 628,
      "ors": 629,
      "ild": 630,
      "▁–": 631,
      "ail": 632,
      "act": 633,
      "ican": 634,
      "▁sc": 635,
      "▁she": 636,
      "ball": 637,
      "ance": 638,
      "iss": 639,
      "ward": 640,
      "▁per": 641,
      "ilm": 642,
      "oin": 643,
      "▁do": 644,
      "oot": 645,
      "▁2019": 646,
      "▁they": 647,
      "ase": 648,
      "▁Mar": 649,
      "aw": 650,
      "▁Ar": 651,
      "ath": 652,
      "ics": 653,
      "ings": 654,
      "wo": 655,
      "▁As": 656,
      "▁ev": 657,
      "ook": 658,
      "▁me": 659,
      "ts": 660,
      "ade": 661,
      "▁its": 662,
      "ates": 663,
      "▁des": 664,
      "form": 665,
      "oll": 666,
      "ens": 667,
      "▁Com": 668,
      "▁rec": 669,
      "vel": 670,
      "oy": 671,
      "▁sp": 672,
      "▁serv": 673,
      "▁more": 674,
      "ool": 675,
      "▁ag": 676,
      "▁200": 677,
      "▁so": 678,
      "ubl": 679,
      "▁ro": 680,
      "▁Amer": 681,
      "▁dis": 682,
      "clud": 683,
      "ress": 684,
      "▁On": 685,
      "hip": 686,
      "land": 687,
      "▁Le": 688,
      "ely": 689,
      "▁been": 690,
      "ob": 691,
      "▁other": 692,
      "▁qu": 693,
      "▁199": 694,
      ").": 695,
      "▁bec": 696,
      "▁pol": 697,
      "ons": 698,
      "old": 699,
      "lect": 700,
      "▁time": 701,
      "▁pre": 702,
      "ited": 703,
      "ose": 704,
      "▁new": 705,
      "very": 706,
      "▁about": 707,
      "ark": 708,
      "▁Ex": 709,
      "iversity": 710,
      "les": 711,
      "cess": 712,
      "▁includ": 713,
      "▁off": 714,
      "man": 715,
      "ick": 716,
      "als": 717,
      "▁over": 718,
      "▁comm": 719,
      "ied": 720,
      "we": 721,
      "▁our": 722,
      "du": 723,
      "▁She": 724,
      "ug": 725,
      "▁We": 726,
      "▁kn": 727,
      "wn": 728,
      "▁This": 729,
      "ep": 730,
      "▁4": 731,
      "ey": 732,
      "ased": 733,
      "iving": 734,
      "uring": 735,
      "▁two": 736,
      "▁American": 737,
      "reat": 738,
      "▁University": 739,
      "olog": 740,
      "io": 741,
      "▁film": 742,
      "ren": 743,
      "ife": 744,
      "ays": 745,
      "▁act": 746,
      "▁spe": 747,
      "▁co": 748,
      "ft": 749,
      "▁5": 750,
      "ists": 751,
      "cent": 752,
      "▁New": 753,
      "ram": 754,
      "ason": 755,
      "▁und": 756,
      "▁into": 757,
      "mp": 758,
      "ted": 759,
      "▁when": 760,
      "▁-": 761,
      "▁tra": 762,
      "chool": 763,
      "gan": 764,
      "urn": 765,
      "ury": 766,
      "▁bir": 767,
      "▁after": 768,
      "ike": 769,
      "ootball": 770,
      "▁my": 771,
      "ough": 772,
      "▁198": 773,
      "anc": 774,
      "omen": 775,
      "ans": 776,
      "▁lin": 777,
      "▁players": 778,
      "rough": 779,
      "ale": 780,
      "▁ass": 781,
      "▁them": 782,
      "ision": 783,
      "▁would": 784,
      "outh": 785,
      "ont": 786,
      "vi": 787,
      "ood": 788,
      "▁Pro": 789,
      "round": 790,
      "ll": 791,
      "▁birth": 792,
      "▁Sh": 793,
      "hes": 794,
      "▁col": 795,
      "▁loc": 796,
      "red": 797,
      "use": 798,
      "▁reg": 799,
      "▁202": 800,
      "▁team": 801,
      "ah": 802,
      "▁2020": 803,
      "▁pr": 804,
      "▁fe": 805,
      "▁bu": 806,
      "▁under": 807,
      "▁some": 808,
      "ck": 809,
      "▁att": 810,
      "▁ra": 811,
      "▁there": 812,
      "ork": 813,
      "▁stud": 814,
      "▁sec": 815,
      "rib": 816,
      "▁where": 817,
      "▁fl": 818,
      "▁fin": 819,
      "▁prov": 820,
      "ames": 821,
      "▁ind": 822,
      "rans": 823,
      "ily": 824,
      "oun": 825,
      "▁bet": 826,
      "▁any": 827,
      "ual": 828,
      "air": 829,
      "ident": 830,
      "ier": 831,
      "▁Cl": 832,
      "oci": 833,
      "▁6": 834,
      "ann": 835,
      "ener": 836,
      "ished": 837,
      "▁Col": 838,
      "▁Te": 839,
      "ata": 840,
      "▁196": 841,
      "▁Ind": 842,
      "ating": 843,
      "oh": 844,
      "▁am": 845,
      "hen": 846,
      "irect": 847,
      "▁cons": 848,
      "▁197": 849,
      "ank": 850,
      "ities": 851,
      "▁get": 852,
      "ix": 853,
      "erson": 854,
      "▁Par": 855,
      "▁An": 856,
      "ting": 857,
      "au": 858,
      "▁years": 859,
      "ock": 860,
      "▁Z": 861,
      "ative": 862,
      "az": 863,
      "pr": 864,
      "iver": 865,
      "roup": 866,
      "inn": 867,
      "▁inter": 868,
      "rad": 869,
      "▁Sc": 870,
      "▁art": 871,
      "att": 872,
      "ternal": 873,
      "▁194": 874,
      "▁(19": 875,
      "emb": 876,
      "ince": 877,
      "▁ph": 878,
      "▁through": 879,
      "resent": 880,
      "fore": 881,
      "ral": 882,
      "▁man": 883,
      "ash": 884,
      "▁publ": 885,
      "▁most": 886,
      "▁than": 887,
      "ject": 888,
      "▁football": 889,
      "ollow": 890,
      "▁only": 891,
      "ict": 892,
      "▁supp": 893,
      "▁Pl": 894,
      "▁“": 895,
      "▁Wh": 896,
      "▁add": 897,
      "ourn": 898,
      "erm": 899,
      "▁need": 900,
      "▁sa": 901,
      "▁ed": 902,
      "▁||": 903,
      "ove": 904,
      "raph": 905,
      "ific": 906,
      "▁then": 907,
      "▁med": 908,
      "ular": 909,
      "▁ser": 910,
      "ton": 911,
      "▁bl": 912,
      "cial": 913,
      "▁well": 914,
      "▁links": 915,
      "arn": 916,
      "▁inv": 917,
      "▁Eng": 918,
      "▁Wor": 919,
      "▁hel": 920,
      "ise": 921,
      "der": 922,
      "ional": 923,
      "18": 924,
      "▁ent": 925,
      "▁how": 926,
      "▁7": 927,
      "ement": 928,
      "▁sub": 929,
      "▁again": 930,
      "▁United": 931,
      "oth": 932,
      "vern": 933,
      "aj": 934,
      "▁season": 935,
      "iel": 936,
      "▁rel": 937,
      "▁External": 938,
      "▁8": 939,
      "duc": 940,
      "ful": 941,
      "▁if": 942,
      "velop": 943,
      "▁like": 944,
      "▁For": 945,
      "▁sy": 946,
      "ures": 947,
      "ina": 948,
      "orth": 949,
      "oss": 950,
      "▁Q": 951,
      "▁care": 952,
      "ament": 953,
      "▁help": 954,
      "▁life": 955,
      "▁You": 956,
      "com": 957,
      "xt": 958,
      "▁fam": 959,
      "▁rem": 960,
      "▁ret": 961,
      "▁writ": 962,
      "▁form": 963,
      "▁made": 964,
      "▁may": 965,
      "eth": 966,
      "▁set": 967,
      "mber": 968,
      "▁Comm": 969,
      "▁em": 970,
      "iness": 971,
      "ower": 972,
      "▁births": 973,
      "ros": 974,
      "ments": 975,
      "its": 976,
      "ins": 977,
      "ert": 978,
      "cember": 979,
      "ouse": 980,
      "▁follow": 981,
      "▁what": 982,
      "fess": 983,
      "ween": 984,
      "ari": 985,
      "▁trans": 986,
      "row": 987,
      "ices": 988,
      "▁during": 989,
      "ars": 990,
      "▁.": 991,
      "▁195": 992,
      "ober": 993,
      "▁back": 994,
      "way": 995,
      "▁found": 996,
      "▁direct": 997,
      "ract": 998,
      "▁just": 999,
      "usic": 1000,
      "lish": 1001,
      "ounc": 1002,
      "▁bus": 1003,
      "▁end": 1004,
      "ek": 1005,
      "ines": 1006,
      "▁&": 1007,
      "▁him": 1008,
      "enn": 1009,
      "▁def": 1010,
      "▁start": 1011,
      "▁December": 1012,
      "▁Jan": 1013,
      "▁use": 1014,
      "▁br": 1015,
      "▁World": 1016,
      "▁data": 1017,
      "▁est": 1018,
      "▁no": 1019,
      "▁women": 1020,
      "ys": 1021,
      "1,": 1022,
      "▁10": 1023,
      "ten": 1024,
      "▁these": 1025,
      "eb": 1026,
      "ived": 1027,
      "▁(20": 1028,
      "▁own": 1029,
      "uss": 1030,
      "▁rece": 1031,
      "duct": 1032,
      "ience": 1033,
      "▁show": 1034,
      "▁9": 1035,
      "els": 1036,
      "▁Ac": 1037,
      "▁three": 1038,
      "▁before": 1039,
      "ograph": 1040,
      "▁imp": 1041,
      "▁between": 1042,
      "ai": 1043,
      "ty": 1044,
      "▁make": 1045,
      "▁Be": 1046,
      "arg": 1047,
      "▁design": 1048,
      "ology": 1049,
      "ampions": 1050,
      "▁cent": 1051,
      "ather": 1052,
      "▁bo": 1053,
      "▁dec": 1054,
      "▁dif": 1055,
      "▁being": 1056,
      "▁At": 1057,
      "▁many": 1058,
      "wards": 1059,
      "▁inst": 1060,
      "▁high": 1061,
      "=\"": 1062,
      "▁such": 1063,
      "2,": 1064,
      "elf": 1065,
      "ient": 1066,
      "pect": 1067,
      "▁rele": 1068,
      "ague": 1069,
      "▁second": 1070,
      "▁men": 1071,
      "▁rep": 1072,
      "▁National": 1073,
      "other": 1074,
      "▁lead": 1075,
      "ink": 1076,
      "▁Jun": 1077,
      "co": 1078,
      "stem": 1079,
      "lection": 1080,
      "aking": 1081,
      "ause": 1082,
      "ces": 1083,
      "▁Is": 1084,
      "ern": 1085,
      "▁num": 1086,
      "▁Ad": 1087,
      "▁min": 1088,
      "chn": 1089,
      "▁Ph": 1090,
      "ull": 1091,
      "▁polit": 1092,
      "▁Can": 1093,
      "▁May": 1094,
      "▁Nov": 1095,
      "born": 1096,
      "▁exper": 1097,
      "pen": 1098,
      "ives": 1099,
      "▁prog": 1100,
      "ternational": 1101,
      "▁2018": 1102,
      "century": 1103,
      "uary": 1104,
      "▁school": 1105,
      "▁sing": 1106,
      "▁mov": 1107,
      "▁develop": 1108,
      "▁inc": 1109,
      "ible": 1110,
      "▁compet": 1111,
      "li": 1112,
      "▁Con": 1113,
      "▁Sp": 1114,
      "arly": 1115,
      "▁cre": 1116,
      "ility": 1117,
      "arm": 1118,
      "let": 1119,
      "▁call": 1120,
      "bs": 1121,
      "▁sm": 1122,
      "▁cur": 1123,
      "▁sur": 1124,
      "uch": 1125,
      "ange": 1126,
      "▁Aust": 1127,
      "ield": 1128,
      "▁17": 1129,
      "▁water": 1130,
      "▁Joh": 1131,
      "▁every": 1132,
      "urch": 1133,
      "ets": 1134,
      "istory": 1135,
      "▁mon": 1136,
      "lymp": 1137,
      "inal": 1138,
      "ummer": 1139,
      "▁And": 1140,
      "▁gu": 1141,
      "ene": 1142,
      "▁dist": 1143,
      "▁while": 1144,
      "ax": 1145,
      "▁Fran": 1146,
      "ature": 1147,
      "ants": 1148,
      "uro": 1149,
      "▁193": 1150,
      "▁acc": 1151,
      "embers": 1152,
      "ven": 1153,
      "▁death": 1154,
      "lege": 1155,
      "▁Olymp": 1156,
      "▁business": 1157,
      "ior": 1158,
      "▁South": 1159,
      "▁ins": 1160,
      "arch": 1161,
      "day": 1162,
      "▁long": 1163,
      "▁used": 1164,
      "▁Ju": 1165,
      "▁group": 1166,
      "▁If": 1167,
      "▁including": 1168,
      "▁know": 1169,
      "3,": 1170,
      "▁Bl": 1171,
      "ever": 1172,
      "ec": 1173,
      "ues": 1174,
      "▁15": 1175,
      "▁gener": 1176,
      "▁mod": 1177,
      "▁Living": 1178,
      "atch": 1179,
      "▁support": 1180,
      "ism": 1181,
      "alth": 1182,
      "ality": 1183,
      "▁car": 1184,
      "ute": 1185,
      "ians": 1186,
      "▁State": 1187,
      "▁count": 1188,
      "▁All": 1189,
      "▁series": 1190,
      "ister": 1191,
      "ley": 1192,
      "▁best": 1193,
      "▁list": 1194,
      "▁January": 1195,
      "▁March": 1196,
      "▁person": 1197,
      "ural": 1198,
      "▁exp": 1199,
      "▁ann": 1200,
      "ired": 1201,
      "ized": 1202,
      "▁Reg": 1203,
      "val": 1204,
      "▁States": 1205,
      "..": 1206,
      "▁home": 1207,
      "▁child": 1208,
      "led": 1209,
      "▁place": 1210,
      "▁Res": 1211,
      "▁aut": 1212,
      "▁elect": 1213,
      "▁very": 1214,
      "▁family": 1215,
      "▁Br": 1216,
      "ross": 1217,
      "ampionship": 1218,
      "▁sign": 1219,
      "aly": 1220,
      "▁organ": 1221,
      "ety": 1222,
      "▁After": 1223,
      "ave": 1224,
      "view": 1225,
      "▁tr": 1226,
      "▁profess": 1227,
      "part": 1228,
      "eng": 1229,
      "aint": 1230,
      "▁build": 1231,
      "▁Car": 1232,
      "▁won": 1233,
      "▁day": 1234,
      "ution": 1235,
      "▁Pol": 1236,
      "▁against": 1237,
      "▁four": 1238,
      "▁later": 1239,
      "▁right": 1240,
      "▁adv": 1241,
      "▁November": 1242,
      "▁eff": 1243,
      "▁16": 1244,
      "▁Me": 1245,
      "▁Ass": 1246,
      "ket": 1247,
      "▁John": 1248,
      "▁both": 1249,
      "▁could": 1250,
      "▁became": 1251,
      "▁way": 1252,
      "▁unt": 1253,
      ".\"": 1254,
      "0.": 1255,
      "▁record": 1256,
      "get": 1257,
      "▁ext": 1258,
      "rent": 1259,
      "my": 1260,
      "▁program": 1261,
      "imes": 1262,
      "▁now": 1263,
      "▁Or": 1264,
      "▁Aug": 1265,
      "ports": 1266,
      "ery": 1267,
      "▁known": 1268,
      "rict": 1269,
      "rist": 1270,
      "▁How": 1271,
      "▁same": 1272,
      "ble": 1273,
      "▁Brit": 1274,
      "▁company": 1275,
      "▁Oct": 1276,
      "ee": 1277,
      "lev": 1278,
      "ptember": 1279,
      "▁each": 1280,
      "formation": 1281,
      "ages": 1282,
      "▁bel": 1283,
      "ital": 1284,
      "▁post": 1285,
      "▁song": 1286,
      "▁look": 1287,
      "stit": 1288,
      "\".": 1289,
      "▁partic": 1290,
      "▁even": 1291,
      "▁want": 1292,
      "▁since": 1293,
      "cept": 1294,
      "▁bro": 1295,
      "▁Go": 1296,
      "▁dr": 1297,
      "4,": 1298,
      "5,": 1299,
      "▁Med": 1300,
      "ually": 1301,
      "ott": 1302,
      "▁until": 1303,
      "▁August": 1304,
      "▁September": 1305,
      "2.": 1306,
      "▁music": 1307,
      "▁perform": 1308,
      "ret": 1309,
      "▁comple": 1310,
      "▁Ge": 1311,
      "▁system": 1312,
      "fl": 1313,
      "ider": 1314,
      "▁good": 1315,
      "line": 1316,
      "▁world": 1317,
      "▁Part": 1318,
      "▁They": 1319,
      "▁said": 1320,
      "ission": 1321,
      "▁poin": 1322,
      "▁films": 1323,
      "▁October": 1324,
      "itt": 1325,
      "1.": 1326,
      "▁run": 1327,
      "▁Cent": 1328,
      "ze": 1329,
      "adem": 1330,
      "▁should": 1331,
      "ruct": 1332,
      "alk": 1333,
      "▁career": 1334,
      "▁differ": 1335,
      "▁did": 1336,
      "▁cour": 1337,
      "vernment": 1338,
      "▁result": 1339,
      "▁July": 1340,
      "▁Euro": 1341,
      "▁estab": 1342,
      "▁commun": 1343,
      "▁find": 1344,
      "▁Comp": 1345,
      "▁open": 1346,
      "▁School": 1347,
      "▁member": 1348,
      "son": 1349,
      "amed": 1350,
      "▁June": 1351,
      "▁requ": 1352,
      "ling": 1353,
      "▁event": 1354,
      "▁Pr": 1355,
      "pril": 1356,
      "▁public": 1357,
      "▁number": 1358,
      "▁spec": 1359,
      "ved": 1360,
      "▁sim": 1361,
      "▁take": 1362,
      "sh": 1363,
      "con": 1364,
      "▁cap": 1365,
      "▁det": 1366,
      "▁top": 1367,
      "▁Canad": 1368,
      "▁down": 1369,
      "que": 1370,
      "ator": 1371,
      "7,": 1372,
      "ium": 1373,
      "▁192": 1374,
      "▁Sw": 1375,
      "0,": 1376,
      "ised": 1377,
      "▁class": 1378,
      "▁che": 1379,
      "▁April": 1380,
      "▁mar": 1381,
      "resident": 1382,
      "▁sk": 1383,
      "▁oper": 1384,
      "▁vis": 1385,
      "▁join": 1386,
      "itions": 1387,
      "▁War": 1388,
      "▁great": 1389,
      "▁because": 1390,
      "▁Count": 1391,
      "▁Summer": 1392,
      "▁read": 1393,
      "▁Co": 1394,
      "▁av": 1395,
      "▁around": 1396,
      "ious": 1397,
      "▁21": 1398,
      "▁offic": 1399,
      "▁see": 1400,
      "▁League": 1401,
      "▁English": 1402,
      "▁Feb": 1403,
      "▁char": 1404,
      "▁There": 1405,
      "▁held": 1406,
      "akes": 1407,
      "▁pos": 1408,
      "ried": 1409,
      "▁$": 1410,
      "bum": 1411,
      "▁head": 1412,
      "reen": 1413,
      "▁mark": 1414,
      "ruary": 1415,
      "▁prom": 1416,
      "rop": 1417,
      "ands": 1418,
      "ared": 1419,
      "▁Man": 1420,
      "ography": 1421,
      "oo": 1422,
      "gy": 1423,
      "000": 1424,
      "▁bas": 1425,
      "▁members": 1426,
      "▁provid": 1427,
      "▁Am": 1428,
      "ats": 1429,
      "▁service": 1430,
      "▁product": 1431,
      "▁Af": 1432,
      "▁North": 1433,
      "ocial": 1434,
      "▁much": 1435,
      "▁February": 1436,
      "▁Austral": 1437,
      "▁Championship": 1438,
      "ung": 1439,
      "ving": 1440,
      "▁last": 1441,
      "▁following": 1442,
      "3.": 1443,
      "riend": 1444,
      "▁game": 1445,
      "▁str": 1446,
      "▁See": 1447,
      "ically": 1448,
      "▁name": 1449,
      "6,": 1450,
      "ica": 1451,
      "▁gr": 1452,
      "▁sever": 1453,
      "▁educ": 1454,
      "▁Europe": 1455,
      "oad": 1456,
      "▁contin": 1457,
      "▁British": 1458,
      "▁served": 1459,
      "apan": 1460,
      "ne": 1461,
      "▁Fl": 1462,
      "▁project": 1463,
      "ained": 1464,
      "ining": 1465,
      "▁12": 1466,
      "▁book": 1467,
      "▁pop": 1468,
      "▁information": 1469,
      "uk": 1470,
      "▁area": 1471,
      "▁Gu": 1472,
      "yle": 1473,
      "ino": 1474,
      "ipp": 1475,
      "alif": 1476,
      "▁York": 1477,
      "ended": 1478,
      "▁vi": 1479,
      "▁don": 1480,
      "▁People": 1481,
      "▁orig": 1482,
      "ron": 1483,
      "▁Her": 1484,
      "▁Sy": 1485,
      "ple": 1486,
      "▁state": 1487,
      "▁Christ": 1488,
      "▁different": 1489,
      "vent": 1490,
      "ters": 1491,
      "ajor": 1492,
      "▁suc": 1493,
      "▁born": 1494,
      "▁based": 1495,
      "sort": 1496,
      "iment": 1497,
      "▁City": 1498,
      "4.": 1499,
      "ese": 1500,
      "▁those": 1501,
      "umn": 1502,
      "▁College": 1503,
      "▁return": 1504,
      "▁del": 1505,
      "▁rese": 1506,
      "▁main": 1507,
      "ows": 1508,
      "min": 1509,
      "▁sl": 1510,
      "ize": 1511,
      "▁Min": 1512,
      "por": 1513,
      "▁played": 1514,
      "▁law": 1515,
      "ches": 1516,
      "▁eng": 1517,
      "rench": 1518,
      "value": 1519,
      "ness": 1520,
      "▁fac": 1521,
      "▁vari": 1522,
      "aster": 1523,
      "ociation": 1524,
      "▁Japan": 1525,
      "ains": 1526,
      "▁la": 1527,
      "by": 1528,
      "▁desc": 1529,
      "▁along": 1530,
      "rem": 1531,
      "iam": 1532,
      "ird": 1533,
      "ony": 1534,
      "▁deb": 1535,
      "▁album": 1536,
      "ner": 1537,
      "read": 1538,
      "▁met": 1539,
      "▁manag": 1540,
      "▁techn": 1541,
      "augh": 1542,
      "med": 1543,
      "▁X": 1544,
      "▁small": 1545,
      "▁local": 1546,
      "5.": 1547,
      "▁Ger": 1548,
      "▁due": 1549,
      "ustom": 1550,
      "7.": 1551,
      "osed": 1552,
      "▁process": 1553,
      "▁released": 1554,
      "\",": 1555,
      "oman": 1556,
      "▁disc": 1557,
      "▁Rep": 1558,
      "▁does": 1559,
      "istor": 1560,
      "leg": 1561,
      "ilit": 1562,
      "levision": 1563,
      "▁Not": 1564,
      "eep": 1565,
      "uck": 1566,
      "▁pass": 1567,
      "▁ob": 1568,
      "angu": 1569,
      "▁So": 1570,
      "▁rest": 1571,
      "sp": 1572,
      "aff": 1573,
      "▁ty": 1574,
      "ards": 1575,
      "▁River": 1576,
      "▁order": 1577,
      "ana": 1578,
      "atic": 1579,
      "▁received": 1580,
      "▁activ": 1581,
      "▁several": 1582,
      "▁Art": 1583,
      "af": 1584,
      "ored": 1585,
      "▁French": 1586,
      "▁His": 1587,
      "cc": 1588,
      "-1": 1589,
      "▁month": 1590,
      "▁sol": 1591,
      "▁miss": 1592,
      "▁resp": 1593,
      "▁current": 1594,
      "▁County": 1595,
      "▁leg": 1596,
      "ival": 1597,
      "▁som": 1598,
      "bo": 1599,
      "▁When": 1600,
      "▁Ed": 1601,
      "ency": 1602,
      "▁Russ": 1603,
      "▁Afric": 1604,
      "▁gl": 1605,
      "ody": 1606,
      "ration": 1607,
      "▁eas": 1608,
      "▁par": 1609,
      "to": 1610,
      "hor": 1611,
      "aut": 1612,
      "▁produc": 1613,
      "rol": 1614,
      "▁offer": 1615,
      "ilt": 1616,
      "gg": 1617,
      "▁stre": 1618,
      "ournament": 1619,
      "▁But": 1620,
      "▁Gr": 1621,
      "▁import": 1622,
      "ined": 1623,
      "▁14": 1624,
      "iven": 1625,
      "oor": 1626,
      "▁13": 1627,
      "▁dra": 1628,
      "yl": 1629,
      "▁polo": 1630,
      "▁took": 1631,
      "▁|-": 1632,
      "ode": 1633,
      "▁val": 1634,
      "ivision": 1635,
      "▁children": 1636,
      "▁El": 1637,
      "che": 1638,
      "ster": 1639,
      "6.": 1640,
      "▁government": 1641,
      "▁city": 1642,
      "▁Olympics": 1643,
      "amb": 1644,
      "▁Ab": 1645,
      "ane": 1646,
      "▁No": 1647,
      "▁dep": 1648,
      "▁La": 1649,
      "▁International": 1650,
      "▁Sec": 1651,
      "▁still": 1652,
      "ris": 1653,
      "ales": 1654,
      "▁iss": 1655,
      "arl": 1656,
      "ption": 1657,
      "▁politic": 1658,
      "▁here": 1659,
      "▁pat": 1660,
      "▁11": 1661,
      "▁using": 1662,
      "arge": 1663,
      "▁special": 1664,
      "–20": 1665,
      "▁former": 1666,
      "▁club": 1667,
      "▁Ne": 1668,
      "▁hand": 1669,
      "▁prot": 1670,
      "ploy": 1671,
      "▁stat": 1672,
      "▁national": 1673,
      "▁services": 1674,
      "▁Party": 1675,
      "▁works": 1676,
      "▁fun": 1677,
      "▁custom": 1678,
      "▁II": 1679,
      "▁free": 1680,
      "▁2019,": 1681,
      "▁tit": 1682,
      "▁camp": 1683,
      "▁opp": 1684,
      "ours": 1685,
      "▁cle": 1686,
      "illion": 1687,
      "duction": 1688,
      "▁addition": 1689,
      "▁represent": 1690,
      "be": 1691,
      "▁ref": 1692,
      "▁Academ": 1693,
      "ways": 1694,
      "▁cor": 1695,
      "liament": 1696,
      "ately": 1697,
      "ps": 1698,
      "ivid": 1699,
      "▁called": 1700,
      "rid": 1701,
      "umb": 1702,
      "▁Will": 1703,
      "▁With": 1704,
      "▁real": 1705,
      "▁few": 1706,
      "▁sit": 1707,
      "▁Women": 1708,
      "▁avail": 1709,
      "▁within": 1710,
      "▁old": 1711,
      "ference": 1712,
      "▁US": 1713,
      "self": 1714,
      "▁Har": 1715,
      "▁el": 1716,
      "▁'": 1717,
      "▁West": 1718,
      "vious": 1719,
      "▁near": 1720,
      "▁mat": 1721,
      "▁Film": 1722,
      "▁interest": 1723,
      "▁present": 1724,
      "ries": 1725,
      "8,": 1726,
      "ittle": 1727,
      "▁early": 1728,
      "nect": 1729,
      "rew": 1730,
      "ves": 1731,
      "▁named": 1732,
      "▁En": 1733,
      "▁poss": 1734,
      "▁major": 1735,
      "inc": 1736,
      "▁deaths": 1737,
      "▁success": 1738,
      "▁191": 1739,
      "ense": 1740,
      "▁research": 1741,
      "yn": 1742,
      "▁Tr": 1743,
      "partment": 1744,
      "▁located": 1745,
      "ouncil": 1746,
      "▁though": 1747,
      "uper": 1748,
      "▁health": 1749,
      "▁appro": 1750,
      "▁report": 1751,
      "urg": 1752,
      "▁began": 1753,
      "▁next": 1754,
      "▁friend": 1755,
      "the": 1756,
      "ae": 1757,
      "▁Des": 1758,
      "▁side": 1759,
      "▁conf": 1760,
      "9,": 1761,
      "▁Bar": 1762,
      "de": 1763,
      "▁short": 1764,
      "▁style": 1765,
      "▁love": 1766,
      "▁webs": 1767,
      "anguage": 1768,
      "▁week": 1769,
      "▁Geor": 1770,
      "int": 1771,
      "▁worked": 1772,
      "less": 1773,
      "▁air": 1774,
      "▁left": 1775,
      "cord": 1776,
      "umni": 1777,
      "▁,": 1778,
      "lished": 1779,
      "hern": 1780,
      "▁German": 1781,
      "ctor": 1782,
      "ublic": 1783,
      "▁another": 1784,
      "ideo": 1785,
      "ief": 1786,
      "▁house": 1787,
      "▁working": 1788,
      ".,": 1789,
      "▁aff": 1790,
      "▁power": 1791,
      "osp": 1792,
      "▁To": 1793,
      "▁Dist": 1794,
      "side": 1795,
      "▁level": 1796,
      "▁think": 1797,
      "eter": 1798,
      "▁invest": 1799,
      "work": 1800,
      "▁King": 1801,
      "▁bre": 1802,
      "▁male": 1803,
      "ones": 1804,
      "omin": 1805,
      "vers": 1806,
      "▁include": 1807,
      "ondon": 1808,
      "conom": 1809,
      "ization": 1810,
      "▁Bro": 1811,
      "▁phot": 1812,
      "ington": 1813,
      "▁announc": 1814,
      "▁List": 1815,
      "▁professional": 1816,
      "lic": 1817,
      "▁available": 1818,
      "▁equ": 1819,
      "iron": 1820,
      "9.": 1821,
      "ently": 1822,
      "▁Cup": 1823,
      "aul": 1824,
      "▁stand": 1825,
      "▁Mc": 1826,
      "▁consider": 1827,
      "ued": 1828,
      "▁fact": 1829,
      "▁Indian": 1830,
      "▁games": 1831,
      "▁player": 1832,
      "ham": 1833,
      "radu": 1834,
      "ffic": 1835,
      "▁occ": 1836,
      "▁Tra": 1837,
      "▁mid": 1838,
      "The": 1839,
      "urs": 1840,
      "▁Bo": 1841,
      "ke": 1842,
      "▁tri": 1843,
      "alian": 1844,
      "fect": 1845,
      "▁Mich": 1846,
      "▁final": 1847,
      "▁However": 1848,
      "▁term": 1849,
      "▁History": 1850,
      "▁cr": 1851,
      "▁learn": 1852,
      "▁market": 1853,
      "▁without": 1854,
      "▁published": 1855,
      "▁London": 1856,
      "ribut": 1857,
      "▁describ": 1858,
      "▁full": 1859,
      "ille": 1860,
      "▁history": 1861,
      "▁too": 1862,
      "ering": 1863,
      "na": 1864,
      "eder": 1865,
      "▁ide": 1866,
      "▁experience": 1867,
      "▁single": 1868,
      "▁win": 1869,
      "▁election": 1870,
      "ware": 1871,
      "▁announced": 1872,
      "lif": 1873,
      "▁started": 1874,
      "▁grow": 1875,
      "▁died": 1876,
      "▁really": 1877,
      "▁Sen": 1878,
      "ively": 1879,
      "ified": 1880,
      "▁expl": 1881,
      "▁Bel": 1882,
      "▁Dav": 1883,
      "▁important": 1884,
      "ced": 1885,
      "▁effect": 1886,
      "▁indust": 1887,
      "▁Care": 1888,
      "ots": 1889,
      "iet": 1890,
      "ump": 1891,
      "ara": 1892,
      "▁Games": 1893,
      "ched": 1894,
      "-19": 1895,
      "itor": 1896,
      "▁One": 1897,
      "rap": 1898,
      "▁round": 1899,
      "ms": 1900,
      "stand": 1901,
      "▁going": 1902,
      "▁incre": 1903,
      "ison": 1904,
      "▁Year": 1905,
      "ocus": 1906,
      "▁Award": 1907,
      "▁events": 1908,
      "▁dem": 1909,
      "▁charact": 1910,
      "isc": 1911,
      "of": 1912,
      "▁Group": 1913,
      "▁country": 1914,
      "▁television": 1915,
      "▁Gl": 1916,
      "iter": 1917,
      "ilitary": 1918,
      "▁From": 1919,
      "▁const": 1920,
      "▁established": 1921,
      "2)": 1922,
      "▁fore": 1923,
      "abor": 1924,
      "▁put": 1925,
      "▁—": 1926,
      "▁social": 1927,
      "▁My": 1928,
      "▁Cor": 1929,
      "▁provide": 1930,
      "aim": 1931,
      "▁journ": 1932,
      "▁particip": 1933,
      "▁five": 1934,
      "▁website": 1935,
      "▁appear": 1936,
      "▁meet": 1937,
      "aus": 1938,
      "ope": 1939,
      "▁190": 1940,
      "▁built": 1941,
      "▁pe": 1942,
      "▁weight": 1943,
      "▁tournament": 1944,
      "lected": 1945,
      "itte": 1946,
      "▁non": 1947,
      "▁pract": 1948,
      "▁(1": 1949,
      "▁award": 1950,
      "▁young": 1951,
      "▁building": 1952,
      "▁large": 1953,
      "▁appoin": 1954,
      "▁189": 1955,
      "▁six": 1956,
      "▁international": 1957,
      "alf": 1958,
      "▁Ser": 1959,
      "ote": 1960,
      "ule": 1961,
      "oney": 1962,
      "▁cho": 1963,
      "–19": 1964,
      "ured": 1965,
      "▁30": 1966,
      "▁debut": 1967,
      "ush": 1968,
      "▁beg": 1969,
      "hel": 1970,
      "▁2019.": 1971,
      "ered": 1972,
      "iting": 1973,
      "▁turn": 1974,
      "aced": 1975,
      "▁site": 1976,
      "aces": 1977,
      "▁Bra": 1978,
      "▁Qu": 1979,
      "▁0": 1980,
      "ention": 1981,
      "▁Phil": 1982,
      "▁fr": 1983,
      "▁Roy": 1984,
      "▁chang": 1985,
      "lement": 1986,
      "▁pay": 1987,
      "▁able": 1988,
      "ground": 1989,
      "▁happ": 1990,
      "▁allow": 1991,
      "▁south": 1992,
      "▁High": 1993,
      "ending": 1994,
      "ociety": 1995,
      "▁proper": 1996,
      "▁ve": 1997,
      "ides": 1998,
      "▁vers": 1999,
      "▁cover": 2000,
      "▁Ag": 2001,
      "ying": 2002,
      "▁Italian": 2003,
      "ential": 2004,
      "ases": 2005,
      "ertain": 2006,
      "▁2017": 2007,
      "▁keep": 2008,
      "lands": 2009,
      "ique": 2010,
      "app": 2011,
      "mit": 2012,
      "pecial": 2013,
      "▁Cont": 2014,
      "gether": 2015,
      "hib": 2016,
      "▁sw": 2017,
      "lease": 2018,
      "▁winn": 2019,
      "lex": 2020,
      "▁ep": 2021,
      "uman": 2022,
      "▁third": 2023,
      "3)": 2024,
      "▁Dem": 2025,
      "▁Per": 2026,
      "▁community": 2027,
      "▁room": 2028,
      "▁together": 2029,
      "CA": 2030,
      "▁become": 2031,
      "▁having": 2032,
      "ories": 2033,
      "▁days": 2034,
      "▁must": 2035,
      "▁general": 2036,
      "▁students": 2037,
      "oon": 2038,
      "▁focus": 2039,
      "ulation": 2040,
      "▁making": 2041,
      "ky": 2042,
      "ients": 2043,
      "▁development": 2044,
      "ka": 2045,
      "ford": 2046,
      "▁light": 2047,
      "▁25": 2048,
      "▁Air": 2049,
      "▁beh": 2050,
      "oph": 2051,
      "▁Sch": 2052,
      "anies": 2053,
      "▁times": 2054,
      "urther": 2055,
      "▁invol": 2056,
      "▁access": 2057,
      "▁conc": 2058,
      "ument": 2059,
      "▁House": 2060,
      "▁test": 2061,
      "uf": 2062,
      "▁cost": 2063,
      "▁arch": 2064,
      "▁alumni": 2065,
      "▁i": 2066,
      "▁field": 2067,
      "▁joined": 2068,
      "▁review": 2069,
      "▁official": 2070,
      "▁Mal": 2071,
      "▁view": 2072,
      "ape": 2073,
      "▁es": 2074,
      "▁European": 2075,
      "ances": 2076,
      "▁employ": 2077,
      "▁proble": 2078,
      "▁education": 2079,
      "▁let": 2080,
      "hers": 2081,
      "▁teams": 2082,
      "ketball": 2083,
      "▁crit": 2084,
      "▁missing": 2085,
      "▁host": 2086,
      "▁online": 2087,
      "▁given": 2088,
      "▁always": 2089,
      "rest": 2090,
      "▁trad": 2091,
      "▁What": 2092,
      "ger": 2093,
      "uel": 2094,
      "ruction": 2095,
      "▁Sm": 2096,
      "▁During": 2097,
      "avy": 2098,
      "eal": 2099,
      "8.": 2100,
      "par": 2101,
      "ler": 2102,
      "ring": 2103,
      "ills": 2104,
      "▁Club": 2105,
      "▁north": 2106,
      "▁feat": 2107,
      "estern": 2108,
      "arent": 2109,
      "▁2016": 2110,
      "▁Instit": 2111,
      "aper": 2112,
      "▁mult": 2113,
      "alists": 2114,
      "▁better": 2115,
      "▁say": 2116,
      "useum": 2117,
      "▁line": 2118,
      "ising": 2119,
      "▁India": 2120,
      "1)": 2121,
      "▁Council": 2122,
      "reg": 2123,
      "▁Army": 2124,
      "▁video": 2125,
      "▁quest": 2126,
      "▁written": 2127,
      "thing": 2128,
      "hem": 2129,
      "ids": 2130,
      "lin": 2131,
      "▁Gener": 2132,
      "▁feel": 2133,
      "▁2020,": 2134,
      "▁Park": 2135,
      "▁repl": 2136,
      "▁previous": 2137,
      "▁pri": 2138,
      "▁These": 2139,
      "▁pain": 2140,
      "icle": 2141,
      "ittee": 2142,
      "▁role": 2143,
      "▁cond": 2144,
      "▁little": 2145,
      "▁(201": 2146,
      "iod": 2147,
      "▁come": 2148,
      "▁tot": 2149,
      "▁(18": 2150,
      "▁moved": 2151,
      "ged": 2152,
      "ems": 2153,
      "▁hold": 2154,
      "▁position": 2155,
      "▁Ber": 2156,
      "▁Ang": 2157,
      "▁age": 2158,
      "▁son": 2159,
      "viron": 2160,
      "itive": 2161,
      "▁Stud": 2162,
      "▁less": 2163,
      "ination": 2164,
      "▁course": 2165,
      "▁Dr": 2166,
      "▁port": 2167,
      "▁never": 2168,
      "▁po": 2169,
      "▁impro": 2170,
      "irc": 2171,
      "▁points": 2172,
      "▁included": 2173,
      "▁Bi": 2174,
      "▁Em": 2175,
      "▁author": 2176,
      "▁things": 2177,
      "▁director": 2178,
      "▁Association": 2179,
      "▁Our": 2180,
      "▁East": 2181,
      "▁fund": 2182,
      "▁Bu": 2183,
      "▁quality": 2184,
      "▁away": 2185,
      "▁Ste": 2186,
      "ortun": 2187,
      "▁Serv": 2188,
      "▁Cons": 2189,
      "▁match": 2190,
      "▁sure": 2191,
      "▁assist": 2192,
      "▁story": 2193,
      "▁Men": 2194,
      "▁individ": 2195,
      "▁million": 2196,
      "ander": 2197,
      "▁party": 2198,
      "▁Canada": 2199,
      "▁William": 2200,
      "▁Do": 2201,
      "▁gradu": 2202,
      "▁connect": 2203,
      "▁24": 2204,
      "▁By": 2205,
      "▁Val": 2206,
      "▁try": 2207,
      "▁deg": 2208,
      "▁Football": 2209,
      "▁give": 2210,
      "▁Fin": 2211,
      "▁products": 2212,
      "▁companies": 2213,
      "▁cult": 2214,
      "apt": 2215,
      "▁San": 2216,
      "▁hig": 2217,
      "▁mag": 2218,
      "▁Calif": 2219,
      "▁pres": 2220,
      "ops": 2221,
      "for": 2222,
      "▁Su": 2223,
      "▁war": 2224,
      "▁among": 2225,
      "▁Parliament": 2226,
      "5)": 2227,
      "ds": 2228,
      "▁across": 2229,
      "ico": 2230,
      "iences": 2231,
      "aterial": 2232,
      "▁ident": 2233,
      "ux": 2234,
      "▁District": 2235,
      "▁Mon": 2236,
      "ogn": 2237,
      "ething": 2238,
      "▁Academy": 2239,
      "anish": 2240,
      "▁land": 2241,
      "▁President": 2242,
      "ex": 2243,
      "iber": 2244,
      "▁Law": 2245,
      "ornia": 2246,
      "minist": 2247,
      "▁past": 2248,
      "▁went": 2249,
      "▁father": 2250,
      "attal": 2251,
      "▁Canadian": 2252,
      "▁188": 2253,
      "▁Mor": 2254,
      "▁histor": 2255,
      "▁z": 2256,
      "ources": 2257,
      "▁case": 2258,
      "▁init": 2259,
      "▁California": 2260,
      "here": 2261,
      "ators": 2262,
      "▁Ant": 2263,
      "▁Net": 2264,
      "▁personal": 2265,
      "epend": 2266,
      "▁various": 2267,
      "aur": 2268,
      "▁vol": 2269,
      "▁often": 2270,
      "▁station": 2271,
      "▁Paul": 2272,
      "7)": 2273,
      "ald": 2274,
      "▁led": 2275,
      "ability": 2276,
      "▁big": 2277,
      "▁First": 2278,
      "▁original": 2279,
      "▁species": 2280,
      "▁Career": 2281,
      "unic": 2282,
      "aign": 2283,
      "cell": 2284,
      "▁created": 2285,
      "▁Division": 2286,
      "ights": 2287,
      "▁2000": 2288,
      "▁vill": 2289,
      "▁larg": 2290,
      "ning": 2291,
      "▁God": 2292,
      "▁Royal": 2293,
      "ead": 2294,
      "sc": 2295,
      "▁gen": 2296,
      "acks": 2297,
      "▁China": 2298,
      "ama": 2299,
      "▁Pri": 2300,
      "4)": 2301,
      "flu": 2302,
      "joy": 2303,
      "▁France": 2304,
      "vironment": 2305,
      "ably": 2306,
      "▁got": 2307,
      "iles": 2308,
      "▁came": 2309,
      "30": 2310,
      "ti": 2311,
      "▁Act": 2312,
      "off": 2313,
      "cer": 2314,
      "▁title": 2315,
      "ership": 2316,
      "▁net": 2317,
      "aches": 2318,
      "▁Australia": 2319,
      "▁ship": 2320,
      "▁promot": 2321,
      "acy": 2322,
      "▁lim": 2323,
      "ges": 2324,
      "▁econom": 2325,
      "ource": 2326,
      "▁might": 2327,
      "▁staff": 2328,
      "▁Russian": 2329,
      "–1": 2330,
      "▁results": 2331,
      "though": 2332,
      "▁married": 2333,
      "▁hard": 2334,
      "▁‘": 2335,
      "▁point": 2336,
      "▁Port": 2337,
      "▁training": 2338,
      "ani": 2339,
      "▁CO": 2340,
      "irl": 2341,
      "uture": 2342,
      "▁coach": 2343,
      "▁described": 2344,
      "ided": 2345,
      "▁something": 2346,
      "▁Cour": 2347,
      "▁Company": 2348,
      "▁Japanese": 2349,
      "▁coll": 2350,
      "▁comb": 2351,
      "▁priv": 2352,
      "ID": 2353,
      "▁opt": 2354,
      "▁body": 2355,
      "▁protect": 2356,
      "▁engine": 2357,
      "alymp": 2358,
      "asons": 2359,
      "▁Awards": 2360,
      "▁money": 2361,
      "▁Paralymp": 2362,
      "atter": 2363,
      "ological": 2364,
      "▁sent": 2365,
      "people": 2366,
      "ta": 2367,
      "▁1.": 2368,
      "▁ask": 2369,
      "▁refer": 2370,
      "raft": 2371,
      "▁et": 2372,
      "▁Rober": 2373,
      "itect": 2374,
      "aken": 2375,
      "▁Early": 2376,
      "▁tw": 2377,
      "▁president": 2378,
      "ateg": 2379,
      "▁struct": 2380,
      "▁elected": 2381,
      "▁Ro": 2382,
      "▁100": 2383,
      "▁App": 2384,
      "▁arr": 2385,
      "▁Que": 2386,
      "ification": 2387,
      "▁period": 2388,
      "▁African": 2389,
      "▁political": 2390,
      "aining": 2391,
      "▁Institute": 2392,
      "▁lo": 2393,
      "ams": 2394,
      "room": 2395,
      "▁Sing": 2396,
      "▁creat": 2397,
      "▁detail": 2398,
      "gr": 2399,
      "ades": 2400,
      "▁fav": 2401,
      "▁Lake": 2402,
      "rain": 2403,
      "▁Water": 2404,
      "▁relations": 2405,
      "istic": 2406,
      "▁fem": 2407,
      "field": 2408,
      "illed": 2409,
      "▁food": 2410,
      "▁feature": 2411,
      "me": 2412,
      "atri": 2413,
      "▁While": 2414,
      "▁General": 2415,
      "▁Sal": 2416,
      "▁plan": 2417,
      "▁job": 2418,
      "▁media": 2419,
      "▁tem": 2420,
      "ocr": 2421,
      "▁saf": 2422,
      "▁change": 2423,
      "irm": 2424,
      "rie": 2425,
      "ya": 2426,
      "earch": 2427,
      "▁cou": 2428,
      "▁America": 2429,
      "50": 2430,
      "dom": 2431,
      "▁prop": 2432,
      "era": 2433,
      "imate": 2434,
      "▁That": 2435,
      "▁appointed": 2436,
      "ecut": 2437,
      "▁fre": 2438,
      "ethod": 2439,
      "▁today": 2440,
      "inese": 2441,
      "cast": 2442,
      "▁phys": 2443,
      "▁Australian": 2444,
      "elling": 2445,
      "▁district": 2446,
      "▁Music": 2447,
      "▁areas": 2448,
      "▁Sports": 2449,
      "▁particular": 2450,
      "▁others": 2451,
      "ij": 2452,
      "▁live": 2453,
      "dle": 2454,
      "▁total": 2455,
      "-0": 2456,
      "▁hon": 2457,
      "▁establish": 2458,
      "mar": 2459,
      "▁control": 2460,
      "go": 2461,
      "igned": 2462,
      "▁England": 2463,
      "▁industry": 2464,
      "▁material": 2465,
      "▁applic": 2466,
      "▁Kh": 2467,
      "▁Olympic": 2468,
      "6)": 2469,
      "rote": 2470,
      "▁Char": 2471,
      "tt": 2472,
      "ma": 2473,
      "▁lot": 2474,
      "▁ens": 2475,
      "▁possible": 2476,
      "▁town": 2477,
      "▁footballers": 2478,
      "ney": 2479,
      "▁cand": 2480,
      "cy": 2481,
      "▁Sl": 2482,
      "▁months": 2483,
      "▁1,": 2484,
      "ville": 2485,
      "rab": 2486,
      "▁2021": 2487,
      "▁office": 2488,
      "▁Pal": 2489,
      "▁Che": 2490,
      "▁Hol": 2491,
      "▁:": 2492,
      "▁Wash": 2493,
      "airs": 2494,
      "▁di": 2495,
      "ilities": 2496,
      "▁Chinese": 2497,
      "load": 2498,
      "ellow": 2499,
      "▁Society": 2500,
      "▁Don": 2501,
      "ountain": 2502,
      "now": 2503,
      "▁competed": 2504,
      "attalion": 2505,
      "ili": 2506,
      "▁James": 2507,
      "icy": 2508,
      "▁claim": 2509,
      "▁late": 2510,
      "-2": 2511,
      "utes": 2512,
      "▁Swed": 2513,
      "▁account": 2514,
      "▁ren": 2515,
      "ooks": 2516,
      "ida": 2517,
      "▁enc": 2518,
      "▁/": 2519,
      "col": 2520,
      "istry": 2521,
      "chie": 2522,
      "▁Trans": 2523,
      "bor": 2524,
      "▁Church": 2525,
      "▁basketball": 2526,
      "▁UK": 2527,
      "▁Play": 2528,
      "vernor": 2529,
      "align": 2530,
      "▁Center": 2531,
      "▁visit": 2532,
      "▁looking": 2533,
      "▁ce": 2534,
      "ached": 2535,
      "▁enjoy": 2536,
      "oks": 2537,
      "▁inf": 2538,
      "▁nov": 2539,
      "▁Stre": 2540,
      "▁sports": 2541,
      "▁century": 2542,
      "br": 2543,
      "▁treat": 2544,
      "atural": 2545,
      "▁belie": 2546,
      "▁contract": 2547,
      "ha": 2548,
      "olic": 2549,
      "▁popular": 2550,
      "den": 2551,
      "▁typ": 2552,
      "ishing": 2553,
      "▁needs": 2554,
      "ready": 2555,
      "idence": 2556,
      "▁character": 2557,
      "istics": 2558,
      "lifters": 2559,
      "▁Mag": 2560,
      "▁(200": 2561,
      "enef": 2562,
      "urity": 2563,
      "▁stage": 2564,
      "▁tre": 2565,
      "back": 2566,
      "ores": 2567,
      "▁squ": 2568,
      "▁produced": 2569,
      "▁wind": 2570,
      "▁living": 2571,
      "▁mother": 2572,
      "▁cred": 2573,
      "▁lost": 2574,
      "▁mot": 2575,
      "▁directed": 2576,
      "ala": 2577,
      "▁low": 2578,
      "▁Gold": 2579,
      "10": 2580,
      "▁du": 2581,
      "▁MP": 2582,
      "sel": 2583,
      "ean": 2584,
      "▁bi": 2585,
      "▁beaut": 2586,
      "▁respons": 2587,
      "ests": 2588,
      "▁lik": 2589,
      "▁Washington": 2590,
      "roll": 2591,
      "▁half": 2592,
      "cle": 2593,
      "pro": 2594,
      "▁dev": 2595,
      "▁Inter": 2596,
      "play": 2597,
      "attle": 2598,
      "rag": 2599,
      "band": 2600,
      "ER": 2601,
      "aps": 2602,
      "▁2015": 2603,
      "▁Just": 2604,
      "▁epis": 2605,
      "▁earn": 2606,
      "ael": 2607,
      "thlet": 2608,
      "▁rad": 2609,
      "ements": 2610,
      "▁range": 2611,
      "▁strong": 2612,
      "agu": 2613,
      "▁performance": 2614,
      "▁sil": 2615,
      "▁create": 2616,
      "▁understand": 2617,
      "anks": 2618,
      "▁Mex": 2619,
      "olution": 2620,
      "ye": 2621,
      "▁sold": 2622,
      "▁doc": 2623,
      "▁page": 2624,
      "atives": 2625,
      "▁once": 2626,
      "▁187": 2627,
      "▁night": 2628,
      "▁186": 2629,
      "iction": 2630,
      "▁Paris": 2631,
      "▁completed": 2632,
      "itz": 2633,
      "arian": 2634,
      "▁contact": 2635,
      "▁features": 2636,
      "▁currently": 2637,
      "▁politician": 2638,
      "alls": 2639,
      "▁deal": 2640,
      "▁tour": 2641,
      "▁includes": 2642,
      "▁Thom": 2643,
      "▁church": 2644,
      "zil": 2645,
      "▁Best": 2646,
      "▁ever": 2647,
      "▁soft": 2648,
      "▁purch": 2649,
      "most": 2650,
      "ither": 2651,
      "▁however": 2652,
      "▁campaign": 2653,
      "▁prim": 2654,
      "▁chall": 2655,
      "▁songs": 2656,
      "▁wrote": 2657,
      "▁already": 2658,
      "omm": 2659,
      "ume": 2660,
      "▁Department": 2661,
      "hi": 2662,
      "▁Im": 2663,
      "▁key": 2664,
      "▁Black": 2665,
      "▁rank": 2666,
      "▁expect": 2667,
      "12": 2668,
      "▁Educ": 2669,
      "▁examp": 2670,
      "▁designed": 2671,
      "▁aud": 2672,
      "aughter": 2673,
      "!!": 2674,
      "ensive": 2675,
      "ban": 2676,
      "▁defe": 2677,
      "▁23": 2678,
      "wh": 2679,
      "duce": 2680,
      "▁benef": 2681,
      "▁22": 2682,
      "▁further": 2683,
      "erve": 2684,
      "year": 2685,
      "ox": 2686,
      "ini": 2687,
      "ivil": 2688,
      "▁gold": 2689,
      "▁common": 2690,
      "aving": 2691,
      "ago": 2692,
      "▁Tur": 2693,
      "9)": 2694,
      "ells": 2695,
      "▁Flor": 2696,
      "▁degree": 2697,
      "aker": 2698,
      "▁pot": 2699,
      "▁sched": 2700,
      "▁recogn": 2701,
      "▁regular": 2702,
      "▁means": 2703,
      "estival": 2704,
      "err": 2705,
      "arter": 2706,
      "▁Germ": 2707,
      "▁Union": 2708,
      "opp": 2709,
      "▁intro": 2710,
      "▁Pe": 2711,
      "▁laun": 2712,
      "▁quick": 2713,
      "▁Brazil": 2714,
      "▁brother": 2715,
      "▁towards": 2716,
      "ults": 2717,
      "west": 2718,
      "▁Pre": 2719,
      "▁candid": 2720,
      "▁future": 2721,
      "▁returned": 2722,
      "ole": 2723,
      "empt": 2724,
      "time": 2725,
      "▁writing": 2726,
      "▁Mary": 2727,
      "sequ": 2728,
      "▁far": 2729,
      "▁vot": 2730,
      "▁Sim": 2731,
      "▁origin": 2732,
      "▁Research": 2733,
      "▁production": 2734,
      "ude": 2735,
      "▁college": 2736,
      "▁perfect": 2737,
      "tra": 2738,
      "▁space": 2739,
      "ilar": 2740,
      "ises": 2741,
      "▁human": 2742,
      "▁Committee": 2743,
      "ZZ": 2744,
      "asc": 2745,
      "▁Red": 2746,
      "emic": 2747,
      "▁Court": 2748,
      "ancial": 2749,
      "ees": 2750,
      "ift": 2751,
      "▁Mid": 2752,
      "▁sound": 2753,
      "▁2010": 2754,
      "▁parent": 2755,
      "▁black": 2756,
      "▁shows": 2757,
      "▁associ": 2758,
      "▁travel": 2759,
      "▁opportun": 2760,
      "isl": 2761,
      "▁2.": 2762,
      "resh": 2763,
      "▁track": 2764,
      "▁sen": 2765,
      "▁2020.": 2766,
      "ibr": 2767,
      "▁done": 2768,
      "▁Lou": 2769,
      "▁Person": 2770,
      "ask": 2771,
      "asing": 2772,
      "iger": 2773,
      "▁26": 2774,
      "▁situ": 2775,
      "▁study": 2776,
      "▁Museum": 2777,
      "▁mix": 2778,
      "omb": 2779,
      "▁Minister": 2780,
      "oe": 2781,
      "wood": 2782,
      "cover": 2783,
      "▁version": 2784,
      "▁wa": 2785,
      "▁Dis": 2786,
      "▁Roman": 2787,
      "▁signed": 2788,
      "▁Germany": 2789,
      "rd": 2790,
      "▁dam": 2791,
      "ki": 2792,
      "ufact": 2793,
      "▁Regiment": 2794,
      "▁easy": 2795,
      "▁qualif": 2796,
      "▁Profess": 2797,
      "▁Pet": 2798,
      "▁check": 2799,
      "icles": 2800,
      "▁sett": 2801,
      "▁band": 2802,
      "igan": 2803,
      "utions": 2804,
      "▁below": 2805,
      "▁politicians": 2806,
      "▁Mus": 2807,
      "▁capt": 2808,
      "ria": 2809,
      "odes": 2810,
      "8)": 2811,
      "▁certain": 2812,
      "▁Jew": 2813,
      "▁Win": 2814,
      "▁Hall": 2815,
      "ospital": 2816,
      "▁least": 2817,
      "▁Democr": 2818,
      "▁environment": 2819,
      "ites": 2820,
      "inning": 2821,
      "▁Hon": 2822,
      "▁Nor": 2823,
      "aching": 2824,
      "▁road": 2825,
      "▁artist": 2826,
      "▁successful": 2827,
      "▁cross": 2828,
      "uter": 2829,
      "▁mem": 2830,
      "▁David": 2831,
      "▁makes": 2832,
      "▁board": 2833,
      "▁books": 2834,
      "pecially": 2835,
      "anced": 2836,
      "berg": 2837,
      "▁ste": 2838,
      "▁front": 2839,
      "▁Miss": 2840,
      "▁exhib": 2841,
      "▁issues": 2842,
      "vert": 2843,
      "▁Cast": 2844,
      "▁table": 2845,
      "▁caus": 2846,
      "ceed": 2847,
      "▁Kore": 2848,
      "▁Asian": 2849,
      "▁require": 2850,
      "burg": 2851,
      "alt": 2852,
      "ender": 2853,
      "▁becom": 2854,
      "▁ill": 2855,
      "aring": 2856,
      "▁bring": 2857,
      "▁release": 2858,
      "▁aver": 2859,
      "▁date": 2860,
      "ena": 2861,
      "▁pie": 2862,
      "▁liter": 2863,
      "▁George": 2864,
      "▁Vir": 2865,
      "nel": 2866,
      "cri": 2867,
      "▁ten": 2868,
      "▁via": 2869,
      "▁taken": 2870,
      "▁Direct": 2871,
      "cording": 2872,
      "▁install": 2873,
      "▁military": 2874,
      "▁TV": 2875,
      "▁Tex": 2876,
      "▁Ma": 2877,
      "iate": 2878,
      "▁Mad": 2879,
      "▁2014": 2880,
      "▁above": 2881,
      "▁taking": 2882,
      "▁break": 2883,
      "▁comes": 2884,
      "▁Street": 2885,
      "▁bar": 2886,
      "▁wife": 2887,
      "▁region": 2888,
      "▁hot": 2889,
      "▁rail": 2890,
      "ibility": 2891,
      "▁type": 2892,
      "▁Leg": 2893,
      "oring": 2894,
      "▁prem": 2895,
      "▁ess": 2896,
      "▁mer": 2897,
      "▁vict": 2898,
      "▁Since": 2899,
      "oke": 2900,
      "▁Bas": 2901,
      "▁Met": 2902,
      "▁jud": 2903,
      "duced": 2904,
      "▁leading": 2905,
      "▁provides": 2906,
      "ergy": 2907,
      "▁hom": 2908,
      "iqu": 2909,
      "▁base": 2910,
      "▁constit": 2911,
      "rian": 2912,
      "▁anim": 2913,
      "ules": 2914,
      "▁Alex": 2915,
      "▁involved": 2916,
      "▁Carol": 2917,
      "▁collect": 2918,
      "▁Sam": 2919,
      "▁dig": 2920,
      "atory": 2921,
      "▁mean": 2922,
      "▁2021,": 2923,
      "▁village": 2924,
      "van": 2925,
      "osing": 2926,
      "▁Town": 2927,
      "unicip": 2928,
      "▁plann": 2929,
      "▁administ": 2930,
      "▁2022": 2931,
      ",\"": 2932,
      "▁Scott": 2933,
      "▁Mart": 2934,
      "▁achie": 2935,
      "▁architect": 2936,
      "not": 2937,
      "▁cy": 2938,
      "▁dest": 2939,
      "orthern": 2940,
      "▁Central": 2941,
      "▁artists": 2942,
      "edy": 2943,
      "▁dou": 2944,
      "▁Some": 2945,
      "▁super": 2946,
      "▁friends": 2947,
      "▁transfer": 2948,
      "▁collection": 2949,
      "▁hous": 2950,
      "▁method": 2951,
      "...": 2952,
      "olf": 2953,
      "▁hours": 2954,
      "▁association": 2955,
      "▁fail": 2956,
      "▁deliver": 2957,
      "sy": 2958,
      "raw": 2959,
      "arth": 2960,
      "▁Techn": 2961,
      "▁Spanish": 2962,
      "▁founded": 2963,
      "▁28": 2964,
      "▁language": 2965,
      "ming": 2966,
      ",”": 2967,
      "ura": 2968,
      "▁Super": 2969,
      "▁clean": 2970,
      "▁accord": 2971,
      "iff": 2972,
      "ols": 2973,
      "enced": 2974,
      "▁management": 2975,
      "head": 2976,
      "▁effort": 2977,
      "cel": 2978,
      "▁lov": 2979,
      "▁why": 2980,
      "▁exist": 2981,
      "▁hy": 2982,
      "▁Out": 2983,
      "▁nomin": 2984,
      "▁enough": 2985,
      "▁Offic": 2986,
      "▁respect": 2987,
      "utch": 2988,
      "▁Feder": 2989,
      "▁competition": 2990,
      "ened": 2991,
      "▁throughout": 2992,
      "▁rout": 2993,
      "▁Polit": 2994,
      "▁broad": 2995,
      "▁Ir": 2996,
      "ledge": 2997,
      "▁provided": 2998,
      "▁draw": 2999,
      "▁step": 3000,
      "▁circ": 3001,
      "▁Green": 3002,
      "▁!": 3003,
      ",000": 3004,
      "la": 3005,
      "aged": 3006,
      "▁Africa": 3007,
      "gin": 3008,
      "▁Team": 3009,
      "▁accom": 3010,
      "▁offers": 3011,
      "▁red": 3012,
      "▁press": 3013,
      "▁Championships": 3014,
      "▁Cur": 3015,
      "▁der": 3016,
      "▁pur": 3017,
      "▁Arts": 3018,
      "▁reported": 3019,
      "itch": 3020,
      "▁text": 3021,
      "▁entire": 3022,
      "za": 3023,
      "ona": 3024,
      "▁box": 3025,
      "▁awarded": 3026,
      "▁playing": 3027,
      "▁technology": 3028,
      "▁Saint": 3029,
      "▁ground": 3030,
      "IN": 3031,
      "▁tradition": 3032,
      "iple": 3033,
      "▁Pat": 3034,
      "▁veh": 3035,
      "▁Cong": 3036,
      "▁stay": 3037,
      "▁added": 3038,
      "sw": 3039,
      "▁Ha": 3040,
      "outhern": 3041,
      "▁groups": 3042,
      "▁Republic": 3043,
      "▁cut": 3044,
      "▁inj": 3045,
      "▁attack": 3046,
      "▁minutes": 3047,
      "▁complete": 3048,
      "aries": 3049,
      "obal": 3050,
      "retary": 3051,
      "fic": 3052,
      "▁rev": 3053,
      "mercial": 3054,
      "▁Public": 3055,
      "iful": 3056,
      "▁price": 3057,
      "▁Chic": 3058,
      "▁consist": 3059,
      "▁Education": 3060,
      "ify": 3061,
      "ère": 3062,
      "▁finished": 3063,
      "▁card": 3064,
      "cks": 3065,
      "▁kind": 3066,
      "living": 3067,
      "▁discuss": 3068,
      "▁network": 3069,
      "ny": 3070,
      "ought": 3071,
      "hood": 3072,
      "▁eight": 3073,
      "▁seen": 3074,
      "ett": 3075,
      "▁considered": 3076,
      "VID": 3077,
      "uit": 3078,
      "▁Arch": 3079,
      "▁similar": 3080,
      "▁Fore": 3081,
      "▁dram": 3082,
      "ificant": 3083,
      "▁attempt": 3084,
      "put": 3085,
      "rick": 3086,
      "▁scient": 3087,
      "▁Kingdom": 3088,
      "▁cop": 3089,
      "▁Found": 3090,
      "oice": 3091,
      "▁share": 3092,
      "▁action": 3093,
      "▁Sa": 3094,
      "▁imm": 3095,
      "▁2018,": 3096,
      "▁opened": 3097,
      "▁27": 3098,
      "▁Pan": 3099,
      "urance": 3100,
      "▁Social": 3101,
      "based": 3102,
      "▁2012": 3103,
      "▁According": 3104,
      "▁developed": 3105,
      "bert": 3106,
      "▁plat": 3107,
      "▁especially": 3108,
      "▁Second": 3109,
      "▁meas": 3110,
      "▁Western": 3111,
      "▁getting": 3112,
      "▁daughter": 3113,
      "▁independ": 3114,
      "oma": 3115,
      "▁0.": 3116,
      "str": 3117,
      "▁influ": 3118,
      "AC": 3119,
      "▁Bus": 3120,
      "▁Zeal": 3121,
      "▁fight": 3122,
      "▁Tour": 3123,
      "▁private": 3124,
      "▁Grand": 3125,
      "cis": 3126,
      "▁FC": 3127,
      "▁tax": 3128,
      "▁Zealand": 3129,
      "idents": 3130,
      "eared": 3131,
      "▁Members": 3132,
      "ado": 3133,
      "▁reb": 3134,
      "pper": 3135,
      "▁Aut": 3136,
      "▁Engine": 3137,
      "ES": 3138,
      "–2": 3139,
      "▁Texas": 3140,
      "▁medical": 3141,
      "▁continued": 3142,
      "face": 3143,
      "▁Def": 3144,
      "inary": 3145,
      "▁size": 3146,
      "▁viol": 3147,
      "rug": 3148,
      "▁Cal": 3149,
      "▁subject": 3150,
      "▁manufact": 3151,
      "▁Rich": 3152,
      "ulty": 3153,
      "obile": 3154,
      "▁50": 3155,
      "▁Sant": 3156,
      "▁formed": 3157,
      "▁studies": 3158,
      "▁model": 3159,
      "▁accept": 3160,
      "▁recomm": 3161,
      "embly": 3162,
      "▁compos": 3163,
      "▁Day": 3164,
      "azine": 3165,
      "▁Italy": 3166,
      "▁behind": 3167,
      "over": 3168,
      "izing": 3169,
      "▁(199": 3170,
      "▁Great": 3171,
      "men": 3172,
      "aves": 3173,
      "▁white": 3174,
      "▁activities": 3175,
      "ends": 3176,
      "▁fig": 3177,
      "▁Conserv": 3178,
      "AR": 3179,
      "iga": 3180,
      "▁Off": 3181,
      "▁bank": 3182,
      "▁cast": 3183,
      "▁modern": 3184,
      "▁Michigan": 3185,
      "▁2013": 3186,
      "▁mind": 3187,
      "▁Senate": 3188,
      "▁initial": 3189,
      "▁relationship": 3190,
      "AT": 3191,
      "▁Mac": 3192,
      "book": 3193,
      "icro": 3194,
      "▁Rev": 3195,
      "▁upd": 3196,
      "▁Life": 3197,
      "▁Columb": 3198,
      "▁Angel": 3199,
      "▁Histor": 3200,
      "▁property": 3201,
      "ength": 3202,
      "▁execut": 3203,
      "isk": 3204,
      "▁rights": 3205,
      "▁east": 3206,
      "▁Michael": 3207,
      "▁natural": 3208,
      "▁significant": 3209,
      "Ch": 3210,
      "rown": 3211,
      "▁Mont": 3212,
      "oid": 3213,
      "▁Christian": 3214,
      "clus": 3215,
      "▁Gall": 3216,
      "▁decided": 3217,
      ". ": 3218,
      "oul": 3219,
      "iers": 3220,
      "oint": 3221,
      "▁Class": 3222,
      "▁example": 3223,
      "▁Hen": 3224,
      "▁buy": 3225,
      "▁individual": 3226,
      "▁sugg": 3227,
      "▁Place": 3228,
      "▁listed": 3229,
      "▁address": 3230,
      "▁additional": 3231,
      "▁construction": 3232,
      "writ": 3233,
      "edd": 3234,
      "▁insp": 3235,
      "▁content": 3236,
      "▁financial": 3237,
      "▁Commission": 3238,
      "ston": 3239,
      "▁Vol": 3240,
      "acher": 3241,
      "▁Prov": 3242,
      "40": 3243,
      "▁tou": 3244,
      "▁Mass": 3245,
      "▁#": 3246,
      "▁vir": 3247,
      "▁Jose": 3248,
      "▁self": 3249,
      "coming": 3250,
      "▁concern": 3251,
      "▁Mer": 3252,
      "▁sch": 3253,
      "▁Bank": 3254,
      "▁Health": 3255,
      "▁Robert": 3256,
      "▁active": 3257,
      "▁either": 3258,
      "▁decision": 3259,
      "▁contribut": 3260,
      "▁Other": 3261,
      "▁close": 3262,
      "▁projects": 3263,
      "▁command": 3264,
      "▁pand": 3265,
      "▁upon": 3266,
      "ricket": 3267,
      "▁journal": 3268,
      "▁attended": 3269,
      "▁Bay": 3270,
      "▁sat": 3271,
      "▁gave": 3272,
      "▁prob": 3273,
      "ternet": 3274,
      "▁thing": 3275,
      "aid": 3276,
      "II": 3277,
      "ato": 3278,
      "ios": 3279,
      "ota": 3280,
      "pon": 3281,
      "ires": 3282,
      "▁Now": 3283,
      "▁heart": 3284,
      "▁Science": 3285,
      "▁Tom": 3286,
      "▁walk": 3287,
      "ev": 3288,
      "gen": 3289,
      "▁pack": 3290,
      "▁favor": 3291,
      "▁awards": 3292,
      "▁customers": 3293,
      "ette": 3294,
      "erous": 3295,
      "▁1980": 3296,
      "▁Most": 3297,
      "▁Your": 3298,
      "hest": 3299,
      "inals": 3300,
      "▁acqu": 3301,
      "▁star": 3302,
      "uff": 3303,
      "▁COVID": 3304,
      "▁pandemic": 3305,
      "-20": 3306,
      "ils": 3307,
      "▁sem": 3308,
      "▁move": 3309,
      "▁court": 3310,
      "▁almost": 3311,
      "AS": 3312,
      "igr": 3313,
      "itc": 3314,
      "▁league": 3315,
      "▁studied": 3316,
      "▁Sur": 3317,
      "▁Over": 3318,
      "▁mach": 3319,
      "language": 3320,
      "Amer": 3321,
      "owers": 3322,
      "▁pict": 3323,
      "iance": 3324,
      "ridge": 3325,
      "▁race": 3326,
      "▁river": 3327,
      "ano": 3328,
      "elt": 3329,
      "nder": 3330,
      "▁Road": 3331,
      "▁prof": 3332,
      "▁serving": 3333,
      "▁cele": 3334,
      "▁changes": 3335,
      "▁Bur": 3336,
      "▁professor": 3337,
      "▁Uk": 3338,
      "ream": 3339,
      "▁amount": 3340,
      "▁female": 3341,
      "pped": 3342,
      "ental": 3343,
      "▁1960": 3344,
      "▁neg": 3345,
      "▁west": 3346,
      "▁loss": 3347,
      "▁Peter": 3348,
      "ati": 3349,
      "ola": 3350,
      "ras": 3351,
      "▁energy": 3352,
      "▁Oh": 3353,
      "pite": 3354,
      "▁mus": 3355,
      "▁fire": 3356,
      "▁according": 3357,
      "▁yet": 3358,
      "board": 3359,
      "▁3.": 3360,
      "uled": 3361,
      "▁diffic": 3362,
      "▁conduct": 3363,
      "▁problem": 3364,
      "gian": 3365,
      "span": 3366,
      "▁Emp": 3367,
      "▁Its": 3368,
      "▁screen": 3369,
      "▁senior": 3370,
      "ym": 3371,
      "▁Commun": 3372,
      "▁()": 3373,
      "▁Del": 3374,
      "▁Develop": 3375,
      "▁Service": 3376,
      "▁countries": 3377,
      "▁sus": 3378,
      "▁separ": 3379,
      "▁usually": 3380,
      "atriate": 3381,
      "▁Of": 3382,
      "aging": 3383,
      "arc": 3384,
      "▁29": 3385,
      "▁Dan": 3386,
      "▁Thomas": 3387,
      "▁outside": 3388,
      "▁required": 3389,
      "▁represented": 3390,
      ":00": 3391,
      "▁email": 3392,
      "▁value": 3393,
      "lim": 3394,
      "▁Sil": 3395,
      "▁Record": 3396,
      "▁Inc": 3397,
      "▁soon": 3398,
      "▁Sk": 3399,
      "ested": 3400,
      "▁Florida": 3401,
      "▁talk": 3402,
      "▁news": 3403,
      "▁academ": 3404,
      "▁practice": 3405,
      "BC": 3406,
      "unt": 3407,
      "▁cal": 3408,
      "▁specific": 3409,
      "oz": 3410,
      "sec": 3411,
      "▁parents": 3412,
      "▁thought": 3413,
      "ipl": 3414,
      "▁Cam": 3415,
      "ockey": 3416,
      "ampion": 3417,
      "▁investig": 3418,
      "▁wood": 3419,
      "▁Board": 3420,
      "nov": 3421,
      "une": 3422,
      "▁Are": 3423,
      "▁face": 3424,
      "alys": 3425,
      "oper": 3426,
      "iller": 3427,
      "▁Notes": 3428,
      "▁simple": 3429,
      "▁Ham": 3430,
      "▁plant": 3431,
      "▁Wil": 3432,
      "14": 3433,
      "eds": 3434,
      "eks": 3435,
      "▁Gra": 3436,
      "▁prior": 3437,
      "▁Personal": 3438,
      "▁selected": 3439,
      "rich": 3440,
      "▁goal": 3441,
      "▁Philipp": 3442,
      "▁Governor": 3443,
      "▁Conference": 3444,
      "rael": 3445,
      "▁mom": 3446,
      "▁reason": 3447,
      "▁Swedish": 3448,
      "▁Sub": 3449,
      "weight": 3450,
      "▁center": 3451,
      "ada": 3452,
      "▁Ann": 3453,
      "selves": 3454,
      "▁sum": 3455,
      "▁mass": 3456,
      "fort": 3457,
      "▁Ter": 3458,
      "▁log": 3459,
      "▁goals": 3460,
      "▁indic": 3461,
      "▁neigh": 3462,
      "▁schools": 3463,
      "▁collabor": 3464,
      "▁Cath": 3465,
      "▁Iran": 3466,
      "▁chair": 3467,
      ";\"": 3468,
      "||": 3469,
      "▁Democratic": 3470,
      "ging": 3471,
      "▁Mod": 3472,
      "▁ter": 3473,
      "▁Films": 3474,
      "▁decl": 3475,
      "▁determ": 3476,
      "▁performed": 3477,
      "▁population": 3478,
      "lo": 3479,
      "▁Tw": 3480,
      "left": 3481,
      "▁Ill": 3482,
      "▁pers": 3483,
      "▁Dutch": 3484,
      "▁Louis": 3485,
      "▁Ev": 3486,
      "▁Squ": 3487,
      "▁Bill": 3488,
      "▁wide": 3489,
      "▁lower": 3490,
      "▁matches": 3491,
      "idge": 3492,
      "▁Exp": 3493,
      "▁policy": 3494,
      "▁seasons": 3495,
      "▁(2": 3496,
      "▁Mr": 3497,
      "▁pick": 3498,
      "ection": 3499,
      "▁novel": 3500,
      "▁Member": 3501,
      "▁problems": 3502,
      "ador": 3503,
      "aught": 3504,
      "imum": 3505,
      "▁Spe": 3506,
      "▁commit": 3507,
      "▁higher": 3508,
      "▁Bang": 3509,
      "▁idea": 3510,
      "▁Island": 3511,
      "▁medal": 3512,
      "▁discover": 3513,
      "▁1990": 3514,
      "▁doing": 3515,
      "agement": 3516,
      "atur": 3517,
      "ière": 3518,
      "American": 3519,
      "reek": 3520,
      "sych": 3521,
      "▁fit": 3522,
      "▁doesn": 3523,
      "▁maint": 3524,
      "imately": 3525,
      "vey": 3526,
      "ables": 3527,
      "ension": 3528,
      "▁impact": 3529,
      "▁everything": 3530,
      "▁Hy": 3531,
      "▁farm": 3532,
      "mas": 3533,
      "▁Kn": 3534,
      "▁bit": 3535,
      "▁instead": 3536,
      "▁receive": 3537,
      "▁Ol": 3538,
      "enay": 3539,
      "▁student": 3540,
      "▁beautiful": 3541,
      "FA": 3542,
      "lements": 3543,
      "▁Ben": 3544,
      "▁exc": 3545,
      "▁ful": 3546,
      "▁Oper": 3547,
      "▁organization": 3548,
      "▁web": 3549,
      "porary": 3550,
      "▁systems": 3551,
      "▁instit": 3552,
      "▁transl": 3553,
      "▁Paralympics": 3554,
      "ply": 3555,
      "▁Ep": 3556,
      "ella": 3557,
      "▁System": 3558,
      "▁regard": 3559,
      "▁gre": 3560,
      "▁dise": 3561,
      "▁platform": 3562,
      "▁Add": 3563,
      "▁lab": 3564,
      "▁Turk": 3565,
      "▁paint": 3566,
      "iano": 3567,
      "▁obt": 3568,
      "▁reading": 3569,
      "▁buildings": 3570,
      "▁Virgin": 3571,
      "ray": 3572,
      "▁fall": 3573,
      "ranch": 3574,
      "etimes": 3575,
      "▁Mount": 3576,
      "eg": 3577,
      "orial": 3578,
      "▁whether": 3579,
      "▁voc": 3580,
      "▁says": 3581,
      "▁Frank": 3582,
      "-6": 3583,
      "mon": 3584,
      "▁rate": 3585,
      "▁Smith": 3586,
      "▁lives": 3587,
      "▁police": 3588,
      "11": 3589,
      "oud": 3590,
      "heast": 3591,
      "▁Press": 3592,
      "wan": 3593,
      "▁agre": 3594,
      "▁plays": 3595,
      "▁units": 3596,
      "izations": 3597,
      "▁takes": 3598,
      "ression": 3599,
      "▁unique": 3600,
      "▁himself": 3601,
      "▁potential": 3602,
      "▁Rad": 3603,
      "ening": 3604,
      "order": 3605,
      "▁girl": 3606,
      "▁issue": 3607,
      "▁Israel": 3608,
      "▁summer": 3609,
      "▁Vi": 3610,
      "atre": 3611,
      "▁paper": 3612,
      "▁appeared": 3613,
      "▁multiple": 3614,
      "bec": 3615,
      "▁op": 3616,
      "▁pan": 3617,
      "▁Elect": 3618,
      "▁autom": 3619,
      "▁running": 3620,
      "▁Government": 3621,
      "▁extra": 3622,
      "▁sym": 3623,
      "▁floor": 3624,
      "▁percent": 3625,
      "▁someone": 3626,
      "▁communic": 3627,
      "▁Spr": 3628,
      "▁software": 3629,
      "hold": 3630,
      "olid": 3631,
      "▁emb": 3632,
      "▁Prem": 3633,
      "▁Work": 3634,
      "▁grand": 3635,
      "ribution": 3636,
      "ww": 3637,
      "ips": 3638,
      "chan": 3639,
      "astic": 3640,
      "AN": 3641,
      "roy": 3642,
      "▁185": 3643,
      "▁woman": 3644,
      "▁states": 3645,
      "come": 3646,
      "▁White": 3647,
      "▁previously": 3648,
      "▁31": 3649,
      "edic": 3650,
      "▁Mat": 3651,
      "▁hope": 3652,
      "▁spent": 3653,
      "▁weeks": 3654,
      "▁Vict": 3655,
      "▁leave": 3656,
      "▁parts": 3657,
      "uals": 3658,
      "▁Lat": 3659,
      "▁shot": 3660,
      "▁likely": 3661,
      "▁placed": 3662,
      "▁Francis": 3663,
      "▁average": 3664,
      "▁Sciences": 3665,
      "▁actually": 3666,
      "CC": 3667,
      "ius": 3668,
      "▁Sun": 3669,
      "▁blog": 3670,
      "▁championship": 3671,
      "ograp": 3672,
      "▁Camp": 3673,
      "▁Penn": 3674,
      "ibrary": 3675,
      "▁Festival": 3676,
      "ception": 3677,
      "▁sn": 3678,
      "▁emer": 3679,
      "▁master": 3680,
      "▁object": 3681,
      "illa": 3682,
      "▁Tor": 3683,
      "▁park": 3684,
      "ctions": 3685,
      "irit": 3686,
      "used": 3687,
      "▁hit": 3688,
      "shire": 3689,
      "▁Navy": 3690,
      "▁questions": 3691,
      "▁Lab": 3692,
      "▁whole": 3693,
      "▁Int": 3694,
      "▁Rail": 3695,
      "▁please": 3696,
      "▁2019–20": 3697,
      "arts": 3698,
      "▁Top": 3699,
      "▁(194": 3700,
      "▁Supp": 3701,
      "uments": 3702,
      "▁2018.": 3703,
      "▁details": 3704,
      "▁regiment": 3705,
      "ita": 3706,
      "▁watch": 3707,
      "▁Carolina": 3708,
      "St": 3709,
      "▁related": 3710,
      "▁Song": 3711,
      "▁fast": 3712,
      "▁Charles": 3713,
      "▁Military": 3714,
      "▁Development": 3715,
      "uge": 3716,
      "▁Empire": 3717,
      "▁function": 3718,
      "▁footballer": 3719,
      "lor": 3720,
      "▁store": 3721,
      "aguenay": 3722,
      "▁prevent": 3723,
      "rup": 3724,
      "▁coming": 3725,
      "▁forward": 3726,
      "▁(198": 3727,
      "▁mess": 3728,
      "▁location": 3729,
      "ula": 3730,
      "▁saw": 3731,
      "iring": 3732,
      "▁Back": 3733,
      "▁Mark": 3734,
      "▁writer": 3735,
      "▁Chicago": 3736,
      "▁commercial": 3737,
      "▁targ": 3738,
      "▁constitu": 3739,
      "▁document": 3740,
      "AA": 3741,
      "bb": 3742,
      "yr": 3743,
      "hy": 3744,
      "gia": 3745,
      "het": 3746,
      "istan": 3747,
      "▁followed": 3748,
      "encies": 3749,
      "▁Jac": 3750,
      "▁Prog": 3751,
      "▁ensure": 3752,
      "▁needed": 3753,
      "▁stream": 3754,
      "▁Hot": 3755,
      "▁2011": 3756,
      "▁Sund": 3757,
      "ci": 3758,
      "▁Lu": 3759,
      "aval": 3760,
      "▁sales": 3761,
      "▁interview": 3762,
      "rel": 3763,
      "▁obs": 3764,
      "rought": 3765,
      "▁search": 3766,
      "itiz": 3767,
      "▁Mos": 3768,
      "▁cell": 3769,
      "▁ways": 3770,
      "alysis": 3771,
      "▁writers": 3772,
      "▁Dou": 3773,
      "▁2022,": 3774,
      "▁difficult": 3775,
      "▁elections": 3776,
      "▁Star": 3777,
      "▁fresh": 3778,
      "▁trade": 3779,
      "▁albums": 3780,
      "▁stated": 3781,
      "▁complet": 3782,
      "▁meeting": 3783,
      "▁Two": 3784,
      "unk": 3785,
      "▁2,": 3786,
      "reme": 3787,
      "reland": 3788,
      "▁singer": 3789,
      "▁Inf": 3790,
      "▁Brown": 3791,
      "▁leader": 3792,
      "▁Assembly": 3793,
      "▁bad": 3794,
      "acing": 3795,
      "▁didn": 3796,
      "▁science": 3797,
      "IS": 3798,
      "▁stri": 3799,
      "ulture": 3800,
      "▁2017,": 3801,
      "▁complex": 3802,
      "15": 3803,
      "▁40": 3804,
      "iled": 3805,
      "lam": 3806,
      "annel": 3807,
      "light": 3808,
      "▁Russia": 3809,
      "▁Director": 3810,
      "rial": 3811,
      "▁actress": 3812,
      "▁question": 3813,
      "▁Jud": 3814,
      "▁link": 3815,
      "▁seven": 3816,
      "▁Den": 3817,
      "▁hus": 3818,
      "▁overall": 3819,
      "oral": 3820,
      "▁Home": 3821,
      "▁surv": 3822,
      "rative": 3823,
      "▁Ros": 3824,
      "▁Hong": 3825,
      "▁schol": 3826,
      "▁affect": 3827,
      "▁rather": 3828,
      "ED": 3829,
      "▁color": 3830,
      "▁credit": 3831,
      "▁weightlifters": 3832,
      "▁1970": 3833,
      "ivière": 3834,
      "▁Liber": 3835,
      "▁article": 3836,
      "hu": 3837,
      "kn": 3838,
      "onder": 3839,
      "▁prep": 3840,
      "▁source": 3841,
      "▁wanted": 3842,
      "▁Columbia": 3843,
      "▁Bul": 3844,
      "▁Rob": 3845,
      "▁Niger": 3846,
      "▁terms": 3847,
      "▁necess": 3848,
      "▁largest": 3849,
      "▁Biography": 3850,
      "▁Cr": 3851,
      "▁remov": 3852,
      "▁edition": 3853,
      "▁computer": 3854,
      "▁programs": 3855,
      ".”": 3856,
      "▁purp": 3857,
      "▁reve": 3858,
      "bl": 3859,
      "ship": 3860,
      "icine": 3861,
      "▁brand": 3862,
      "▁Catholic": 3863,
      "▁medalists": 3864,
      "▁Arab": 3865,
      "▁Wild": 3866,
      "▁raised": 3867,
      "▁central": 3868,
      "▁highest": 3869,
      "▁Mil": 3870,
      "orage": 3871,
      "▁growth": 3872,
      "▁scored": 3873,
      "-3": 3874,
      "▁unit": 3875,
      "▁drama": 3876,
      "ultural": 3877,
      "▁security": 3878,
      "▁Ak": 3879,
      "ilies": 3880,
      "▁forest": 3881,
      "▁Foundation": 3882,
      "ffer": 3883,
      "fully": 3884,
      "ounter": 3885,
      "▁couple": 3886,
      "▁conditions": 3887,
      "ali": 3888,
      "ennis": 3889,
      "center": 3890,
      "illing": 3891,
      "▁Under": 3892,
      "▁inside": 3893,
      "▁challeng": 3894,
      "▁Inst": 3895,
      "▁inte": 3896,
      "▁Order": 3897,
      "▁Mexico": 3898,
      "▁culture": 3899,
      "▁division": 3900,
      "▁Battalion": 3901,
      "▁Haw": 3902,
      "antry": 3903,
      "▁recorded": 3904,
      "enge": 3905,
      "action": 3906,
      "▁Athlet": 3907,
      "▁studio": 3908,
      "IT": 3909,
      "iro": 3910,
      "▁Cle": 3911,
      "▁episode": 3912,
      "▁section": 3913,
      "▁although": 3914,
      "AM": 3915,
      "▁prin": 3916,
      "▁Force": 3917,
      "▁shoot": 3918,
      "▁ut": 3919,
      "▁Hel": 3920,
      "▁dog": 3921,
      "▁lay": 3922,
      "▁clos": 3923,
      "▁cook": 3924,
      "▁consum": 3925,
      "▁gra": 3926,
      "▁More": 3927,
      "▁length": 3928,
      "▁silver": 3929,
      "▁Results": 3930,
      "▁primary": 3931,
      "▁positive": 3932,
      "▁Ver": 3933,
      "▁Here": 3934,
      "▁digital": 3935,
      "▁becoming": 3936,
      "▁everyone": 3937,
      "wa": 3938,
      "enty": 3939,
      "▁Est": 3940,
      "▁lat": 3941,
      "▁Wind": 3942,
      "itation": 3943,
      "▁beginning": 3944,
      "▁Sportspeople": 3945,
      "aily": 3946,
      "▁Cat": 3947,
      "lying": 3948,
      "astern": 3949,
      "▁youth": 3950,
      "▁mountain": 3951,
      "aka": 3952,
      "▁Rel": 3953,
      "▁gun": 3954,
      "▁ice": 3955,
      "▁Irish": 3956,
      "▁Mem": 3957,
      "▁abs": 3958,
      "ipment": 3959,
      "aith": 3960,
      "▁deep": 3961,
      "change": 3962,
      "▁longer": 3963,
      "gar": 3964,
      "▁Cop": 3965,
      "▁Head": 3966,
      "▁arran": 3967,
      "▁approach": 3968,
      "▁stations": 3969,
      "text": 3970,
      "▁Mel": 3971,
      "▁den": 3972,
      "▁critic": 3973,
      "16": 3974,
      "uba": 3975,
      "▁Big": 3976,
      "▁quickly": 3977,
      "▁customer": 3978,
      "gypt": 3979,
      "isions": 3980,
      "▁Business": 3981,
      "▁launched": 3982,
      "▁path": 3983,
      "▁Journ": 3984,
      "▁variety": 3985,
      "och": 3986,
      "▁Polish": 3987,
      "▁Ireland": 3988,
      "▁graduated": 3989,
      "25": 3990,
      "▁Adv": 3991,
      "▁told": 3992,
      "▁annual": 3993,
      "va": 3994,
      "▁Mur": 3995,
      "▁quite": 3996,
      "▁featured": 3997,
      "▁Virginia": 3998,
      "▁continue": 3999,
      "▁knowledge": 4000,
      "▁bed": 4001,
      "▁lic": 4002,
      "▁oil": 4003,
      "▁husband": 4004,
      "▁Es": 4005,
      "▁bott": 4006,
      "▁believe": 4007,
      "akh": 4008,
      "▁Cap": 4009,
      "ien": 4010,
      "▁Loc": 4011,
      "oviet": 4012,
      "▁Je": 4013,
      "▁code": 4014,
      "▁civil": 4015,
      "▁enter": 4016,
      "▁entered": 4017,
      "▁conference": 4018,
      "▁wid": 4019,
      "▁Design": 4020,
      "▁Gh": 4021,
      "ounds": 4022,
      "▁touch": 4023,
      "▁whose": 4024,
      "ube": 4025,
      "▁Build": 4026,
      "ira": 4027,
      "▁Post": 4028,
      "▁ball": 4029,
      "▁Bre": 4030,
      "▁Open": 4031,
      "▁chief": 4032,
      "▁choose": 4033,
      "▁Di": 4034,
      "▁Mot": 4035,
      "▁norm": 4036,
      "▁clear": 4037,
      "▁relig": 4038,
      "▁union": 4039,
      "▁economic": 4040,
      ".)": 4041,
      "▁Fe": 4042,
      "onse": 4043,
      "▁Asia": 4044,
      "▁wall": 4045,
      "▁Wales": 4046,
      "▁bud": 4047,
      "▁probably": 4048,
      "▁surround": 4049,
      "▁insurance": 4050,
      "class": 4051,
      "▁phone": 4052,
      "▁treatment": 4053,
      "NA": 4054,
      "▁firm": 4055,
      "▁rock": 4056,
      "▁Egypt": 4057,
      "▁defin": 4058,
      "▁Los": 4059,
      "▁bur": 4060,
      "▁nar": 4061,
      "▁increase": 4062,
      "▁establishments": 4063,
      "itar": 4064,
      "orks": 4065,
      "▁stop": 4066,
      "▁immed": 4067,
      "▁Follow": 4068,
      "▁itself": 4069,
      "▁brought": 4070,
      "▁standard": 4071,
      "22": 4072,
      "▁ant": 4073,
      "▁matter": 4074,
      "nes": 4075,
      "ault": 4076,
      "▁movie": 4077,
      "▁Ap": 4078,
      "ressed": 4079,
      "▁mission": 4080,
      "inem": 4081,
      "▁traditional": 4082,
      "▁charg": 4083,
      "▁recent": 4084,
      "▁Although": 4085,
      "zz": 4086,
      "een": 4087,
      "▁MPs": 4088,
      "▁learning": 4089,
      "unicipality": 4090,
      "▁opportunity": 4091,
      "TV": 4092,
      "anth": 4093,
      "cing": 4094,
      "etic": 4095,
      "▁Also": 4096,
      "▁ended": 4097,
      "▁reach": 4098,
      "▁simply": 4099,
      "▁mention": 4100,
      "uth": 4101,
      "▁Us": 4102,
      "▁aim": 4103,
      "▁conv": 4104,
      "▁hair": 4105,
      "ashion": 4106,
      "▁legal": 4107,
      "▁fourth": 4108,
      "▁application": 4109,
      "vement": 4110,
      "▁Prize": 4111,
      "▁Nether": 4112,
      "▁Series": 4113,
      "▁singles": 4114,
      "▁attention": 4115,
      "▁occur": 4116,
      "▁Please": 4117,
      "mann": 4118,
      "urer": 4119,
      "ustr": 4120,
      "▁Bet": 4121,
      "–18": 4122,
      "azing": 4123,
      "mission": 4124,
      "▁originally": 4125,
      "60": 4126,
      "RE": 4127,
      "down": 4128,
      "gent": 4129,
      "lied": 4130,
      "▁categ": 4131,
      "▁helped": 4132,
      "▁reached": 4133,
      "▁starting": 4134,
      "▁Christmas": 4135,
      "ila": 4136,
      "▁skin": 4137,
      "itchen": 4138,
      "▁Soviet": 4139,
      "▁Command": 4140,
      "13": 4141,
      "▁2023": 4142,
      "▁places": 4143,
      "▁skills": 4144,
      "▁implement": 4145,
      "▁transport": 4146,
      "SE": 4147,
      "uty": 4148,
      "▁bal": 4149,
      "▁Richard": 4150,
      "▁officer": 4151,
      "ón": 4152,
      "▁Er": 4153,
      "onze": 4154,
      "▁Then": 4155,
      "▁answ": 4156,
      "▁anti": 4157,
      "▁pret": 4158,
      "▁words": 4159,
      "▁editor": 4160,
      "▁candidate": 4161,
      "known": 4162,
      "ript": 4163,
      "▁Atl": 4164,
      "▁sal": 4165,
      "▁Wood": 4166,
      "▁plans": 4167,
      "cription": 4168,
      "▁response": 4169,
      "FC": 4170,
      "ga": 4171,
      "ingu": 4172,
      "▁Pac": 4173,
      "▁eventually": 4174,
      "olk": 4175,
      "▁Chief": 4176,
      "▁items": 4177,
      "▁names": 4178,
      "▁earned": 4179,
      "▁Hill": 4180,
      "▁sess": 4181,
      "rast": 4182,
      "▁Jes": 4183,
      "▁sup": 4184,
      "▁Well": 4185,
      "▁green": 4186,
      "isation": 4187,
      "▁directly": 4188,
      "bi": 4189,
      "▁184": 4190,
      "itors": 4191,
      "izes": 4192,
      "▁etc": 4193,
      "▁centre": 4194,
      "▁providing": 4195,
      "▁associated": 4196,
      "ba": 4197,
      "▁£": 4198,
      "inet": 4199,
      "igade": 4200,
      "▁speed": 4201,
      "▁commission": 4202,
      "▁parliament": 4203,
      "▁Let": 4204,
      "▁vac": 4205,
      "iding": 4206,
      "▁dedic": 4207,
      "▁cricket": 4208,
      "▁Congress": 4209,
      "antic": 4210,
      "mitted": 4211,
      "oys": 4212,
      "▁Rock": 4213,
      "orning": 4214,
      "▁Kong": 4215,
      "anda": 4216,
      "ersey": 4217,
      "▁serve": 4218,
      "▁celebr": 4219,
      "▁Ram": 4220,
      "amily": 4221,
      "apers": 4222,
      "▁asked": 4223,
      "▁ready": 4224,
      "▁Joseph": 4225,
      "▁subsequ": 4226,
      "ja": 4227,
      "▁IV": 4228,
      "▁sens": 4229,
      "▁Television": 4230,
      "▁Final": 4231,
      "▁cases": 4232,
      "▁winning": 4233,
      "▁Technology": 4234,
      "▁independent": 4235,
      "80": 4236,
      "▁vs": 4237,
      "oura": 4238,
      "▁Free": 4239,
      "▁save": 4240,
      "▁Represent": 4241,
      "▁materials": 4242,
      "hing": 4243,
      "craft": 4244,
      "inois": 4245,
      "▁families": 4246,
      "▁structure": 4247,
      "LL": 4248,
      "▁hor": 4249,
      "▁score": 4250,
      "▁doctor": 4251,
      "gl": 4252,
      "▁moving": 4253,
      "▁Netherlands": 4254,
      "▁Mu": 4255,
      "▁fix": 4256,
      "▁file": 4257,
      "▁1996": 4258,
      "isters": 4259,
      "▁Victor": 4260,
      "▁characters": 4261,
      "▁Mo": 4262,
      "well": 4263,
      "acity": 4264,
      "▁1999": 4265,
      "▁radio": 4266,
      "▁ships": 4267,
      "17": 4268,
      "bass": 4269,
      "weet": 4270,
      "akers": 4271,
      "▁equipment": 4272,
      "▁dom": 4273,
      "▁mur": 4274,
      "▁risk": 4275,
      "arlier": 4276,
      "▁partn": 4277,
      "▁restaur": 4278,
      "▁Northern": 4279,
      "▁organizations": 4280,
      "▁4.": 4281,
      "▁Sup": 4282,
      "▁arg": 4283,
      "▁seat": 4284,
      "▁killed": 4285,
      "▁comfort": 4286,
      "agn": 4287,
      "urt": 4288,
      "▁Camb": 4289,
      "osition": 4290,
      "▁suffer": 4291,
      "▁allowed": 4292,
      "▁storage": 4293,
      "▁download": 4294,
      "aby": 4295,
      "arily": 4296,
      "inger": 4297,
      "▁Child": 4298,
      "In": 4299,
      "like": 4300,
      "▁Bib": 4301,
      "ulations": 4302,
      "ero": 4303,
      "vest": 4304,
      "▁Fre": 4305,
      "▁Rec": 4306,
      "▁Sol": 4307,
      "▁van": 4308,
      "▁phil": 4309,
      "▁Jewish": 4310,
      "▁Georgia": 4311,
      "▁Illinois": 4312,
      "▁Register": 4313,
      "▁defeated": 4314,
      "▁department": 4315,
      "ON": 4316,
      "▁worth": 4317,
      "▁improve": 4318,
      "▁Die": 4319,
      "▁global": 4320,
      "▁Univers": 4321,
      "▁replaced": 4322,
      "▁Conservative": 4323,
      "▁É": 4324,
      "▁exam": 4325,
      "▁comedy": 4326,
      "–0": 4327,
      "amm": 4328,
      "▁Gal": 4329,
      "▁ver": 4330,
      "aters": 4331,
      "▁ideas": 4332,
      "▁quarter": 4333,
      "▁movement": 4334,
      "▁generally": 4335,
      "▁themselves": 4336,
      "right": 4337,
      "▁trust": 4338,
      "▁Korean": 4339,
      "▁trying": 4340,
      "emporary": 4341,
      "▁consult": 4342,
      "▁Secretary": 4343,
      "▁condition": 4344,
      "bre": 4345,
      "▁ge": 4346,
      "ogle": 4347,
      "▁ult": 4348,
      "▁Sand": 4349,
      "▁seem": 4350,
      "▁true": 4351,
      "▁Berlin": 4352,
      "▁allows": 4353,
      "▁options": 4354,
      "ancy": 4355,
      "ario": 4356,
      "▁Love": 4357,
      "▁Spain": 4358,
      "ady": 4359,
      "▁Cy": 4360,
      "▁Writ": 4361,
      "▁Office": 4362,
      "▁personnel": 4363,
      "24": 4364,
      "▁Jos": 4365,
      "▁Sar": 4366,
      "▁Van": 4367,
      "▁vote": 4368,
      "ulated": 4369,
      "ublican": 4370,
      "ika": 4371,
      "▁CE": 4372,
      "▁Tam": 4373,
      "▁2008": 4374,
      "▁sell": 4375,
      "erc": 4376,
      "▁Pak": 4377,
      "▁foot": 4378,
      "▁native": 4379,
      "▁partner": 4380,
      "yo": 4381,
      "hire": 4382,
      "▁hum": 4383,
      "▁tal": 4384,
      "▁innov": 4385,
      "▁ple": 4386,
      "ipped": 4387,
      "▁1940": 4388,
      "▁Main": 4389,
      "▁Many": 4390,
      "▁safe": 4391,
      "▁remained": 4392,
      "99": 4393,
      "▁Tai": 4394,
      "▁adj": 4395,
      "▁(197": 4396,
      "uation": 4397,
      "▁grant": 4398,
      "▁background": 4399,
      "han": 4400,
      "aled": 4401,
      "mark": 4402,
      "▁2016,": 4403,
      "▁users": 4404,
      "▁latest": 4405,
      "▁middle": 4406,
      "▁coaches": 4407,
      "▁anything": 4408,
      "cean": 4409,
      "▁Tod": 4410,
      "▁fif": 4411,
      "▁lived": 4412,
      "▁legisl": 4413,
      "▁Records": 4414,
      "imb": 4415,
      "etry": 4416,
      "ivity": 4417,
      "▁Good": 4418,
      "▁teacher": 4419,
      "▁statistics": 4420,
      "rect": 4421,
      "unch": 4422,
      "itude": 4423,
      "▁Long": 4424,
      "▁chap": 4425,
      "▁loan": 4426,
      "▁Econom": 4427,
      "▁cannot": 4428,
      "▁Professor": 4429,
      "bon": 4430,
      "itan": 4431,
      "present": 4432,
      "▁finish": 4433,
      "▁Paralympic": 4434,
      "▁pet": 4435,
      "▁sites": 4436,
      "▁levels": 4437,
      "▁ability": 4438,
      "▁railway": 4439,
      "▁promoted": 4440,
      ");": 4441,
      "▁Lee": 4442,
      "arden": 4443,
      "▁pric": 4444,
      "▁graph": 4445,
      "▁Historic": 4446,
      "▁Services": 4447,
      "▁activity": 4448,
      "21": 4449,
      "▁Carl": 4450,
      "▁Matt": 4451,
      "▁streng": 4452,
      "▁x": 4453,
      "iana": 4454,
      "▁lif": 4455,
      "iling": 4456,
      "▁drug": 4457,
      "▁Young": 4458,
      "▁block": 4459,
      "▁hockey": 4460,
      "▁yourself": 4461,
      "house": 4462,
      "▁Scot": 4463,
      "▁carry": 4464,
      "▁disease": 4465,
      "▁operations": 4466,
      "achel": 4467,
      "ansas": 4468,
      "▁concept": 4469,
      "▁manager": 4470,
      "▁magazine": 4471,
      "▁individuals": 4472,
      "▁responsible": 4473,
      "BA": 4474,
      "OR": 4475,
      "▁1920": 4476,
      "▁cause": 4477,
      "▁Political": 4478,
      "▁Fr": 4479,
      "▁Ok": 4480,
      "enant": 4481,
      "occer": 4482,
      "▁Each": 4483,
      "▁frequ": 4484,
      "▁Weight": 4485,
      "▁easily": 4486,
      "▁Medical": 4487,
      "▁Special": 4488,
      "hens": 4489,
      "wide": 4490,
      "▁max": 4491,
      "▁Book": 4492,
      "▁Card": 4493,
      "▁corn": 4494,
      "▁disp": 4495,
      "▁Later": 4496,
      "▁ago": 4497,
      "▁arrest": 4498,
      "▁giving": 4499,
      "▁limited": 4500,
      "esh": 4501,
      "▁sex": 4502,
      "▁lands": 4503,
      "▁expert": 4504,
      "▁stories": 4505,
      "▁Regional": 4506,
      "ders": 4507,
      "▁Ken": 4508,
      "ishop": 4509,
      "overs": 4510,
      "▁occup": 4511,
      "▁winner": 4512,
      "IC": 4513,
      "▁Gre": 4514,
      "▁2007": 4515,
      "▁wear": 4516,
      "▁target": 4517,
      "▁recently": 4518,
      "▁participated": 4519,
      "ares": 4520,
      "▁Liga": 4521,
      "▁tick": 4522,
      "▁Davis": 4523,
      "▁Islam": 4524,
      "▁stars": 4525,
      "▁Official": 4526,
      "▁effective": 4527,
      "▁highly": 4528,
      "▁status": 4529,
      "▁contains": 4530,
      "▁Cas": 4531,
      "▁Tim": 4532,
      "incip": 4533,
      "▁excell": 4534,
      "▁Saguenay": 4535,
      "▁Kar": 4536,
      "▁1992": 4537,
      "▁army": 4538,
      "▁clubs": 4539,
      "▁choice": 4540,
      "▁changed": 4541,
      "▁opening": 4542,
      "▁numerous": 4543,
      "▁marketing": 4544,
      "▁chem": 4545,
      "▁runs": 4546,
      "▁seek": 4547,
      "▁drive": 4548,
      "▁Jersey": 4549,
      "44": 4550,
      "▁cam": 4551,
      "venue": 4552,
      "▁capital": 4553,
      "▁champion": 4554,
      "▁Jim": 4555,
      "▁newsp": 4556,
      "▁attend": 4557,
      "▁surface": 4558,
      "oms": 4559,
      "▁Aff": 4560,
      "▁Bor": 4561,
      "▁Bud": 4562,
      "▁kids": 4563,
      "▁Every": 4564,
      "▁squad": 4565,
      "▁Southern": 4566,
      "▁Medal": 4567,
      "▁feder": 4568,
      "▁types": 4569,
      "▁comment": 4570,
      "▁creating": 4571,
      "▁producer": 4572,
      "▁Rem": 4573,
      "▁Som": 4574,
      "▁sle": 4575,
      "umber": 4576,
      "▁1994": 4577,
      "formed": 4578,
      "itable": 4579,
      "▁Color": 4580,
      "▁compl": 4581,
      "▁battalion": 4582,
      "iti": 4583,
      "adium": 4584,
      "▁heavy": 4585,
      "▁planning": 4586,
      "▁purchase": 4587,
      "▁alongside": 4588,
      "enth": 4589,
      "▁uses": 4590,
      "▁Centre": 4591,
      "PS": 4592,
      "▁Du": 4593,
      "vania": 4594,
      "▁2009": 4595,
      "▁Land": 4596,
      "▁sometimes": 4597,
      "▁183": 4598,
      "▁Fred": 4599,
      "▁rent": 4600,
      "▁actors": 4601,
      "▁Republican": 4602,
      "▁particularly": 4603,
      "hips": 4604,
      "▁Tri": 4605,
      "▁1950": 4606,
      "▁adop": 4607,
      "▁reviews": 4608,
      "▁painting": 4609,
      "▁executive": 4610,
      "aped": 4611,
      "erem": 4612,
      "ties": 4613,
      "ulpt": 4614,
      "▁1998": 4615,
      "▁sister": 4616,
      "▁display": 4617,
      "▁Following": 4618,
      "▁assistant": 4619,
      "▁presented": 4620,
      "ken": 4621,
      "▁3,": 4622,
      "▁Tem": 4623,
      "▁Hung": 4624,
      "▁Henry": 4625,
      "▁click": 4626,
      "▁effic": 4627,
      "▁interested": 4628,
      "hess": 4629,
      "▁map": 4630,
      "▁(193": 4631,
      "▁2021.": 4632,
      "▁Cross": 4633,
      "▁actor": 4634,
      "▁damage": 4635,
      "▁Program": 4636,
      "▁capacity": 4637,
      "icks": 4638,
      "▁lake": 4639,
      "▁ones": 4640,
      "▁estate": 4641,
      "▁records": 4642,
      "ste": 4643,
      "▁Times": 4644,
      "▁expand": 4645,
      "▁pretty": 4646,
      "▁earlier": 4647,
      "FL": 4648,
      "no": 4649,
      "▁Ly": 4650,
      "ibly": 4651,
      "ruit": 4652,
      "▁Raj": 4653,
      "▁cat": 4654,
      "inner": 4655,
      "▁decor": 4656,
      "▁ur": 4657,
      "▁Luc": 4658,
      "▁ran": 4659,
      "▁2005": 4660,
      "▁Prot": 4661,
      "▁trip": 4662,
      "▁fully": 4663,
      "▁happy": 4664,
      "▁mouth": 4665,
      "ylvania": 4666,
      "▁option": 4667,
      "cher": 4668,
      "ogue": 4669,
      "▁whom": 4670,
      "ipping": 4671,
      "▁Stand": 4672,
      "▁assigned": 4673,
      "23": 4674,
      "▁Jo": 4675,
      "▁Ut": 4676,
      "▁div": 4677,
      "ously": 4678,
      "▁stra": 4679,
      "▁nature": 4680,
      "▁resources": 4681,
      "▁Ty": 4682,
      "rief": 4683,
      "▁lack": 4684,
      "▁vehicle": 4685,
      "yes": 4686,
      "▁4,": 4687,
      "▁pen": 4688,
      "▁tell": 4689,
      "▁Charl": 4690,
      "▁psych": 4691,
      "▁street": 4692,
      "▁machine": 4693,
      "▁expatriate": 4694,
      "▁gives": 4695,
      "▁image": 4696,
      "▁voice": 4697,
      "▁register": 4698,
      "▁scheduled": 4699,
      "▁Fer": 4700,
      "▁cas": 4701,
      "▁Call": 4702,
      "▁cert": 4703,
      "▁surn": 4704,
      "▁Master": 4705,
      "▁necessary": 4706,
      "▁guitar": 4707,
      "▁Scottish": 4708,
      "▁nine": 4709,
      "▁hands": 4710,
      "▁route": 4711,
      "▁Junior": 4712,
      "▁nation": 4713,
      "▁musical": 4714,
      "▁offered": 4715,
      "erved": 4716,
      "▁pred": 4717,
      "▁user": 4718,
      "▁Penns": 4719,
      "▁noted": 4720,
      "▁mobile": 4721,
      "▁Further": 4722,
      "▁faculty": 4723,
      "▁Att": 4724,
      "▁Down": 4725,
      "▁citiz": 4726,
      "▁altern": 4727,
      "stra": 4728,
      "▁Ohio": 4729,
      "▁demon": 4730,
      "▁rules": 4731,
      "▁Argent": 4732,
      "mm": 4733,
      "▁businesses": 4734,
      "US": 4735,
      "▁ec": 4736,
      "cape": 4737,
      "iant": 4738,
      "iately": 4739,
      "▁owner": 4740,
      "▁majority": 4741,
      "▁Pennsylvania": 4742,
      "▁er": 4743,
      "imin": 4744,
      "edding": 4745,
      "▁Const": 4746,
      "▁double": 4747,
      "▁attract": 4748,
      "▁Hospital": 4749,
      "aks": 4750,
      "sen": 4751,
      "ses": 4752,
      "▁sale": 4753,
      "▁entry": 4754,
      "▁profession": 4755,
      "bur": 4756,
      "rong": 4757,
      "▁dro": 4758,
      "▁Week": 4759,
      "▁word": 4760,
      "vention": 4761,
      "▁clients": 4762,
      "▁analysis": 4763,
      "▁hospital": 4764,
      "▁Id": 4765,
      "road": 4766,
      "▁sea": 4767,
      "▁1988": 4768,
      "▁write": 4769,
      "▁forces": 4770,
      "▁turned": 4771,
      "▁foreign": 4772,
      "▁expected": 4773,
      "▁progress": 4774,
      "45": 4775,
      "ooth": 4776,
      "▁Mah": 4777,
      "▁2006": 4778,
      "XX": 4779,
      "awa": 4780,
      "itzer": 4781,
      "▁1968": 4782,
      "▁shown": 4783,
      "▁train": 4784,
      "▁introduced": 4785,
      "EN": 4786,
      "▁Bh": 4787,
      "▁Face": 4788,
      "▁Jack": 4789,
      "▁piece": 4790,
      "▁2002": 4791,
      "▁grew": 4792,
      "▁recommend": 4793,
      "kins": 4794,
      "▁Their": 4795,
      "▁morning": 4796,
      "uts": 4797,
      "▁Ke": 4798,
      "ager": 4799,
      "▁Lac": 4800,
      "▁hop": 4801,
      "▁Johnson": 4802,
      "▁supported": 4803,
      "ext": 4804,
      "oses": 4805,
      "▁Tre": 4806,
      "▁isn": 4807,
      "▁Ministry": 4808,
      "▁officers": 4809,
      "//": 4810,
      "place": 4811,
      "70": 4812,
      "ami": 4813,
      "azz": 4814,
      "elled": 4815,
      "▁Organ": 4816,
      "▁Google": 4817,
      "▁models": 4818,
      "▁neighbor": 4819,
      "aya": 4820,
      "rugg": 4821,
      "▁Ins": 4822,
      "rance": 4823,
      "▁2017.": 4824,
      "▁Enter": 4825,
      "▁wonder": 4826,
      "▁Angeles": 4827,
      "▁academic": 4828,
      "▁Brazilian": 4829,
      "inct": 4830,
      "▁Der": 4831,
      "▁sun": 4832,
      "▁diss": 4833,
      "▁felt": 4834,
      "▁sail": 4835,
      "opping": 4836,
      "▁exact": 4837,
      "hab": 4838,
      "▁drop": 4839,
      "▁Studies": 4840,
      "▁Support": 4841,
      "▁Gen": 4842,
      "▁dark": 4843,
      "▁Bibli": 4844,
      "▁growing": 4845,
      "▁qualified": 4846,
      "iat": 4847,
      "▁Once": 4848,
      "▁lines": 4849,
      "▁Winter": 4850,
      "ipe": 4851,
      "▁60": 4852,
      "etts": 4853,
      "▁lawy": 4854,
      "▁load": 4855,
      "▁2015,": 4856,
      "▁Prime": 4857,
      "ructure": 4858,
      "▁completely": 4859,
      "▁structures": 4860,
      "ora": 4861,
      "▁Av": 4862,
      "▁Mov": 4863,
      "▁Mun": 4864,
      "track": 4865,
      "▁bath": 4866,
      "▁initi": 4867,
      "▁threat": 4868,
      "▁benefits": 4869,
      "yan": 4870,
      "▁Old": 4871,
      "orpor": 4872,
      "ancing": 4873,
      "▁minor": 4874,
      "▁tools": 4875,
      "▁bronze": 4876,
      "▁Indones": 4877,
      "▁saying": 4878,
      "▁winners": 4879,
      "▁patients": 4880,
      "life": 4881,
      "▁Wal": 4882,
      "▁thr": 4883,
      "▁2004": 4884,
      "▁Time": 4885,
      "▁wild": 4886,
      "▁costs": 4887,
      "▁mount": 4888,
      "▁trial": 4889,
      "ologist": 4890,
      "▁prison": 4891,
      "▁physical": 4892,
      "://": 4893,
      "ova": 4894,
      "▁Mir": 4895,
      "▁Tro": 4896,
      "▁wel": 4897,
      "iques": 4898,
      "▁replace": 4899,
      "▁advanced": 4900,
      "▁80": 4901,
      "ugby": 4902,
      "▁Bol": 4903,
      "▁Det": 4904,
      "irmed": 4905,
      "▁basis": 4906,
      "▁Edward": 4907,
      "▁employees": 4908,
      "iser": 4909,
      "▁2003": 4910,
      "▁fair": 4911,
      "▁draft": 4912,
      "▁passed": 4913,
      "ologists": 4914,
      "▁Journal": 4915,
      "▁leadership": 4916,
      "90": 4917,
      "500": 4918,
      "▁Max": 4919,
      "▁gas": 4920,
      "▁von": 4921,
      "▁dipl": 4922,
      "▁charge": 4923,
      "▁setting": 4924,
      "isf": 4925,
      "▁Ec": 4926,
      "greg": 4927,
      "▁III": 4928,
      "▁uns": 4929,
      "▁closed": 4930,
      "▁experi": 4931,
      "onym": 4932,
      "▁swim": 4933,
      "▁Martin": 4934,
      "▁Sunday": 4935,
      "▁larger": 4936,
      "▁remain": 4937,
      "▁follows": 4938,
      "▁parties": 4939,
      "▁solutions": 4940,
      "ko": 4941,
      "bers": 4942,
      "▁Lord": 4943,
      "▁roll": 4944,
      "▁avoid": 4945,
      "▁blood": 4946,
      "▁Philippines": 4947,
      "ela": 4948,
      "onn": 4949,
      "pet": 4950,
      "▁FI": 4951,
      "▁Gi": 4952,
      "▁spl": 4953,
      "achus": 4954,
      "▁arrived": 4955,
      "urb": 4956,
      "▁USA": 4957,
      "error": 4958,
      "▁tree": 4959,
      "▁Power": 4960,
      "▁prote": 4961,
      "▁select": 4962,
      "▁amazing": 4963,
      "▁destroy": 4964,
      "▁respond": 4965,
      "▁Weightlifters": 4966,
      "▁5,": 4967,
      "ieut": 4968,
      "▁Tok": 4969,
      "▁cab": 4970,
      "▁Corps": 4971,
      "▁aspect": 4972,
      "▁Premier": 4973,
      "▁[": 4974,
      "▁Os": 4975,
      "resp": 4976,
      "▁dyn": 4977,
      "oston": 4978,
      "▁2023,": 4979,
      "▁begin": 4980,
      "▁safety": 4981,
      "▁taught": 4982,
      "▁temper": 4983,
      "▁Finland": 4984,
      "▁request": 4985,
      "▁evidence": 4986,
      "▁dedicated": 4987,
      "▁transferred": 4988,
      "ée": 4989,
      "ucky": 4990,
      "uing": 4991,
      "▁Rod": 4992,
      "▁Sem": 4993,
      "▁Vis": 4994,
      "▁Minn": 4995,
      "▁goes": 4996,
      "▁2014,": 4997,
      "▁Queen": 4998,
      "▁daily": 4999,
      "▁occas": 5000,
      "▁Labour": 5001,
      "▁Quebec": 5002,
      "▁climate": 5003,
      "▁covered": 5004,
      "▁Medalists": 5005,
      "):": 5006,
      "SP": 5007,
      "▁Up": 5008,
      "▁Whe": 5009,
      "estic": 5010,
      "▁Jean": 5011,
      "ackson": 5012,
      "▁Major": 5013,
      "▁chance": 5014,
      "standing": 5015,
      "▁finally": 5016,
      "▁serious": 5017,
      "án": 5018,
      "uan": 5019,
      "▁Dec": 5020,
      "▁Finn": 5021,
      "▁Step": 5022,
      "▁owned": 5023,
      "▁leaving": 5024,
      "arant": 5025,
      "itely": 5026,
      "▁Fort": 5027,
      "▁Slov": 5028,
      "▁Works": 5029,
      "▁produce": 5030,
      "achusetts": 5031,
      "iy": 5032,
      "ji": 5033,
      "▁Ox": 5034,
      "more": 5035,
      "▁Get": 5036,
      "▁News": 5037,
      "▁gets": 5038,
      "▁sport": 5039,
      "▁Gallery": 5040,
      "▁focused": 5041,
      "▁5.": 5042,
      "bury": 5043,
      "▁tow": 5044,
      "▁looks": 5045,
      "▁Review": 5046,
      "▁Thanks": 5047,
      "▁images": 5048,
      "▁competitions": 5049,
      "avi": 5050,
      "zech": 5051,
      "▁sequ": 5052,
      "▁spot": 5053,
      "▁analy": 5054,
      "▁pattern": 5055,
      "▁ke": 5056,
      "ophy": 5057,
      "▁pra": 5058,
      "▁(2019": 5059,
      "atively": 5060,
      "▁immediately": 5061,
      "▁CD": 5062,
      "▁SE": 5063,
      "▁Ul": 5064,
      "▁har": 5065,
      "itter": 5066,
      "oster": 5067,
      "▁shall": 5068,
      "▁territ": 5069,
      "phy": 5070,
      "uke": 5071,
      "▁1976": 5072,
      "▁caused": 5073,
      "▁moment": 5074,
      "▁spirit": 5075,
      "▁spring": 5076,
      "▁Pacific": 5077,
      "▁effects": 5078,
      "▁appearance": 5079,
      "▁Ret": 5080,
      "▁Sin": 5081,
      "▁king": 5082,
      "▁susp": 5083,
      "restling": 5084,
      "▁federal": 5085,
      "▁episodes": 5086,
      "▁Tournament": 5087,
      "0,000": 5088,
      "▁Disc": 5089,
      "▁prec": 5090,
      "▁Staff": 5091,
      "▁force": 5092,
      "▁elements": 5093,
      "▁increased": 5094,
      "LA": 5095,
      "do": 5096,
      "zy": 5097,
      "▁Ah": 5098,
      "▁bound": 5099,
      "▁nothing": 5100,
      "▁situation": 5101,
      "▁increasing": 5102,
      "▁Massachusetts": 5103,
      "OT": 5104,
      "leet": 5105,
      "▁180": 5106,
      "isher": 5107,
      "▁cool": 5108,
      "▁Transport": 5109,
      "▁35": 5110,
      "iang": 5111,
      "force": 5112,
      "▁else": 5113,
      "▁helps": 5114,
      "▁Jackson": 5115,
      "▁managed": 5116,
      "▁fine": 5117,
      "▁laws": 5118,
      "▁Boston": 5119,
      "▁athlet": 5120,
      "▁mechan": 5121,
      "ieutenant": 5122,
      "mod": 5123,
      "lete": 5124,
      "▁pages": 5125,
      "▁Valley": 5126,
      "▁efforts": 5127,
      "▁literature": 5128,
      "ez": 5129,
      "▁tro": 5130,
      "▁Even": 5131,
      "▁flag": 5132,
      "▁Czech": 5133,
      "▁metal": 5134,
      "▁cancer": 5135,
      "▁fashion": 5136,
      "▁Chair": 5137,
      "▁museum": 5138,
      "onom": 5139,
      "▁tim": 5140,
      "ellig": 5141,
      "▁hour": 5142,
      "▁sculpt": 5143,
      "▁convers": 5144,
      "75": 5145,
      "▁Far": 5146,
      "▁1995": 5147,
      "▁Frid": 5148,
      "▁Satur": 5149,
      "▁critical": 5150,
      "rics": 5151,
      "▁Bal": 5152,
      "abeth": 5153,
      "▁Four": 5154,
      "▁clin": 5155,
      "ologies": 5156,
      "▁integr": 5157,
      "▁council": 5158,
      "▁Infantry": 5159,
      "pan": 5160,
      "unte": 5161,
      "riage": 5162,
      "▁Province": 5163,
      "ao": 5164,
      "aling": 5165,
      "anner": 5166,
      "usion": 5167,
      "▁Mexican": 5168,
      "▁Academic": 5169,
      "▁Scotland": 5170,
      "▁teaching": 5171,
      "▁Lim": 5172,
      "▁roles": 5173,
      "▁broadcast": 5174,
      "▁university": 5175,
      "▁u": 5176,
      "▁(\"": 5177,
      "▁Les": 5178,
      "▁Read": 5179,
      "▁corpor": 5180,
      "▁strugg": 5181,
      "▁retired": 5182,
      "▁schedule": 5183,
      "CAA": 5184,
      "ech": 5185,
      "▁bra": 5186,
      "▁poor": 5187,
      "attery": 5188,
      "icians": 5189,
      "▁Indust": 5190,
      "▁murder": 5191,
      "▁carried": 5192,
      "▁favorite": 5193,
      "▁historical": 5194,
      "\")": 5195,
      "oto": 5196,
      "▁rap": 5197,
      "prise": 5198,
      "▁1997": 5199,
      "▁dead": 5200,
      "▁seats": 5201,
      "▁seems": 5202,
      "▁spons": 5203,
      "▁Places": 5204,
      "▁reasons": 5205,
      "▁workers": 5206,
      "▁Management": 5207,
      "amin": 5208,
      "▁Mic": 5209,
      "undred": 5210,
      "▁Anton": 5211,
      "▁stock": 5212,
      "igation": 5213,
      "▁Before": 5214,
      "▁Little": 5215,
      "▁Middle": 5216,
      "▁scholars": 5217,
      "BS": 5218,
      "can": 5219,
      "eed": 5220,
      "▁Hu": 5221,
      "▁cars": 5222,
      "▁sector": 5223,
      "▁articles": 5224,
      "Th": 5225,
      "fit": 5226,
      "▁TH": 5227,
      "ffee": 5228,
      "▁Ash": 5229,
      "▁sav": 5230,
      "▁Coast": 5231,
      "▁Today": 5232,
      "▁fellow": 5233,
      "▁govern": 5234,
      "▁requirements": 5235,
      "▁Jr": 5236,
      "rupt": 5237,
      "▁Jul": 5238,
      "▁2001": 5239,
      "▁doub": 5240,
      "▁holid": 5241,
      "▁Season": 5242,
      "set": 5243,
      "▁Log": 5244,
      "rence": 5245,
      "▁1991": 5246,
      "▁Pres": 5247,
      "asters": 5248,
      "enture": 5249,
      "illery": 5250,
      "▁meaning": 5251,
      "▁Cro": 5252,
      "▁Corn": 5253,
      "▁belong": 5254,
      "▁kitchen": 5255,
      "We": 5256,
      "▁roof": 5257,
      "▁Death": 5258,
      "▁Battle": 5259,
      "▁Senior": 5260,
      "▁anyone": 5261,
      "▁except": 5262,
      "▁letter": 5263,
      "▁serves": 5264,
      "▁essential": 5265,
      "amber": 5266,
      "▁1993": 5267,
      "▁Kent": 5268,
      "▁feet": 5269,
      "▁understanding": 5270,
      "▁Key": 5271,
      "ublin": 5272,
      "▁Born": 5273,
      "▁micro": 5274,
      "▁leaves": 5275,
      "▁sources": 5276,
      "▁solution": 5277,
      "▁initially": 5278,
      "CO": 5279,
      "ums": 5280,
      "mond": 5281,
      "oles": 5282,
      "apore": 5283,
      "ronic": 5284,
      "▁Blue": 5285,
      "▁send": 5286,
      "rolled": 5287,
      "▁descent": 5288,
      "▁victory": 5289,
      "▁resident": 5290,
      "▁selection": 5291,
      "▁communities": 5292,
      "▁1984": 5293,
      "▁alleg": 5294,
      "▁rates": 5295,
      "▁Family": 5296,
      "▁winter": 5297,
      "irection": 5298,
      "▁purpose": 5299,
      "▁Facebook": 5300,
      "▁remember": 5301,
      "▁challenge": 5302,
      "▁33": 5303,
      "▁Sri": 5304,
      "▁Last": 5305,
      "▁Wars": 5306,
      "▁Portug": 5307,
      "▁leaders": 5308,
      "▁confirmed": 5309,
      "sk": 5310,
      "ione": 5311,
      "▁cra": 5312,
      "▁1975": 5313,
      "▁apply": 5314,
      "▁aware": 5315,
      "▁coast": 5316,
      "▁peace": 5317,
      "▁sense": 5318,
      "▁forced": 5319,
      "▁instruct": 5320,
      "▁jun": 5321,
      "▁imag": 5322,
      "▁chart": 5323,
      "▁thous": 5324,
      "▁Internet": 5325,
      "▁proposed": 5326,
      "▁slow": 5327,
      "▁2022.": 5328,
      "▁colon": 5329,
      "▁protection": 5330,
      "FF": 5331,
      "mes": 5332,
      "list": 5333,
      "▁Eliz": 5334,
      "▁spread": 5335,
      "▁succeed": 5336,
      "▁suggest": 5337,
      "vo": 5338,
      "bed": 5339,
      "rep": 5340,
      "▁Gar": 5341,
      "orney": 5342,
      "▁Form": 5343,
      "▁Squad": 5344,
      "rainian": 5345,
      "▁society": 5346,
      "mir": 5347,
      "east": 5348,
      "enness": 5349,
      "▁proced": 5350,
      "org": 5351,
      "▁90": 5352,
      "▁Ba": 5353,
      "▁Web": 5354,
      "cient": 5355,
      "ordin": 5356,
      "ropri": 5357,
      "▁photos": 5358,
      "200": 5359,
      "aste": 5360,
      "▁arm": 5361,
      "▁ven": 5362,
      "antly": 5363,
      "▁1972": 5364,
      "▁sust": 5365,
      "▁Media": 5366,
      "▁figure": 5367,
      "▁despite": 5368,
      "MP": 5369,
      "▁Sir": 5370,
      "▁1964": 5371,
      "▁older": 5372,
      "▁depart": 5373,
      "bit": 5374,
      "iced": 5375,
      "▁door": 5376,
      "▁feed": 5377,
      "▁budget": 5378,
      "▁Project": 5379,
      "▁distance": 5380,
      "▁af": 5381,
      "▁12,": 5382,
      "▁Civil": 5383,
      "▁forms": 5384,
      "▁advant": 5385,
      "zd": 5386,
      "ori": 5387,
      "zen": 5388,
      "with": 5389,
      "▁gall": 5390,
      "▁Maria": 5391,
      "▁glass": 5392,
      "▁committee": 5393,
      "▁Kim": 5394,
      "▁Game": 5395,
      "▁crew": 5396,
      "▁purs": 5397,
      "▁Radio": 5398,
      "▁hotel": 5399,
      "▁labor": 5400,
      "respond": 5401,
      "▁format": 5402,
      "▁island": 5403,
      "▁nearly": 5404,
      "▁pieces": 5405,
      "▁Federal": 5406,
      "▁picture": 5407,
      "▁discovered": 5408,
      "▁Ur": 5409,
      "▁Son": 5410,
      "▁pil": 5411,
      "gment": 5412,
      "▁Supreme": 5413,
      "▁Independ": 5414,
      "▁Singapore": 5415,
      "▁architecture": 5416,
      "iny": 5417,
      "▁8,": 5418,
      "▁blue": 5419,
      "▁cash": 5420,
      "▁2016.": 5421,
      "istance": 5422,
      "▁journey": 5423,
      "▁facilities": 5424,
      "ocks": 5425,
      "▁Ari": 5426,
      "▁Ell": 5427,
      "▁battle": 5428,
      "▁univers": 5429,
      "▁cultural": 5430,
      "It": 5431,
      "▁Po": 5432,
      "works": 5433,
      "arters": 5434,
      "▁Clark": 5435,
      "▁famous": 5436,
      "▁shared": 5437,
      "▁encoura": 5438,
      "▁Saturday": 5439,
      "▁regional": 5440,
      "▁$1": 5441,
      "▁pool": 5442,
      "▁Jesus": 5443,
      "▁Santa": 5444,
      "▁dance": 5445,
      "▁photo": 5446,
      "▁technical": 5447,
      "▁Governorate": 5448,
      "▁Cab": 5449,
      "▁fab": 5450,
      "▁NCAA": 5451,
      "▁Qual": 5452,
      "▁Track": 5453,
      "▁exerc": 5454,
      "▁Railway": 5455,
      "▁appoint": 5456,
      "▁correct": 5457,
      "▁driving": 5458,
      "▁Colorado": 5459,
      "▁Community": 5460,
      "▁weightlif": 5461,
      "▁Bibliography": 5462,
      "▁Bob": 5463,
      "▁rob": 5464,
      "▁flow": 5465,
      "▁defend": 5466,
      "▁illustr": 5467,
      "▁excellent": 5468,
      "▁applications": 5469,
      "cles": 5470,
      "ques": 5471,
      "▁Pier": 5472,
      "▁sort": 5473,
      "▁Round": 5474,
      "▁premier": 5475,
      "▁Ukrainian": 5476,
      "▁opportunities": 5477,
      "nam": 5478,
      "▁aw": 5479,
      "haps": 5480,
      "▁eth": 5481,
      "ategy": 5482,
      "▁Fund": 5483,
      "▁brief": 5484,
      "▁Library": 5485,
      "▁contest": 5486,
      "▁residents": 5487,
      "dy": 5488,
      "illy": 5489,
      "burgh": 5490,
      "inity": 5491,
      "▁Lead": 5492,
      "▁nice": 5493,
      "▁paid": 5494,
      "▁honor": 5495,
      "▁Any": 5496,
      "▁ang": 5497,
      "▁Hand": 5498,
      "▁scen": 5499,
      "▁warm": 5500,
      "achelor": 5501,
      "▁Daniel": 5502,
      "▁researc": 5503,
      "▁surname": 5504,
      "▁champions": 5505,
      "▁recording": 5506,
      "▁=": 5507,
      "ror": 5508,
      "lers": 5509,
      "▁pal": 5510,
      "▁1930": 5511,
      "▁Khan": 5512,
      "▁Mond": 5513,
      "▁shop": 5514,
      "▁classes": 5515,
      "▁methods": 5516,
      "▁weather": 5517,
      "▁remaining": 5518,
      "ua": 5519,
      "hop": 5520,
      "rows": 5521,
      "▁Moh": 5522,
      "▁Ven": 5523,
      "▁Bell": 5524,
      "▁Bern": 5525,
      "▁plants": 5526,
      "▁channel": 5527,
      "▁existing": 5528,
      "▁nort": 5529,
      "finals": 5530,
      "▁genus": 5531,
      "▁tennis": 5532,
      "▁Eastern": 5533,
      "▁7,": 5534,
      "lades": 5535,
      "▁estim": 5536,
      "▁homes": 5537,
      "▁votes": 5538,
      "▁remains": 5539,
      "OS": 5540,
      "key": 5541,
      "▁Ren": 5542,
      "▁task": 5543,
      "ressive": 5544,
      "▁advert": 5545,
      "▁accepted": 5546,
      "▁baseball": 5547,
      "-4": 5548,
      "ca": 5549,
      "udi": 5550,
      "yond": 5551,
      "▁Both": 5552,
      "▁Wall": 5553,
      "▁poll": 5554,
      "▁vocals": 5555,
      "▁ordered": 5556,
      "TC": 5557,
      "”.": 5558,
      "enna": 5559,
      "▁Mans": 5560,
      "▁approx": 5561,
      "▁memory": 5562,
      "▁supply": 5563,
      "▁Administ": 5564,
      "▁audience": 5565,
      "▁politics": 5566,
      "▁pressure": 5567,
      "▁Francisco": 5568,
      "zh": 5569,
      "phone": 5570,
      "▁Poland": 5571,
      "▁affili": 5572,
      "▁beyond": 5573,
      "▁Britain": 5574,
      "▁benefit": 5575,
      "▁renamed": 5576,
      "▁positions": 5577,
      "▁6,": 5578,
      "▁Imp": 5579,
      "range": 5580,
      "▁Cost": 5581,
      "▁Girl": 5582,
      "▁thus": 5583,
      "▁Swiss": 5584,
      "▁ahead": 5585,
      "▁theme": 5586,
      "igrants": 5587,
      "▁Friday": 5588,
      "▁philos": 5589,
      "ographer": 5590,
      "▁Affairs": 5591,
      "▁religious": 5592,
      "▁)": 5593,
      "ouri": 5594,
      "▁gar": 5595,
      "iture": 5596,
      "▁Real": 5597,
      "▁Stan": 5598,
      "▁Trust": 5599,
      "▁withd": 5600,
      "▁reduce": 5601,
      "▁candidates": 5602,
      "1\"": 5603,
      "▁6.": 5604,
      "▁fell": 5605,
      "iminal": 5606,
      "▁recip": 5607,
      "ervation": 5608,
      "▁subsequently": 5609,
      "ét": 5610,
      "anna": 5611,
      "lies": 5612,
      "raine": 5613,
      "▁Stat": 5614,
      "▁fort": 5615,
      "▁2013,": 5616,
      "▁hosted": 5617,
      "▁reflect": 5618,
      "▁strateg": 5619,
      "▁Banglades": 5620,
      "wise": 5621,
      "▁Dev": 5622,
      "▁alt": 5623,
      "ivate": 5624,
      "▁1989": 5625,
      "▁doll": 5626,
      "achers": 5627,
      "▁assess": 5628,
      "▁Theatre": 5629,
      "▁hundred": 5630,
      "▁Federation": 5631,
      "▁investment": 5632,
      "box": 5633,
      "hew": 5634,
      "▁Li": 5635,
      "anga": 5636,
      "▁Taiwan": 5637,
      "▁injury": 5638,
      "▁vehicles": 5639,
      "▁mentioned": 5640,
      "▁dry": 5641,
      "inent": 5642,
      "▁Crit": 5643,
      "▁Sign": 5644,
      "▁Common": 5645,
      "▁border": 5646,
      "▁diplom": 5647,
      "▁demonstr": 5648,
      "▁obtained": 5649,
      "▁straight": 5650,
      "ef": 5651,
      "ims": 5652,
      "▁fan": 5653,
      "▁align": 5654,
      "▁appre": 5655,
      "▁driver": 5656,
      "▁advance": 5657,
      "▁operated": 5658,
      "▁regarding": 5659,
      "▁therefore": 5660,
      "▁Fem": 5661,
      "▁Pop": 5662,
      "▁Tay": 5663,
      "ician": 5664,
      "icted": 5665,
      "▁Line": 5666,
      "▁Publ": 5667,
      "▁mill": 5668,
      "▁vide": 5669,
      "▁overs": 5670,
      "▁tried": 5671,
      "▁citizens": 5672,
      "▁Representatives": 5673,
      "MS": 5674,
      "▁Ob": 5675,
      "teen": 5676,
      "▁Bad": 5677,
      "▁McC": 5678,
      "▁Sher": 5679,
      "▁Jacob": 5680,
      "▁cancell": 5681,
      "▁greater": 5682,
      "itzerland": 5683,
      "▁creative": 5684,
      "ns": 5685,
      "ava": 5686,
      "atab": 5687,
      "▁15,": 5688,
      "▁opin": 5689,
      "▁Three": 5690,
      "▁Tokyo": 5691,
      "▁basic": 5692,
      "▁Connect": 5693,
      "▁compared": 5694,
      "▁Background": 5695,
      "oli": 5696,
      "pur": 5697,
      "aven": 5698,
      "▁Hor": 5699,
      "rical": 5700,
      "▁1948": 5701,
      "▁huge": 5702,
      "▁util": 5703,
      "anning": 5704,
      "▁Chris": 5705,
      "▁titled": 5706,
      "▁offering": 5707,
      "▁administrative": 5708,
      "asy": 5709,
      "war": 5710,
      "▁Lo": 5711,
      "▁Ts": 5712,
      "osis": 5713,
      "▁htt": 5714,
      "▁Rome": 5715,
      "▁Vill": 5716,
      "▁elev": 5717,
      "▁satisf": 5718,
      "▁wedding": 5719,
      "▁commander": 5720,
      "▁construct": 5721,
      "▁featuring": 5722,
      "28": 5723,
      "sey": 5724,
      "ribute": 5725,
      "▁Latin": 5726,
      "▁piano": 5727,
      "▁repair": 5728,
      "▁governor": 5729,
      "▁statement": 5730,
      "▁experiences": 5731,
      "bro": 5732,
      "met": 5733,
      "asty": 5734,
      "gest": 5735,
      "ially": 5736,
      "▁Fair": 5737,
      "actions": 5738,
      "ributed": 5739,
      "▁Dublin": 5740,
      "▁Forest": 5741,
      "▁Police": 5742,
      "▁influence": 5743,
      "▁Municipality": 5744,
      "miss": 5745,
      "oren": 5746,
      "gency": 5747,
      "orter": 5748,
      "▁harm": 5749,
      "ightly": 5750,
      "▁Corpor": 5751,
      "ographic": 5752,
      "▁Elizabeth": 5753,
      "▁Lin": 5754,
      "▁Saf": 5755,
      "▁virt": 5756,
      "▁Sched": 5757,
      "▁Another": 5758,
      "▁internet": 5759,
      "ima": 5760,
      "▁PC": 5761,
      "ucle": 5762,
      "▁Jer": 5763,
      "▁Chap": 5764,
      "▁pair": 5765,
      "friend": 5766,
      "▁mixed": 5767,
      "oration": 5768,
      "▁Kansas": 5769,
      "▁cities": 5770,
      "▁demand": 5771,
      "▁Islands": 5772,
      "▁Reserve": 5773,
      "▁experienced": 5774,
      "-5": 5775,
      "cor": 5776,
      "ker": 5777,
      "ogen": 5778,
      "▁bow": 5779,
      "▁rom": 5780,
      "where": 5781,
      "▁1987": 5782,
      "▁Base": 5783,
      "▁hear": 5784,
      "▁Korea": 5785,
      "▁Oxford": 5786,
      "▁Indiana": 5787,
      "▁officially": 5788,
      "35": 5789,
      "una": 5790,
      "eller": 5791,
      "ensus": 5792,
      "ester": 5793,
      "hemat": 5794,
      "ifying": 5795,
      "onents": 5796,
      "▁Golden": 5797,
      "ennessee": 5798,
      "▁entertain": 5799,
      "▁70": 5800,
      "igen": 5801,
      "▁Tan": 5802,
      "ishes": 5803,
      "state": 5804,
      "▁1986": 5805,
      "▁Human": 5806,
      "▁Stock": 5807,
      "▁cells": 5808,
      "▁dress": 5809,
      "▁drink": 5810,
      "▁Sweden": 5811,
      "▁helping": 5812,
      "▁thinking": 5813,
      "IP": 5814,
      "3),": 5815,
      "vant": 5816,
      "▁10,": 5817,
      "acter": 5818,
      "▁repe": 5819,
      "▁polic": 5820,
      "▁direction": 5821,
      "▁definitely": 5822,
      "EP": 5823,
      "ho": 5824,
      "ić": 5825,
      "vin": 5826,
      "▁...": 5827,
      "▁Hun": 5828,
      "▁Kir": 5829,
      "▁Rap": 5830,
      "▁solo": 5831,
      "ighter": 5832,
      "▁views": 5833,
      "▁prefer": 5834,
      "▁appears": 5835,
      "▁contain": 5836,
      "▁designs": 5837,
      "▁session": 5838,
      "▁engineering": 5839,
      "▁sportspeople": 5840,
      "gu": 5841,
      "aro": 5842,
      "▁Coll": 5843,
      "▁peak": 5844,
      "▁2015.": 5845,
      "▁Field": 5846,
      "▁holds": 5847,
      "▁numbers": 5848,
      "▁planned": 5849,
      "▁operation": 5850,
      "▁exhibition": 5851,
      "88": 5852,
      "gn": 5853,
      "dro": 5854,
      "adel": 5855,
      "▁kept": 5856,
      "▁wait": 5857,
      "colspan": 5858,
      "▁mostly": 5859,
      "▁reform": 5860,
      "▁showed": 5861,
      "▁correspond": 5862,
      "-18": 5863,
      "utt": 5864,
      "▁32": 5865,
      "▁enh": 5866,
      "cript": 5867,
      "▁YouT": 5868,
      "▁Hawai": 5869,
      "▁Sport": 5870,
      "▁motor": 5871,
      "▁client": 5872,
      "▁consists": 5873,
      "▁creation": 5874,
      "▁province": 5875,
      "▁separate": 5876,
      "▁Tennessee": 5877,
      "▁Professional": 5878,
      "1%": 5879,
      "alle": 5880,
      "ayer": 5881,
      "care": 5882,
      "imal": 5883,
      "secut": 5884,
      "▁cold": 5885,
      "fluence": 5886,
      "pective": 5887,
      "tenance": 5888,
      "▁acting": 5889,
      "▁exclus": 5890,
      "▁extrem": 5891,
      "▁smaller": 5892,
      "▁traffic": 5893,
      "▁acquired": 5894,
      "▁composed": 5895,
      "▁Mix": 5896,
      "▁hab": 5897,
      "▁Anth": 5898,
      "▁Jones": 5899,
      "▁houses": 5900,
      "▁normal": 5901,
      "▁courses": 5902,
      "▁Switzerland": 5903,
      "65": 5904,
      "AL": 5905,
      "GB": 5906,
      "oted": 5907,
      "▁Arm": 5908,
      "▁Ent": 5909,
      "▁Pen": 5910,
      "▁Sud": 5911,
      "▁Syd": 5912,
      "aming": 5913,
      "uries": 5914,
      "▁note": 5915,
      "▁vice": 5916,
      "▁Micro": 5917,
      "▁device": 5918,
      "▁Brigade": 5919,
      "▁billion": 5920,
      "▁musicians": 5921,
      "▁connection": 5922,
      "gor": 5923,
      "rey": 5924,
      "idel": 5925,
      "▁Lank": 5926,
      "▁Short": 5927,
      "viation": 5928,
      "▁advice": 5929,
      "▁mainly": 5930,
      "▁princip": 5931,
      "▁developing": 5932,
      "AP": 5933,
      "eld": 5934,
      "▁aux": 5935,
      "agram": 5936,
      "▁fant": 5937,
      "▁theory": 5938,
      "▁Station": 5939,
      "▁reality": 5940,
      "▁presence": 5941,
      "▁constituency": 5942,
      "▁publications": 5943,
      "IM": 5944,
      "ulate": 5945,
      "▁pull": 5946,
      "▁script": 5947,
      "▁Justice": 5948,
      "▁Network": 5949,
      "▁Through": 5950,
      "▁listing": 5951,
      "▁organized": 5952,
      "No": 5953,
      "law": 5954,
      "rat": 5955,
      "▁16,": 5956,
      "▁Dam": 5957,
      "▁Sum": 5958,
      "▁Capt": 5959,
      "▁message": 5960,
      "ears": 5961,
      "▁bill": 5962,
      "iments": 5963,
      "▁spect": 5964,
      "▁failed": 5965,
      "▁counter": 5966,
      "▁funding": 5967,
      "▁proceed": 5968,
      "▁Pakistan": 5969,
      "▁appropri": 5970,
      "▁9,": 5971,
      "mers": 5972,
      "▁Why": 5973,
      "ctors": 5974,
      "▁rich": 5975,
      "▁Books": 5976,
      "▁Night": 5977,
      "▁instr": 5978,
      "▁judge": 5979,
      "▁measure": 5980,
      "▁designer": 5981,
      "▁incorpor": 5982,
      "▁nominated": 5983,
      "pping": 5984,
      "▁Kenn": 5985,
      "▁Like": 5986,
      "▁beat": 5987,
      "▁gained": 5988,
      "▁videos": 5989,
      "▁Foreign": 5990,
      "▁electric": 5991,
      "▁situated": 5992,
      "▁operating": 5993,
      "▁identified": 5994,
      "29": 5995,
      "▁Band": 5996,
      "▁limit": 5997,
      "▁scene": 5998,
      "ription": 5999,
      "▁launch": 6000,
      "▁Despite": 6001,
      "▁aircraft": 6002,
      "▁facility": 6003,
      "background": 6004,
      "ifications": 6005,
      "osl": 6006,
      "▁furn": 6007,
      "ocated": 6008,
      "▁concent": 6009,
      "▁reports": 6010,
      "▁weekend": 6011,
      "▁category": 6012,
      "▁supporting": 6013,
      "▁interesting": 6014,
      "▁à": 6015,
      "equ": 6016,
      "hat": 6017,
      "▁Sky": 6018,
      "▁Hamp": 6019,
      "▁fifth": 6020,
      "▁label": 6021,
      "▁smart": 6022,
      "▁latter": 6023,
      "▁southern": 6024,
      "rapy": 6025,
      "▁Fire": 6026,
      "▁Show": 6027,
      "▁onto": 6028,
      "▁myself": 6029,
      "▁racing": 6030,
      "▁chairman": 6031,
      "▁continues": 6032,
      "ão": 6033,
      "▁Bec": 6034,
      "▁Tal": 6035,
      "inson": 6036,
      "▁Light": 6037,
      "▁Thank": 6038,
      "▁Region": 6039,
      "▁easier": 6040,
      "outheast": 6041,
      "▁Cambridge": 6042,
      "Un": 6043,
      "ii": 6044,
      "kh": 6045,
      "▁Il": 6046,
      "▁Dun": 6047,
      "▁Lew": 6048,
      "▁Sus": 6049,
      "▁syn": 6050,
      "▁lect": 6051,
      "▁appeal": 6052,
      "▁engineer": 6053,
      "▁inspired": 6054,
      "rig": 6055,
      "▁Ali": 6056,
      "▁newly": 6057,
      "▁beauty": 6058,
      "▁revealed": 6059,
      "▁receiving": 6060,
      "▁techniques": 6061,
      "▁administration": 6062,
      "5%": 6063,
      "dam": 6064,
      "rene": 6065,
      "▁pod": 6066,
      "▁essay": 6067,
      "▁sleep": 6068,
      "▁prices": 6069,
      "▁achieve": 6070,
      "▁strength": 6071,
      "▁•": 6072,
      "anche": 6073,
      "▁emot": 6074,
      "▁Songs": 6075,
      "▁cerem": 6076,
      "▁wrong": 6077,
      "▁Alumni": 6078,
      "▁Disney": 6079,
      "▁Malays": 6080,
      "▁afford": 6081,
      "▁economy": 6082,
      "▁minister": 6083,
      "▁northern": 6084,
      "▁respectively": 6085,
      "bu": 6086,
      "▁500": 6087,
      "inder": 6088,
      "▁1941": 6089,
      "▁arts": 6090,
      "▁copy": 6091,
      "▁rule": 6092,
      "▁symb": 6093,
      "▁2012,": 6094,
      "▁cards": 6095,
      "▁owners": 6096,
      "▁Description": 6097,
      "Ph": 6098,
      "▁+": 6099,
      "din": 6100,
      "tain": 6101,
      "▁Joe": 6102,
      "▁fuel": 6103,
      "itness": 6104,
      "▁assum": 6105,
      "▁Muslim": 6106,
      "▁documents": 6107,
      "▁Production": 6108,
      "kin": 6109,
      "lyn": 6110,
      "osen": 6111,
      "▁End": 6112,
      "▁Pers": 6113,
      "▁Phys": 6114,
      "▁multi": 6115,
      "uration": 6116,
      "▁bottom": 6117,
      "▁Addition": 6118,
      "▁combined": 6119,
      "▁pictures": 6120,
      "▁industrial": 6121,
      "alo": 6122,
      "▁EP": 6123,
      "rome": 6124,
      "▁Jon": 6125,
      "writer": 6126,
      "▁Airport": 6127,
      "▁Basketball": 6128,
      "aud": 6129,
      "vard": 6130,
      "▁18,": 6131,
      "▁Nic": 6132,
      "▁(195": 6133,
      "▁Mike": 6134,
      "▁snow": 6135,
      "▁beach": 6136,
      "▁funds": 6137,
      "raduate": 6138,
      "▁Danish": 6139,
      "▁Sydney": 6140,
      "▁nearby": 6141,
      "▁visual": 6142,
      "▁volunte": 6143,
      "▁Mountain": 6144,
      "▁extended": 6145,
      "▁difference": 6146,
      "win": 6147,
      "▁IN": 6148,
      "onto": 6149,
      "▁Ker": 6150,
      "▁Pot": 6151,
      "▁fish": 6152,
      "▁rain": 6153,
      "▁bought": 6154,
      "▁exactly": 6155,
      "▁removed": 6156,
      "▁Schedule": 6157,
      "▁newspaper": 6158,
      "▁contemporary": 6159,
      "Le": 6160,
      "▁*": 6161,
      "ais": 6162,
      "▁boy": 6163,
      "▁vess": 6164,
      "encing": 6165,
      "marine": 6166,
      "season": 6167,
      "▁loved": 6168,
      "▁posted": 6169,
      "▁Windows": 6170,
      "▁flowers": 6171,
      "▁educational": 6172,
      "26": 6173,
      "▁Si": 6174,
      "isor": 6175,
      "term": 6176,
      "▁1985": 6177,
      "▁Ocean": 6178,
      "▁wheel": 6179,
      "▁county": 6180,
      "▁friendly": 6181,
      "oir": 6182,
      "pre": 6183,
      "▁BC": 6184,
      "▁Div": 6185,
      "▁Rot": 6186,
      "inema": 6187,
      "water": 6188,
      "▁cart": 6189,
      "▁wish": 6190,
      "▁Greek": 6191,
      "▁Guard": 6192,
      "▁spend": 6193,
      "▁colour": 6194,
      "▁infect": 6195,
      "▁Stadium": 6196,
      "2),": 6197,
      ";\"|": 6198,
      "wegian": 6199,
      "▁Creek": 6200,
      "▁agent": 6201,
      "▁Andrew": 6202,
      "▁losing": 6203,
      "atically": 6204,
      "▁Medicine": 6205,
      "▁Alexander": 6206,
      "▁weightlifter": 6207,
      "▁approximately": 6208,
      "7),": 6209,
      "anta": 6210,
      "door": 6211,
      "▁Dig": 6212,
      "▁Food": 6213,
      "▁Live": 6214,
      "▁gift": 6215,
      "▁rare": 6216,
      "anging": 6217,
      "▁earth": 6218,
      "▁wants": 6219,
      "▁Johann": 6220,
      "▁Taylor": 6221,
      "▁secret": 6222,
      "ifically": 6223,
      "▁maximum": 6224,
      "▁journalist": 6225,
      "ias": 6226,
      "▁IT": 6227,
      "ZZZZ": 6228,
      "edom": 6229,
      "▁11,": 6230,
      "▁Sea": 6231,
      "▁Walk": 6232,
      "▁jump": 6233,
      "▁Earth": 6234,
      "▁adapt": 6235,
      "▁femin": 6236,
      "▁stone": 6237,
      "▁Compet": 6238,
      "▁Nations": 6239,
      "▁YouTube": 6240,
      "▁committed": 6241,
      "obe": 6242,
      "emet": 6243,
      "onia": 6244,
      "▁17,": 6245,
      "esota": 6246,
      "▁trou": 6247,
      "▁shape": 6248,
      "ouncill": 6249,
      "▁Belgian": 6250,
      "▁applied": 6251,
      "▁marriage": 6252,
      "▁purchased": 6253,
      "▁restaurant": 6254,
      "ET": 6255,
      "enz": 6256,
      "▁20,": 6257,
      "▁Vice": 6258,
      "▁dial": 6259,
      "▁fram": 6260,
      "▁guide": 6261,
      "▁twice": 6262,
      "▁surrounding": 6263,
      ":#": 6264,
      "=\"18": 6265,
      "▁mis": 6266,
      "onent": 6267,
      "▁lock": 6268,
      "incial": 6269,
      "▁Laure": 6270,
      "▁issued": 6271,
      "unicipal": 6272,
      "▁claimed": 6273,
      "▁housing": 6274,
      "▁identity": 6275,
      "▁intended": 6276,
      "▁locations": 6277,
      "▁officials": 6278,
      "dr": 6279,
      "idae": 6280,
      "▁Cre": 6281,
      "▁Fac": 6282,
      "▁bag": 6283,
      "▁cup": 6284,
      "▁1965": 6285,
      "▁Circ": 6286,
      "▁sets": 6287,
      "▁tool": 6288,
      "▁Video": 6289,
      "▁ranked": 6290,
      "▁soccer": 6291,
      "▁Because": 6292,
      "▁feeling": 6293,
      "▁strategy": 6294,
      "▁Norwegian": 6295,
      "▁Revolution": 6296,
      "Ar": 6297,
      "aug": 6298,
      "▁Mas": 6299,
      "▁Sav": 6300,
      "▁Sel": 6301,
      "▁Only": 6302,
      "▁Liter": 6303,
      "vements": 6304,
      "▁Finnish": 6305,
      "▁factors": 6306,
      "▁typically": 6307,
      "▁environmental": 6308,
      "irt": 6309,
      "▁SS": 6310,
      "ello": 6311,
      "uses": 6312,
      "▁Equ": 6313,
      "▁tru": 6314,
      "osure": 6315,
      "▁1966": 6316,
      "▁calls": 6317,
      "▁trail": 6318,
      "emetery": 6319,
      "▁becomes": 6320,
      "▁guarant": 6321,
      "▁challenges": 6322,
      "▁scientists": 6323,
      "jo": 6324,
      "▁IS": 6325,
      "▁25,": 6326,
      "▁Dar": 6327,
      "▁ped": 6328,
      "▁Barb": 6329,
      "▁Mand": 6330,
      "▁samp": 6331,
      "▁divid": 6332,
      "▁Legisl": 6333,
      "▁coffee": 6334,
      "▁flight": 6335,
      "▁sharing": 6336,
      "▁unknown": 6337,
      "▁conducted": 6338,
      "▁secondary": 6339,
      "76": 6340,
      "▁IM": 6341,
      "bour": 6342,
      "▁Due": 6343,
      "▁Han": 6344,
      "stone": 6345,
      "▁1956": 6346,
      "▁1979": 6347,
      "▁Jeff": 6348,
      "▁baby": 6349,
      "▁plus": 6350,
      "▁rooms": 6351,
      "related": 6352,
      "▁Modern": 6353,
      "▁Ukraine": 6354,
      "▁Austrian": 6355,
      "▁agreement": 6356,
      "▁institutions": 6357,
      "ía": 6358,
      "▁Ky": 6359,
      "fall": 6360,
      "▁Fil": 6361,
      "▁die": 6362,
      "▁egg": 6363,
      "▁pros": 6364,
      "urches": 6365,
      "▁subst": 6366,
      "▁Miller": 6367,
      "▁devices": 6368,
      "elligence": 6369,
      "▁Minnesota": 6370,
      "count": 6371,
      "▁semi": 6372,
      "▁throw": 6373,
      "▁window": 6374,
      "▁Austria": 6375,
      "▁Product": 6376,
      "aki": 6377,
      "▁AN": 6378,
      "▁eye": 6379,
      "▁san": 6380,
      "▁Holy": 6381,
      "▁cycl": 6382,
      "▁Beach": 6383,
      "▁alone": 6384,
      "▁trees": 6385,
      "▁Anderson": 6386,
      "▁Children": 6387,
      "▁Victoria": 6388,
      "▁concerns": 6389,
      "▁exchange": 6390,
      "▁powerful": 6391,
      "▁consisted": 6392,
      "OU": 6393,
      "ür": 6394,
      "net": 6395,
      "ois": 6396,
      "rim": 6397,
      "unc": 6398,
      "zer": 6399,
      "▁il": 6400,
      "▁Orig": 6401,
      "▁Utah": 6402,
      "▁advantage": 6403,
      "▁scientific": 6404,
      "▁neighborhood": 6405,
      "▁CA": 6406,
      "▁ir": 6407,
      "heim": 6408,
      "▁30,": 6409,
      "▁CEO": 6410,
      "▁Fight": 6411,
      "▁Naval": 6412,
      "▁miles": 6413,
      "▁Colomb": 6414,
      "▁branch": 6415,
      "▁retire": 6416,
      "▁Security": 6417,
      "RI": 6418,
      "claim": 6419,
      "going": 6420,
      "▁Brad": 6421,
      "▁coal": 6422,
      "▁faith": 6423,
      "▁urban": 6424,
      "▁answer": 6425,
      "▁square": 6426,
      "▁evening": 6427,
      "▁founder": 6428,
      "▁Hampshire": 6429,
      "▁Engineering": 6430,
      "▁ly": 6431,
      "organ": 6432,
      "▁Hans": 6433,
      "▁Chile": 6434,
      "▁tracks": 6435,
      "bassador": 6436,
      "▁allowing": 6437,
      "▁recognized": 6438,
      "▁communication": 6439,
      "De": 6440,
      "ING": 6441,
      "▁Ku": 6442,
      "mary": 6443,
      "▁Bos": 6444,
      "▁tom": 6445,
      "▁prepar": 6446,
      "▁Turkish": 6447,
      "▁graduate": 6448,
      "▁Reception": 6449,
      "▁promotion": 6450,
      "coh": 6451,
      "osa": 6452,
      "▁Sn": 6453,
      "▁ap": 6454,
      "azon": 6455,
      "lock": 6456,
      "▁Kel": 6457,
      "▁matt": 6458,
      "▁guest": 6459,
      "▁Silver": 6460,
      "▁Wilson": 6461,
      "▁conclud": 6462,
      "▁invited": 6463,
      "▁monitor": 6464,
      "▁Memorial": 6465,
      "▁Williams": 6466,
      "aux": 6467,
      "agen": 6468,
      "▁Ira": 6469,
      "ounce": 6470,
      "stein": 6471,
      "▁edge": 6472,
      "rovers": 6473,
      "▁Hotel": 6474,
      "ecutive": 6475,
      "▁comput": 6476,
      "66": 6477,
      "An": 6478,
      "▁AP": 6479,
      "▁Ra": 6480,
      "▁Tax": 6481,
      "▁Tun": 6482,
      "andon": 6483,
      "chair": 6484,
      "▁Belg": 6485,
      "▁Youth": 6486,
      "▁heard": 6487,
      "▁Online": 6488,
      "▁Source": 6489,
      "▁claims": 6490,
      "▁payment": 6491,
      "▁arrested": 6492,
      "▁festival": 6493,
      "▁historic": 6494,
      "▁programming": 6495,
      "aga": 6496,
      "enez": 6497,
      "▁Kaz": 6498,
      "▁Trump": 6499,
      "▁solid": 6500,
      "▁Invest": 6501,
      "quarters": 6502,
      "▁Roberts": 6503,
      "▁profile": 6504,
      "oes": 6505,
      "ogy": 6506,
      "▁Lt": 6507,
      "▁Boy": 6508,
      "▁Rom": 6509,
      "▁unf": 6510,
      "etime": 6511,
      "worth": 6512,
      "▁Cork": 6513,
      "▁print": 6514,
      "▁Market": 6515,
      "▁favour": 6516,
      "▁thanks": 6517,
      "▁herself": 6518,
      "▁directors": 6519,
      "▁AT": 6520,
      "eral": 6521,
      "gers": 6522,
      "zona": 6523,
      "▁Non": 6524,
      "▁Way": 6525,
      "▁boat": 6526,
      "▁gain": 6527,
      "▁heat": 6528,
      "▁Ghana": 6529,
      "▁wonderful": 6530,
      "MA": 6531,
      "je": 6532,
      "ré": 6533,
      "ss": 6534,
      "rant": 6535,
      "found": 6536,
      "▁Pict": 6537,
      "▁2010,": 6538,
      "▁Deput": 6539,
      "▁ideal": 6540,
      "▁split": 6541,
      "▁Engineer": 6542,
      "▁maintain": 6543,
      "▁collaboration": 6544,
      "▁3:": 6545,
      "▁13,": 6546,
      "▁14,": 6547,
      "▁Tag": 6548,
      "▁Who": 6549,
      "▁Plot": 6550,
      "▁Labor": 6551,
      "▁generation": 6552,
      "▁ ": 6553,
      "Jean": 6554,
      "andy": 6555,
      "otic": 6556,
      "▁row": 6557,
      "icious": 6558,
      "▁2013.": 6559,
      "▁Steve": 6560,
      "▁defeat": 6561,
      "▁sevent": 6562,
      "▁testing": 6563,
      "▁confluence": 6564,
      "ache": 6565,
      "roud": 6566,
      "umin": 6567,
      "▁22,": 6568,
      "▁Ont": 6569,
      "▁Cape": 6570,
      "▁Nick": 6571,
      "▁coin": 6572,
      "▁dang": 6573,
      "atures": 6574,
      "▁Broad": 6575,
      "▁accur": 6576,
      "▁steel": 6577,
      "▁trend": 6578,
      "western": 6579,
      "▁conver": 6580,
      "▁happen": 6581,
      "▁starts": 6582,
      "▁update": 6583,
      "▁healthy": 6584,
      "▁learned": 6585,
      "▁policies": 6586,
      "78": 6587,
      "da": 6588,
      "uv": 6589,
      "▁Abd": 6590,
      "▁Run": 6591,
      "ected": 6592,
      "▁Marg": 6593,
      "▁Turn": 6594,
      "▁knew": 6595,
      "▁wine": 6596,
      "▁Spring": 6597,
      "▁disapp": 6598,
      "▁younger": 6599,
      "▁approved": 6600,
      "▁authorities": 6601,
      "ST": 6602,
      "1),": 6603,
      "owa": 6604,
      "olis": 6605,
      "onic": 6606,
      "▁Dom": 6607,
      "iable": 6608,
      "▁Ball": 6609,
      "▁manage": 6610,
      "▁Notable": 6611,
      "▁Indonesia": 6612,
      "▁processes": 6613,
      "▁properties": 6614,
      "lets": 6615,
      "iders": 6616,
      "lywood": 6617,
      "▁Agric": 6618,
      "▁spoke": 6619,
      "▁combination": 6620,
      "uct": 6621,
      "▁UN": 6622,
      "iary": 6623,
      "athan": 6624,
      "odies": 6625,
      "▁Brook": 6626,
      "▁sweet": 6627,
      "▁Turkey": 6628,
      "▁stress": 6629,
      "▁Harvard": 6630,
      "▁Environment": 6631,
      "▁partnership": 6632,
      "ulu": 6633,
      "▁36": 6634,
      "agues": 6635,
      "▁Bapt": 6636,
      "▁crime": 6637,
      "▁tells": 6638,
      "▁Global": 6639,
      "▁Defense": 6640,
      "▁interests": 6641,
      "▁paintings": 6642,
      "34": 6643,
      "▁Cra": 6644,
      "enger": 6645,
      "▁Draw": 6646,
      "▁2014.": 6647,
      "▁Simon": 6648,
      "▁agric": 6649,
      "▁meant": 6650,
      "▁Scient": 6651,
      "▁perman": 6652,
      "▁retail": 6653,
      "▁talent": 6654,
      "▁holiday": 6655,
      "▁coverage": 6656,
      "▁efficient": 6657,
      "79": 6658,
      "isa": 6659,
      "▁Full": 6660,
      "▁lots": 6661,
      "▁prize": 6662,
      "▁calling": 6663,
      "▁trained": 6664,
      "▁discount": 6665,
      "▁domestic": 6666,
      "▁performances": 6667,
      "word": 6668,
      "▁Ener": 6669,
      "▁kick": 6670,
      "istant": 6671,
      "▁confl": 6672,
      "▁rapid": 6673,
      "▁superv": 6674,
      "▁windows": 6675,
      "▁connected": 6676,
      "▁publication": 6677,
      "--": 6678,
      "cop": 6679,
      "idd": 6680,
      "stan": 6681,
      "▁Text": 6682,
      "▁auth": 6683,
      "▁bridge": 6684,
      "▁Toronto": 6685,
      "▁element": 6686,
      "▁reduced": 6687,
      "▁experiment": 6688,
      "RA": 6689,
      "amic": 6690,
      "omet": 6691,
      "▁Hay": 6692,
      "▁Tel": 6693,
      "▁Dave": 6694,
      "▁guns": 6695,
      "▁scoring": 6696,
      "▁medicine": 6697,
      "▁slightly": 6698,
      "▁prominent": 6699,
      "rastructure": 6700,
      "▁foundation": 6701,
      "▁participate": 6702,
      "▁mel": 6703,
      "ether": 6704,
      "▁1919": 6705,
      "▁Data": 6706,
      "▁Hind": 6707,
      "▁Pass": 6708,
      "▁eval": 6709,
      "▁poly": 6710,
      "▁tele": 6711,
      "ingham": 6712,
      "othing": 6713,
      "▁corner": 6714,
      "▁Arizona": 6715,
      "▁granted": 6716,
      "▁singers": 6717,
      "▁Athletic": 6718,
      "▁extremely": 6719,
      "▁practices": 6720,
      "▁assistance": 6721,
      "ih": 6722,
      "don": 6723,
      "ito": 6724,
      "oln": 6725,
      "▁Low": 6726,
      "▁Pur": 6727,
      "▁Wat": 6728,
      "abama": 6729,
      "eline": 6730,
      "▁Jane": 6731,
      "▁Make": 6732,
      "▁diagn": 6733,
      "▁Harris": 6734,
      "▁notable": 6735,
      "▁Magazine": 6736,
      "▁shipping": 6737,
      "▁Footballers": 6738,
      "OW": 6739,
      "cow": 6740,
      "inth": 6741,
      "▁BBC": 6742,
      "▁sty": 6743,
      "avior": 6744,
      "▁seed": 6745,
      "perial": 6746,
      "▁Click": 6747,
      "▁advoc": 6748,
      "▁notes": 6749,
      "▁fields": 6750,
      "▁secure": 6751,
      "▁Current": 6752,
      "▁Lawrence": 6753,
      "\"|": 6754,
      "vis": 6755,
      "▁Pu": 6756,
      "outs": 6757,
      "▁Bab": 6758,
      "▁Use": 6759,
      "▁1952": 6760,
      "▁1983": 6761,
      "▁Norm": 6762,
      "▁cris": 6763,
      "▁marg": 6764,
      "▁speak": 6765,
      "▁adding": 6766,
      "▁chosen": 6767,
      "▁deputy": 6768,
      "▁secretary": 6769,
      "▁appointment": 6770,
      "EC": 6771,
      "car": 6772,
      "ele": 6773,
      "oty": 6774,
      "top": 6775,
      "ulf": 6776,
      "▁Rh": 6777,
      "rier": 6778,
      "▁mir": 6779,
      "▁mut": 6780,
      "ancer": 6781,
      "▁1942": 6782,
      "▁Phot": 6783,
      "▁Rout": 6784,
      "▁iron": 6785,
      "▁poet": 6786,
      "▁spok": 6787,
      "▁files": 6788,
      "reprene": 6789,
      "▁garden": 6790,
      "▁notice": 6791,
      "▁sexual": 6792,
      "▁keeping": 6793,
      "▁promote": 6794,
      "▁western": 6795,
      "▁premiered": 6796,
      "▁ultimately": 6797,
      "▁appropriate": 6798,
      "pton": 6799,
      "uous": 6800,
      "▁Ray": 6801,
      "erves": 6802,
      "under": 6803,
      "▁Serb": 6804,
      "▁crow": 6805,
      "▁flav": 6806,
      "▁Start": 6807,
      "▁apart": 6808,
      "▁truly": 6809,
      "▁Marine": 6810,
      "▁inform": 6811,
      "▁Ontario": 6812,
      "▁Rivière": 6813,
      "▁drivers": 6814,
      "abilities": 6815,
      "▁territory": 6816,
      "nic": 6817,
      "▁Ho": 6818,
      "▁Cook": 6819,
      "▁(2018": 6820,
      "▁Range": 6821,
      "▁joint": 6822,
      "▁walls": 6823,
      "clusion": 6824,
      "▁elimin": 6825,
      "▁guests": 6826,
      "▁minute": 6827,
      "▁Section": 6828,
      "▁showing": 6829,
      "▁Nigerian": 6830,
      "▁Champions": 6831,
      "▁determine": 6832,
      "▁recognition": 6833,
      "iah": 6834,
      "▁Kl": 6835,
      "▁MS": 6836,
      "aret": 6837,
      "real": 6838,
      "▁Bon": 6839,
      "ospit": 6840,
      "▁Lind": 6841,
      "▁grad": 6842,
      "▁zone": 6843,
      "▁Among": 6844,
      "▁adult": 6845,
      "▁upper": 6846,
      "▁Fellow": 6847,
      "▁actual": 6848,
      "▁Iranian": 6849,
      "▁passion": 6850,
      "▁waiting": 6851,
      "▁certainly": 6852,
      "▁regularly": 6853,
      "sky": 6854,
      "▁Bow": 6855,
      "regon": 6856,
      "▁1945": 6857,
      "▁1978": 6858,
      "▁Local": 6859,
      "▁Venez": 6860,
      "▁smooth": 6861,
      "▁Information": 6862,
      "55": 6863,
      "▁Kr": 6864,
      "ilst": 6865,
      "▁Eth": 6866,
      "▁bul": 6867,
      "▁rot": 6868,
      "while": 6869,
      "▁Plat": 6870,
      "▁weap": 6871,
      "▁adults": 6872,
      "▁camera": 6873,
      "▁useful": 6874,
      "▁Alabama": 6875,
      "▁accident": 6876,
      "▁educated": 6877,
      "▁installed": 6878,
      "▁documentary": 6879,
      "33": 6880,
      "aren": 6881,
      "offs": 6882,
      "pool": 6883,
      "umes": 6884,
      "▁McG": 6885,
      "alled": 6886,
      "▁Cuba": 6887,
      "▁Hard": 6888,
      "▁Prof": 6889,
      "▁core": 6890,
      "ansion": 6891,
      "▁panel": 6892,
      "▁Islamic": 6893,
      "▁aspects": 6894,
      "▁finding": 6895,
      "▁happened": 6896,
      "▁referred": 6897,
      "▁visiting": 6898,
      "▁classical": 6899,
      "▁Ta": 6900,
      "arks": 6901,
      "icip": 6902,
      "ners": 6903,
      "▁Pin": 6904,
      "▁Wed": 6905,
      "olved": 6906,
      "▁1967": 6907,
      "▁Mill": 6908,
      "▁(2020": 6909,
      "▁Apost": 6910,
      "▁steps": 6911,
      "▁Associ": 6912,
      "▁Monday": 6913,
      "▁Rivers": 6914,
      "▁survey": 6915,
      "▁Players": 6916,
      "▁compete": 6917,
      "▁declared": 6918,
      "▁negative": 6919,
      "▁shopping": 6920,
      "▁Executive": 6921,
      "▁northeast": 6922,
      "▁standards": 6923,
      "▁Construction": 6924,
      "▁successfully": 6925,
      ":30": 6926,
      "ikh": 6927,
      "wing": 6928,
      "▁24,": 6929,
      "▁Pay": 6930,
      "▁1982": 6931,
      "▁wasn": 6932,
      "olitan": 6933,
      "▁yards": 6934,
      "▁Nigeria": 6935,
      "▁actions": 6936,
      "▁Building": 6937,
      "▁appearances": 6938,
      "▁representative": 6939,
      "ocol": 6940,
      "▁girls": 6941,
      "▁Mountains": 6942,
      "▁thousands": 6943,
      "▁;": 6944,
      "mad": 6945,
      "uls": 6946,
      "agon": 6947,
      "▁nut": 6948,
      "▁Jews": 6949,
      "▁domin": 6950,
      "▁rural": 6951,
      "▁Oregon": 6952,
      "▁config": 6953,
      "▁joining": 6954,
      "▁library": 6955,
      "▁founding": 6956,
      "▁membership": 6957,
      "kg": 6958,
      "▁7.": 6959,
      "thur": 6960,
      "▁Aud": 6961,
      "▁ban": 6962,
      "▁eat": 6963,
      "▁brain": 6964,
      "▁Author": 6965,
      "▁assign": 6966,
      "▁theatre": 6967,
      "▁affected": 6968,
      "▁Communist": 6969,
      "▁Entertain": 6970,
      "▁otherwise": 6971,
      "IV": 6972,
      "olec": 6973,
      "▁Ale": 6974,
      "▁Fun": 6975,
      "▁Naz": 6976,
      "▁cry": 6977,
      "asure": 6978,
      "iency": 6979,
      "▁datab": 6980,
      "▁Slovak": 6981,
      "▁income": 6982,
      "▁invent": 6983,
      "▁junior": 6984,
      "▁classic": 6985,
      "▁Selected": 6986,
      "▁interior": 6987,
      "▁requires": 6988,
      "▁Corporation": 6989,
      "chi": 6990,
      "ugg": 6991,
      "pass": 6992,
      "▁28,": 6993,
      "▁Jay": 6994,
      "▁PhD": 6995,
      "▁Anne": 6996,
      "▁Gree": 6997,
      "▁Have": 6998,
      "▁Iraq": 6999,
      "▁Mult": 7000,
      "▁Prim": 7001,
      "▁Wolf": 7002,
      "uccess": 7003,
      "▁adjust": 7004,
      "▁decide": 7005,
      "▁Between": 7006,
      "▁Honours": 7007,
      "▁Stephen": 7008,
      "▁updated": 7009,
      "▁Maryland": 7010,
      "▁photography": 7011,
      "TA": 7012,
      "alty": 7013,
      "▁Dor": 7014,
      "▁ing": 7015,
      "anges": 7016,
      "▁Cart": 7017,
      "▁fans": 7018,
      "active": 7019,
      "▁Check": 7020,
      "▁deleg": 7021,
      "▁faced": 7022,
      "▁recre": 7023,
      "▁scale": 7024,
      "▁novels": 7025,
      "▁adopted": 7026,
      "▁animals": 7027,
      "▁apartment": 7028,
      "▁cancelled": 7029,
      "▁emergency": 7030,
      "▁performing": 7031,
      "▁maintenance": 7032,
      "▁contributions": 7033,
      "ni": 7034,
      "▁8.": 7035,
      "▁NH": 7036,
      "rees": 7037,
      "rete": 7038,
      "▁Alf": 7039,
      "▁Nich": 7040,
      "▁jobs": 7041,
      "▁Lewis": 7042,
      "▁delay": 7043,
      "iration": 7044,
      "▁compar": 7045,
      "▁valley": 7046,
      "▁Bangladesh": 7047,
      "27": 7048,
      "▁Rog": 7049,
      "▁Sat": 7050,
      "estab": 7051,
      "▁Earl": 7052,
      "▁Take": 7053,
      "▁Verm": 7054,
      "▁2011,": 7055,
      "▁Colon": 7056,
      "▁dates": 7057,
      "▁nucle": 7058,
      "▁medium": 7059,
      "▁Captain": 7060,
      "▁opinion": 7061,
      "▁prepare": 7062,
      "▁protein": 7063,
      "▁ceremony": 7064,
      "▁equipped": 7065,
      "▁determined": 7066,
      "▁registered": 7067,
      "▁34": 7068,
      "▁pp": 7069,
      "lines": 7070,
      "▁1944": 7071,
      "▁1981": 7072,
      "▁Karl": 7073,
      "atever": 7074,
      "▁Officer": 7075,
      "▁bathroom": 7076,
      "▁composer": 7077,
      "▁prepared": 7078,
      "RO": 7079,
      "dis": 7080,
      "pes": 7081,
      "▁19,": 7082,
      "▁21,": 7083,
      "▁Beng": 7084,
      "▁Jord": 7085,
      "▁bass": 7086,
      "▁flat": 7087,
      "▁trib": 7088,
      "▁Teams": 7089,
      "▁recon": 7090,
      "▁somew": 7091,
      "▁Moscow": 7092,
      "▁volume": 7093,
      "igration": 7094,
      "▁figures": 7095,
      "▁actresses": 7096,
      "▁comfortable": 7097,
      "▁specifically": 7098,
      "pa": 7099,
      "oly": 7100,
      "abet": 7101,
      "atal": 7102,
      "body": 7103,
      "iner": 7104,
      "▁Bir": 7105,
      "enses": 7106,
      "▁impl": 7107,
      "▁Fleet": 7108,
      "▁Marsh": 7109,
      "▁Point": 7110,
      "▁Third": 7111,
      "▁fruit": 7112,
      "▁mayor": 7113,
      "▁yellow": 7114,
      "fficient": 7115,
      "▁Training": 7116,
      "▁representing": 7117,
      "DP": 7118,
      "▁Tu": 7119,
      "orge": 7120,
      "chant": 7121,
      "▁1918": 7122,
      "▁qual": 7123,
      "▁quant": 7124,
      "▁decades": 7125,
      "▁express": 7126,
      "▁tickets": 7127,
      "▁accommod": 7128,
      "▁cleaning": 7129,
      "▁soldiers": 7130,
      "▁Entertainment": 7131,
      "ogs": 7132,
      "▁(;": 7133,
      "icts": 7134,
      "ucks": 7135,
      "▁rul": 7136,
      "cohol": 7137,
      "ivals": 7138,
      "▁Zone": 7139,
      "orship": 7140,
      "▁Dougl": 7141,
      "▁craft": 7142,
      "▁opera": 7143,
      "▁lawyer": 7144,
      "▁mental": 7145,
      "▁experts": 7146,
      "▁musician": 7147,
      "▁distribution": 7148,
      "95": 7149,
      "spe": 7150,
      "otte": 7151,
      "▁27,": 7152,
      "▁ast": 7153,
      "cious": 7154,
      "▁1974": 7155,
      "▁Farm": 7156,
      "▁flex": 7157,
      "covery": 7158,
      "iation": 7159,
      "▁catch": 7160,
      "▁sustain": 7161,
      "▁highlight": 7162,
      "▁professionals": 7163,
      "cha": 7164,
      "▁SC": 7165,
      "apes": 7166,
      "cont": 7167,
      "▁Neb": 7168,
      "▁Str": 7169,
      "eless": 7170,
      "▁Lear": 7171,
      "▁height": 7172,
      "▁waters": 7173,
      "▁Country": 7174,
      "▁fiction": 7175,
      "▁patient": 7176,
      "▁possess": 7177,
      "▁changing": 7178,
      "▁commonly": 7179,
      "▁resigned": 7180,
      "▁Expatriate": 7181,
      "▁nomination": 7182,
      "▁recommended": 7183,
      "▁temperature": 7184,
      "▁participants": 7185,
      "SA": 7186,
      "phas": 7187,
      "then": 7188,
      "▁Hig": 7189,
      "merce": 7190,
      "▁Barn": 7191,
      "▁Prix": 7192,
      "orders": 7193,
      "▁Intel": 7194,
      "▁Number": 7195,
      "▁balance": 7196,
      "▁biggest": 7197,
      "▁selling": 7198,
      "▁Missouri": 7199,
      "▁finishing": 7200,
      "▁primarily": 7201,
      "▁investigation": 7202,
      "gi": 7203,
      "GBT": 7204,
      "aine": 7205,
      "–200": 7206,
      "▁rat": 7207,
      "▁1954": 7208,
      "▁infl": 7209,
      "▁Album": 7210,
      "▁cycle": 7211,
      "▁Amazon": 7212,
      "▁Pierre": 7213,
      "▁Senator": 7214,
      "▁Twitter": 7215,
      "▁reserve": 7216,
      "▁rivière": 7217,
      "▁CP": 7218,
      "▁Ten": 7219,
      "▁Tig": 7220,
      "▁kid": 7221,
      "▁Iowa": 7222,
      "▁ment": 7223,
      "▁trav": 7224,
      "▁relax": 7225,
      "▁storm": 7226,
      "▁Cooper": 7227,
      "▁Belgium": 7228,
      "▁painter": 7229,
      "▁Venezuel": 7230,
      "▁attorney": 7231,
      "▁brothers": 7232,
      "▁detailed": 7233,
      "▁photograph": 7234,
      "▁commissioned": 7235,
      "Al": 7236,
      "ju": 7237,
      "des": 7238,
      "king": 7239,
      "roid": 7240,
      "▁Kal": 7241,
      "▁Nag": 7242,
      "▁cru": 7243,
      "▁Lady": 7244,
      "▁eyes": 7245,
      "incoln": 7246,
      "▁agency": 7247,
      "▁reject": 7248,
      "iversary": 7249,
      "▁perhaps": 7250,
      "▁visitors": 7251,
      "▁collected": 7252,
      "onsin": 7253,
      "which": 7254,
      "▁(196": 7255,
      "▁Gram": 7256,
      "▁ends": 7257,
      "▁pump": 7258,
      "▁renov": 7259,
      "▁thank": 7260,
      "▁Energy": 7261,
      "▁Prince": 7262,
      "isconsin": 7263,
      "▁concert": 7264,
      "▁identify": 7265,
      "▁returning": 7266,
      "▁retirement": 7267,
      "-8": 7268,
      "▁Ka": 7269,
      "ails": 7270,
      "olas": 7271,
      "▁Gro": 7272,
      "▁Kos": 7273,
      "▁THE": 7274,
      "▁emp": 7275,
      "eries": 7276,
      "esome": 7277,
      "orrow": 7278,
      "▁debt": 7279,
      "▁leaf": 7280,
      "▁mist": 7281,
      "▁rise": 7282,
      "ective": 7283,
      "▁Friend": 7284,
      "▁compre": 7285,
      "▁bedroom": 7286,
      "inguished": 7287,
      "▁Egyptian": 7288,
      "▁alternative": 7289,
      "fr": 7290,
      "arp": 7291,
      "kes": 7292,
      "▁UC": 7293,
      "onds": 7294,
      "▁Dak": 7295,
      "▁Nep": 7296,
      "ourne": 7297,
      "▁Hart": 7298,
      "▁Plan": 7299,
      "▁Prom": 7300,
      "▁gone": 7301,
      "▁hall": 7302,
      "▁stuff": 7303,
      "▁Baptist": 7304,
      "▁internal": 7305,
      "▁Apostolic": 7306,
      "▁Commander": 7307,
      "▁29,": 7308,
      "▁amb": 7309,
      "oured": 7310,
      "▁LGBT": 7311,
      "▁calc": 7312,
      "▁Exhib": 7313,
      "▁Sound": 7314,
      "▁absol": 7315,
      "▁veget": 7316,
      "▁seeing": 7317,
      "▁unable": 7318,
      "▁Antonio": 7319,
      "▁holding": 7320,
      "▁regions": 7321,
      "▁programme": 7322,
      "▁controvers": 7323,
      "▁relationships": 7324,
      "▁constituencies": 7325,
      "auc": 7326,
      "enh": 7327,
      "▁Ve": 7328,
      "atar": 7329,
      "look": 7330,
      "▁Ped": 7331,
      "▁1973": 7332,
      "▁Ross": 7333,
      "▁Viet": 7334,
      "adelph": 7335,
      "▁Chall": 7336,
      "▁Exper": 7337,
      "▁inaug": 7338,
      "▁surpr": 7339,
      "chestra": 7340,
      "▁Sources": 7341,
      "▁coordin": 7342,
      "▁believed": 7343,
      "▁captured": 7344,
      "▁Mansfield": 7345,
      "▁associate": 7346,
      "▁responsibility": 7347,
      "32": 7348,
      "??": 7349,
      "edia": 7350,
      "hand": 7351,
      "▁Hur": 7352,
      "▁Las": 7353,
      "▁esc": 7354,
      "▁Adam": 7355,
      "▁Drag": 7356,
      "▁Space": 7357,
      "▁Douglas": 7358,
      "▁Perform": 7359,
      "▁defense": 7360,
      "▁criminal": 7361,
      "▁literary": 7362,
      "▁Geography": 7363,
      "▁estimated": 7364,
      "▁historian": 7365,
      "▁reception": 7366,
      "0)": 7367,
      "38": 7368,
      "hr": 7369,
      "▁ST": 7370,
      "▁mo": 7371,
      "▁Ott": 7372,
      "▁fro": 7373,
      "▁Area": 7374,
      "▁dream": 7375,
      "▁frame": 7376,
      "▁sides": 7377,
      "▁Norway": 7378,
      "▁filled": 7379,
      "▁colspan": 7380,
      "▁postpon": 7381,
      "▁Communic": 7382,
      "▁extensive": 7383,
      "▁parliamentary": 7384,
      "ovo": 7385,
      "▁Pra": 7386,
      "▁1963": 7387,
      "▁Fern": 7388,
      "▁sand": 7389,
      "estyle": 7390,
      "pected": 7391,
      "▁buried": 7392,
      "▁flower": 7393,
      "▁consequ": 7394,
      "▁measures": 7395,
      "▁relevant": 7396,
      "▁spending": 7397,
      "▁graduating": 7398,
      "▁importance": 7399,
      "▁AC": 7400,
      "▁AM": 7401,
      "avia": 7402,
      "ials": 7403,
      "yard": 7404,
      "▁Abb": 7405,
      "▁Eag": 7406,
      "▁Pas": 7407,
      "▁Sab": 7408,
      "▁Leon": 7409,
      "▁Marc": 7410,
      "▁2012.": 7411,
      "▁Thurs": 7412,
      "▁agree": 7413,
      "▁colors": 7414,
      "▁toward": 7415,
      "anguages": 7416,
      "▁accompl": 7417,
      "▁ancient": 7418,
      "▁Wisconsin": 7419,
      "46": 7420,
      "bell": 7421,
      "▁Mit": 7422,
      "▁tag": 7423,
      "imens": 7424,
      "▁phase": 7425,
      "▁animal": 7426,
      "▁Whether": 7427,
      "▁Alliance": 7428,
      "▁−": 7429,
      "lah": 7430,
      "lie": 7431,
      "lon": 7432,
      "▁AR": 7433,
      "▁Wy": 7434,
      "▁tor": 7435,
      "▁1936": 7436,
      "▁1969": 7437,
      "▁Shan": 7438,
      "▁mort": 7439,
      "▁thir": 7440,
      "▁tips": 7441,
      "ducing": 7442,
      "▁posts": 7443,
      "▁thick": 7444,
      "▁disband": 7445,
      "▁license": 7446,
      "▁tourism": 7447,
      "▁transition": 7448,
      "LC": 7449,
      "LS": 7450,
      "▁IB": 7451,
      "▁da": 7452,
      "▁23,": 7453,
      "▁Note": 7454,
      "▁Avenue": 7455,
      "▁Donald": 7456,
      "▁gather": 7457,
      "▁managers": 7458,
      "▁teachers": 7459,
      "OP": 7460,
      "▁Dh": 7461,
      "mith": 7462,
      "wich": 7463,
      "aints": 7464,
      "icals": 7465,
      "ailand": 7466,
      "▁sounds": 7467,
      "▁troops": 7468,
      "▁Argentina": 7469,
      "▁innovative": 7470,
      "37": 7471,
      "pm": 7472,
      "ui": 7473,
      "olo": 7474,
      "tes": 7475,
      "uri": 7476,
      "www": 7477,
      "▁45": 7478,
      "▁Rab": 7479,
      "itled": 7480,
      "level": 7481,
      "▁(192": 7482,
      "▁Find": 7483,
      "▁Look": 7484,
      "▁Soft": 7485,
      "▁arms": 7486,
      "wealth": 7487,
      "▁Honor": 7488,
      "▁equal": 7489,
      "▁renew": 7490,
      "▁valid": 7491,
      "ogether": 7492,
      "▁agreed": 7493,
      "▁divers": 7494,
      "▁looked": 7495,
      "▁metres": 7496,
      "▁remove": 7497,
      "▁Culture": 7498,
      "istration": 7499,
      "▁exercise": 7500,
      "▁corporate": 7501,
      "awn": 7502,
      "fast": 7503,
      "orph": 7504,
      "rait": 7505,
      "▁Ltd": 7506,
      "▁fra": 7507,
      "rator": 7508,
      "uable": 7509,
      "▁1939": 7510,
      "▁Chen": 7511,
      "▁mart": 7512,
      "▁Prior": 7513,
      "▁Sarah": 7514,
      "▁Freder": 7515,
      "▁Wednes": 7516,
      "▁begins": 7517,
      "▁franch": 7518,
      "adelphia": 7519,
      "▁divided": 7520,
      "▁witness": 7521,
      "▁entrance": 7522,
      "▁partners": 7523,
      "▁versions": 7524,
      "▁Architect": 7525,
      "▁reference": 7526,
      "▁cricketers": 7527,
      "▁Administration": 7528,
      "vy": 7529,
      "oba": 7530,
      "▁EU": 7531,
      "arma": 7532,
      "elle": 7533,
      "▁10.": 7534,
      "opped": 7535,
      "▁Mach": 7536,
      "▁tend": 7537,
      "▁Andre": 7538,
      "▁Singh": 7539,
      "▁flood": 7540,
      "▁Bishop": 7541,
      "▁Manche": 7542,
      "▁Method": 7543,
      "▁conven": 7544,
      "▁covers": 7545,
      "▁fought": 7546,
      "▁rating": 7547,
      "▁Singles": 7548,
      "▁dropped": 7549,
      "▁hearing": 7550,
      "▁occasion": 7551,
      "▁shooting": 7552,
      "▁adventure": 7553,
      "zo": 7554,
      "▁au": 7555,
      "anne": 7556,
      "ivia": 7557,
      "mosp": 7558,
      "unct": 7559,
      "hetic": 7560,
      "ighth": 7561,
      "▁1943": 7562,
      "▁Mars": 7563,
      "▁proud": 7564,
      "▁waste": 7565,
      "▁bright": 7566,
      "▁speech": 7567,
      "▁Digital": 7568,
      "▁Lincoln": 7569,
      "▁defined": 7570,
      "▁Kentucky": 7571,
      "▁functions": 7572,
      "▁furniture": 7573,
      "aked": 7574,
      "fers": 7575,
      "long": 7576,
      "▁Ban": 7577,
      "▁Wel": 7578,
      "iliar": 7579,
      "▁1900": 7580,
      "▁1928": 7581,
      "▁rear": 7582,
      "▁ride": 7583,
      "▁surg": 7584,
      "person": 7585,
      "▁Paint": 7586,
      "▁raise": 7587,
      "▁reput": 7588,
      "▁arrang": 7589,
      "▁depend": 7590,
      "▁formal": 7591,
      "▁organis": 7592,
      "▁stating": 7593,
      "▁accounts": 7594,
      "▁announce": 7595,
      "▁occurred": 7596,
      "▁violence": 7597,
      "▁delivered": 7598,
      "▁resulting": 7599,
      "▁residential": 7600,
      "fe": 7601,
      "ads": 7602,
      "▁--": 7603,
      "▁48": 7604,
      "racy": 7605,
      "▁26,": 7606,
      "▁Six": 7607,
      "color": 7608,
      "ework": 7609,
      "night": 7610,
      "point": 7611,
      "▁Anna": 7612,
      "▁Fell": 7613,
      "▁Fine": 7614,
      "▁Race": 7615,
      "▁teen": 7616,
      "▁negot": 7617,
      "▁column": 7618,
      "▁causing": 7619,
      "▁Thailand": 7620,
      "▁competitive": 7621,
      "▁description": 7622,
      "▁technologies": 7623,
      "Sh": 7624,
      "oga": 7625,
      "osh": 7626,
      "rum": 7627,
      "▁Ni": 7628,
      "adow": 7629,
      "iami": 7630,
      "▁Ast": 7631,
      "▁Bah": 7632,
      "▁mil": 7633,
      "▁spr": 7634,
      "andom": 7635,
      "▁José": 7636,
      "▁Upon": 7637,
      "▁sons": 7638,
      "aments": 7639,
      "▁2008,": 7640,
      "▁rugby": 7641,
      "▁Deputy": 7642,
      "▁Michel": 7643,
      "▁circum": 7644,
      "▁praised": 7645,
      "▁resulted": 7646,
      "▁suffered": 7647,
      "po": 7648,
      "▁Ye": 7649,
      "iley": 7650,
      "osal": 7651,
      "ownt": 7652,
      "▁Dur": 7653,
      "▁Ide": 7654,
      "▁Mang": 7655,
      "▁Wang": 7656,
      "▁fill": 7657,
      "profit": 7658,
      "▁sympt": 7659,
      "▁Morgan": 7660,
      "▁campus": 7661,
      "▁Classic": 7662,
      "▁Hungarian": 7663,
      "94": 7664,
      "én": 7665,
      "és": 7666,
      "▁Fox": 7667,
      "▁Yes": 7668,
      "▁Room": 7669,
      "▁Chess": 7670,
      "▁Saudi": 7671,
      "▁audio": 7672,
      "▁haven": 7673,
      "▁Forces": 7674,
      "▁stores": 7675,
      "▁titles": 7676,
      "▁Vermont": 7677,
      "▁welcome": 7678,
      "▁comments": 7679,
      "▁distinct": 7680,
      "▁infrastructure": 7681,
      "EM": 7682,
      "uma": 7683,
      "▁CS": 7684,
      "▁Pa": 7685,
      "▁id": 7686,
      "bles": 7687,
      "▁120": 7688,
      "▁Uye": 7689,
      "ateur": 7690,
      "urers": 7691,
      "▁Conf": 7692,
      "inners": 7693,
      "▁hired": 7694,
      "▁stood": 7695,
      "▁Vienna": 7696,
      "▁facing": 7697,
      "▁ingred": 7698,
      "▁values": 7699,
      "▁installation": 7700,
      "▁Parliamentary": 7701,
      "aire": 7702,
      "▁Cou": 7703,
      "▁Gab": 7704,
      "▁god": 7705,
      "▁unc": 7706,
      "▁1977": 7707,
      "▁Greg": 7708,
      "▁Maur": 7709,
      "▁item": 7710,
      "▁2019)": 7711,
      "▁Arthur": 7712,
      "▁Doctor": 7713,
      "▁widely": 7714,
      "▁markets": 7715,
      "▁walking": 7716,
      "▁Thursday": 7717,
      "▁supports": 7718,
      "36": 7719,
      "zi": 7720,
      "ped": 7721,
      "▁Ja": 7722,
      "ista": 7723,
      "▁Hal": 7724,
      "▁Rio": 7725,
      "▁Chem": 7726,
      "▁Dall": 7727,
      "▁elig": 7728,
      "shaped": 7729,
      "▁2005,": 7730,
      "▁Miami": 7731,
      "▁Trade": 7732,
      "▁guard": 7733,
      "▁mining": 7734,
      "election": 7735,
      "▁injured": 7736,
      "▁Commonwealth": 7737,
      "▁automatically": 7738,
      "77": 7739,
      "▁Box": 7740,
      "▁Kur": 7741,
      "▁Bras": 7742,
      "▁Rank": 7743,
      "▁Shah": 7744,
      "▁diet": 7745,
      "▁Allen": 7746,
      "▁Armen": 7747,
      "▁Mayor": 7748,
      "▁optim": 7749,
      "▁teach": 7750,
      "ocation": 7751,
      "▁medals": 7752,
      "▁charges": 7753,
      "▁Cultural": 7754,
      "▁authority": 7755,
      "▁suggested": 7756,
      "▁frequently": 7757,
      "CH": 7758,
      "uez": 7759,
      "▁Ot": 7760,
      "comm": 7761,
      "▁Vin": 7762,
      "▁View": 7763,
      "▁Domin": 7764,
      "▁depth": 7765,
      "▁maybe": 7766,
      "▁veter": 7767,
      "▁voted": 7768,
      "hensive": 7769,
      "▁Temple": 7770,
      "▁handle": 7771,
      "▁undert": 7772,
      "▁offices": 7773,
      "▁expanded": 7774,
      "▁Collection": 7775,
      "▁contributed": 7776,
      "run": 7777,
      "▁NY": 7778,
      "▁Zh": 7779,
      "▁Lam": 7780,
      "▁roy": 7781,
      "idden": 7782,
      "▁Tues": 7783,
      "ensity": 7784,
      "▁leads": 7785,
      "cluding": 7786,
      "▁Greece": 7787,
      "▁Player": 7788,
      "▁minimum": 7789,
      "▁protest": 7790,
      "▁seeking": 7791,
      "ropolitan": 7792,
      "▁behavior": 7793,
      "▁councill": 7794,
      "▁Manchester": 7795,
      "▁Legislative": 7796,
      "▁Philadelphia": 7797,
      "31": 7798,
      "GA": 7799,
      "OL": 7800,
      "lem": 7801,
      "rik": 7802,
      "ski": 7803,
      "▁ic": 7804,
      "hent": 7805,
      "inks": 7806,
      "▁Kat": 7807,
      "▁nob": 7808,
      "▁Pack": 7809,
      "▁tail": 7810,
      "▁2011.": 7811,
      "▁Alber": 7812,
      "▁chain": 7813,
      "▁drawn": 7814,
      "▁brings": 7815,
      "▁Chamber": 7816,
      "▁Malaysia": 7817,
      "▁possibly": 7818,
      "▁rebounds": 7819,
      "▁destroyed": 7820,
      "arry": 7821,
      "▁DNA": 7822,
      "▁Kev": 7823,
      "▁Sym": 7824,
      "▁Ford": 7825,
      "▁Next": 7826,
      "▁burn": 7827,
      "▁heav": 7828,
      "▁lose": 7829,
      "▁2023.": 7830,
      "▁Small": 7831,
      "▁alcohol": 7832,
      "▁captain": 7833,
      "▁settled": 7834,
      "▁fighting": 7835,
      "▁standing": 7836,
      "/20": 7837,
      "▁2:": 7838,
      "▁Bat": 7839,
      "▁Kon": 7840,
      "▁flu": 7841,
      "icial": 7842,
      "▁1924": 7843,
      "▁Prin": 7844,
      "lahoma": 7845,
      "▁Table": 7846,
      "▁Bridge": 7847,
      "▁server": 7848,
      "▁wealth": 7849,
      "hematics": 7850,
      "▁employment": 7851,
      "▁manufacturer": 7852,
      "”,": 7853,
      "-10": 7854,
      "▁Na": 7855,
      "▁od": 7856,
      "ante": 7857,
      "osph": 7858,
      "▁Alp": 7859,
      "▁Bou": 7860,
      "▁Lib": 7861,
      "▁Nob": 7862,
      "▁era": 7863,
      "icken": 7864,
      "▁fold": 7865,
      "▁kill": 7866,
      "▁magn": 7867,
      "▁plot": 7868,
      "▁Based": 7869,
      "▁Diego": 7870,
      "▁pilot": 7871,
      "▁subsc": 7872,
      "viously": 7873,
      "▁papers": 7874,
      "▁poetry": 7875,
      "▁battery": 7876,
      "▁clinical": 7877,
      "▁delivery": 7878,
      "▁entering": 7879,
      "▁suitable": 7880,
      "▁decisions": 7881,
      "▁philosophy": 7882,
      "▁researchers": 7883,
      "bar": 7884,
      "▁AS": 7885,
      "▁Od": 7886,
      "ardo": 7887,
      "rated": 7888,
      "▁1961": 7889,
      "▁1962": 7890,
      "▁Whit": 7891,
      "▁laid": 7892,
      "▁mode": 7893,
      "▁tack": 7894,
      "▁warn": 7895,
      "▁chose": 7896,
      "▁tower": 7897,
      "resents": 7898,
      "▁forget": 7899,
      "▁talking": 7900,
      "▁visited": 7901,
      "▁household": 7902,
      "▁resistance": 7903,
      "▁Independent": 7904,
      "Cl": 7905,
      "Se": 7906,
      "Pro": 7907,
      "agh": 7908,
      "jan": 7909,
      "▁ju": 7910,
      "isms": 7911,
      "star": 7912,
      "▁lux": 7913,
      "itime": 7914,
      "▁Cond": 7915,
      "▁duty": 7916,
      "▁Jordan": 7917,
      "▁broken": 7918,
      "▁emphas": 7919,
      "▁marked": 7920,
      "▁alleged": 7921,
      "▁Chairman": 7922,
      "▁Exchange": 7923,
      "▁instrument": 7924,
      "▁nominations": 7925,
      "DA": 7926,
      "ls": 7927,
      "=12": 7928,
      "cies": 7929,
      "▁300": 7930,
      "▁Gon": 7931,
      "▁Rub": 7932,
      "▁nom": 7933,
      "final": 7934,
      "▁Male": 7935,
      "▁synt": 7936,
      "bourne": 7937,
      "▁Sever": 7938,
      "▁truth": 7939,
      "▁Morris": 7940,
      "▁caught": 7941,
      "▁causes": 7942,
      "▁orders": 7943,
      "▁spaces": 7944,
      "▁Fellows": 7945,
      "▁Israeli": 7946,
      "▁charged": 7947,
      "▁degrees": 7948,
      "▁seconds": 7949,
      "▁churches": 7950,
      "▁studying": 7951,
      "ographical": 7952,
      "▁participation": 7953,
      "New": 7954,
      "▁IP": 7955,
      "elli": 7956,
      "▁aid": 7957,
      "▁flo": 7958,
      "▁Unit": 7959,
      "▁aged": 7960,
      "▁Creat": 7961,
      "▁illeg": 7962,
      "▁casino": 7963,
      "▁cooper": 7964,
      "▁fabric": 7965,
      "▁obtain": 7966,
      "▁switch": 7967,
      "▁tribut": 7968,
      "▁weekly": 7969,
      "itations": 7970,
      "▁Private": 7971,
      "▁Bachelor": 7972,
      "▁Cemetery": 7973,
      "▁Oklahoma": 7974,
      "▁contrast": 7975,
      "▁commitment": 7976,
      "oa": 7977,
      "bin": 7978,
      "free": 7979,
      "▁Nik": 7980,
      "ouses": 7981,
      "▁Cert": 7982,
      "▁rein": 7983,
      "▁Mixed": 7984,
      "leyball": 7985,
      "▁combat": 7986,
      "▁Artists": 7987,
      "▁attacks": 7988,
      "▁explore": 7989,
      "▁victims": 7990,
      "▁examples": 7991,
      "▁settings": 7992,
      "▁Louisiana": 7993,
      "▁northwest": 7994,
      "▁Ay": 7995,
      "▁tie": 7996,
      "white": 7997,
      "▁1959": 7998,
      "▁Story": 7999,
      "▁Uyezd": 8000,
      "▁crowd": 8001,
      "▁flows": 8002,
      "▁vocal": 8003,
      "▁Charts": 8004,
      "▁Contin": 8005,
      "▁Tigers": 8006,
      "▁dating": 8007,
      "▁ending": 8008,
      "▁intern": 8009,
      "▁disbanded": 8010,
      "',": 8011,
      "98": 8012,
      "bal": 8013,
      "hol": 8014,
      "▁CN": 8015,
      "ando": 8016,
      "anim": 8017,
      "▁mail": 8018,
      "▁2009,": 8019,
      "▁Stage": 8020,
      "▁lists": 8021,
      "▁topic": 8022,
      "▁dinner": 8023,
      "▁incred": 8024,
      "▁arrival": 8025,
      "▁athletes": 8026,
      "▁entirely": 8027,
      "▁Wednesday": 8028,
      "▁languages": 8029,
      "▁processing": 8030,
      "▁organisation": 8031,
      "100": 8032,
      "bra": 8033,
      "fts": 8034,
      "iya": 8035,
      "▁Kam": 8036,
      "▁Maj": 8037,
      "▁ele": 8038,
      "ricts": 8039,
      "▁acts": 8040,
      "▁aren": 8041,
      "▁isol": 8042,
      "▁finds": 8043,
      "▁grass": 8044,
      "▁stick": 8045,
      "▁button": 8046,
      "▁narrow": 8047,
      "inations": 8048,
      "▁Mission": 8049,
      "▁Studios": 8050,
      "▁letters": 8051,
      "▁shortly": 8052,
      "▁Atlantic": 8053,
      "▁bringing": 8054,
      "▁extension": 8055,
      "▁engagement": 8056,
      "▁represents": 8057,
      "▁composition": 8058,
      "▁manufacturing": 8059,
      "km": 8060,
      "ushed": 8061,
      "▁Balt": 8062,
      "▁Front": 8063,
      "▁Racing": 8064,
      "▁couldn": 8065,
      "▁gender": 8066,
      "▁Writers": 8067,
      "▁websites": 8068,
      "▁Athletics": 8069,
      "▁Buildings": 8070,
      "▁qualifying": 8071,
      "pson": 8072,
      "ture": 8073,
      "▁Pun": 8074,
      "▁ord": 8075,
      "▁ton": 8076,
      "Saint": 8077,
      "▁bomb": 8078,
      "▁push": 8079,
      "▁Where": 8080,
      "▁chest": 8081,
      "▁buying": 8082,
      "▁marine": 8083,
      "▁Anthony": 8084,
      "▁engaged": 8085,
      "▁activist": 8086,
      "ortunately": 8087,
      "▁worldwide": 8088,
      "EE": 8089,
      "RC": 8090,
      "lier": 8091,
      "mail": 8092,
      "▁Fat": 8093,
      "▁bon": 8094,
      "angel": 8095,
      "sters": 8096,
      "▁1971": 8097,
      "▁Burn": 8098,
      "▁Conc": 8099,
      "▁Copa": 8100,
      "▁Bible": 8101,
      "▁Harry": 8102,
      "▁colle": 8103,
      "▁decre": 8104,
      "▁depos": 8105,
      "▁brands": 8106,
      "▁deploy": 8107,
      "▁topics": 8108,
      "▁abandon": 8109,
      "▁parking": 8110,
      "▁crossing": 8111,
      "▁permanent": 8112,
      "▁protected": 8113,
      "bat": 8114,
      "ión": 8115,
      "lad": 8116,
      "acle": 8117,
      "▁Dub": 8118,
      "▁Lad": 8119,
      "raska": 8120,
      "▁Mean": 8121,
      "▁Trad": 8122,
      "▁golf": 8123,
      "ocracy": 8124,
      "▁Moroc": 8125,
      "▁Psych": 8126,
      "▁chess": 8127,
      "▁steam": 8128,
      "ocument": 8129,
      "▁atmosp": 8130,
      "▁manner": 8131,
      "▁Alexand": 8132,
      "▁Control": 8133,
      "▁Cricket": 8134,
      "▁putting": 8135,
      "▁incident": 8136,
      "▁formation": 8137,
      "▁practical": 8138,
      "▁recordings": 8139,
      "▁resolution": 8140,
      "iva": 8141,
      "▁38": 8142,
      "▁Ko": 8143,
      "▁NE": 8144,
      "▁Say": 8145,
      "▁ear": 8146,
      "acent": 8147,
      "ensed": 8148,
      "grade": 8149,
      "owned": 8150,
      "▁subs": 8151,
      "orough": 8152,
      "▁sixth": 8153,
      "▁justice": 8154,
      "▁improved": 8155,
      "▁meetings": 8156,
      "▁headquarters": 8157,
      "-7": 8158,
      "RS": 8159,
      "appy": 8160,
      "icut": 8161,
      "pret": 8162,
      "▁178": 8163,
      "▁sac": 8164,
      "attan": 8165,
      "mouth": 8166,
      "▁1947": 8167,
      "▁Cred": 8168,
      "▁fest": 8169,
      "▁Girls": 8170,
      "▁Liver": 8171,
      "▁grade": 8172,
      "▁knows": 8173,
      "▁pregn": 8174,
      "▁races": 8175,
      "▁Channel": 8176,
      "▁chapter": 8177,
      "▁eastern": 8178,
      "▁illness": 8179,
      "▁singing": 8180,
      "▁Economic": 8181,
      "▁relatively": 8182,
      "▁effectively": 8183,
      "TS": 8184,
      "uis": 8185,
      "▁Op": 8186,
      "asks": 8187,
      "–202": 8188,
      "▁Ald": 8189,
      "▁Cru": 8190,
      "▁Cub": 8191,
      "▁Dol": 8192,
      "▁Nar": 8193,
      "▁Set": 8194,
      "▁bes": 8195,
      "▁sud": 8196,
      "verse": 8197,
      "▁Gard": 8198,
      "▁Gran": 8199,
      "▁Chart": 8200,
      "▁Dallas": 8201,
      "▁motion": 8202,
      "▁plenty": 8203,
      "▁Release": 8204,
      "▁assists": 8205,
      "▁context": 8206,
      "▁enjoyed": 8207,
      "▁ranking": 8208,
      "▁achieved": 8209,
      "▁residence": 8210,
      "▁succeeded": 8211,
      "▁entreprene": 8212,
      "▁Additionally": 8213,
      "▁presidential": 8214,
      "39": 8215,
      "eri": 8216,
      "gov": 8217,
      "oni": 8218,
      "▁1:": 8219,
      "▁Pad": 8220,
      "endar": 8221,
      "idges": 8222,
      "▁Salv": 8223,
      "▁Word": 8224,
      "▁adap": 8225,
      "▁hero": 8226,
      "▁ring": 8227,
      "▁Tunis": 8228,
      "▁broke": 8229,
      "▁deals": 8230,
      "▁liber": 8231,
      "▁clearly": 8232,
      "▁gallery": 8233,
      "▁Nebraska": 8234,
      "▁Romanian": 8235,
      "▁artistic": 8236,
      "▁landscape": 8237,
      "▁journalists": 8238,
      "▁entertainment": 8239,
      "hus": 8240,
      "▁tun": 8241,
      "utely": 8242,
      "▁1957": 8243,
      "▁liqu": 8244,
      "▁wins": 8245,
      "▁Camer": 8246,
      "▁Clean": 8247,
      "mediate": 8248,
      "▁Studio": 8249,
      "BI": 8250,
      "MC": 8251,
      "xi": 8252,
      "-12": 8253,
      "lig": 8254,
      "ups": 8255,
      "▁Has": 8256,
      "anned": 8257,
      "▁Emer": 8258,
      "▁fear": 8259,
      "▁wire": 8260,
      "annels": 8261,
      "▁Stone": 8262,
      "▁climb": 8263,
      "▁cloud": 8264,
      "▁Kazakh": 8265,
      "▁Policy": 8266,
      "▁rivers": 8267,
      "▁journals": 8268,
      "▁symptoms": 8269,
      "▁expensive": 8270,
      "▁regulations": 8271,
      "49": 8272,
      "ME": 8273,
      "aza": 8274,
      "lan": 8275,
      "oda": 8276,
      "sis": 8277,
      "elve": 8278,
      "oker": 8279,
      "otal": 8280,
      "▁Got": 8281,
      "▁Ice": 8282,
      "▁tur": 8283,
      "▁wet": 8284,
      "owder": 8285,
      "▁anth": 8286,
      "▁impr": 8287,
      "ussels": 8288,
      "▁2009.": 8289,
      "▁Nepal": 8290,
      "▁crown": 8291,
      "graduate": 8292,
      "▁database": 8293,
      "▁confidence": 8294,
      "▁inspiration": 8295,
      "▁municipality": 8296,
      "▁establishment": 8297,
      "72": 8298,
      "Lac": 8299,
      "adi": 8300,
      "▁Dra": 8301,
      "▁swe": 8302,
      "elson": 8303,
      "ilton": 8304,
      "▁1926": 8305,
      "▁Anti": 8306,
      "▁Epis": 8307,
      "▁Rang": 8308,
      "▁forg": 8309,
      "▁schem": 8310,
      "▁Queens": 8311,
      "▁whilst": 8312,
      "▁passing": 8313,
      "▁birthday": 8314,
      "▁villages": 8315,
      "▁Artillery": 8316,
      "▁franchise": 8317,
      "▁advertising": 8318,
      "eman": 8319,
      "irus": 8320,
      "▁Fal": 8321,
      "▁Gas": 8322,
      "▁Kan": 8323,
      "▁Roc": 8324,
      "▁Know": 8325,
      "▁diam": 8326,
      "▁hist": 8327,
      "▁mine": 8328,
      "▁About": 8329,
      "ivalent": 8330,
      "▁Albert": 8331,
      "▁Square": 8332,
      "▁sought": 8333,
      "▁sudden": 8334,
      "▁twenty": 8335,
      "▁capture": 8336,
      "▁excited": 8337,
      "▁provider": 8338,
      "▁upcoming": 8339,
      "▁opposition": 8340,
      "▁constructed": 8341,
      "dc": 8342,
      "eler": 8343,
      "othe": 8344,
      "▁Ron": 8345,
      "clair": 8346,
      "▁(191": 8347,
      "▁Plus": 8348,
      "▁celeb": 8349,
      "▁Austin": 8350,
      "▁Constit": 8351,
      "▁outdoor": 8352,
      "▁virtual": 8353,
      "▁Aviation": 8354,
      "▁Download": 8355,
      "▁accompan": 8356,
      "▁Connecticut": 8357,
      "▁Hug": 8358,
      "▁Hus": 8359,
      "▁Vas": 8360,
      "▁fil": 8361,
      "othes": 8362,
      "ureau": 8363,
      "▁1949": 8364,
      "▁Anim": 8365,
      "▁ward": 8366,
      "▁Apple": 8367,
      "ropical": 8368,
      "▁crisis": 8369,
      "▁outlet": 8370,
      "▁roster": 8371,
      "▁thread": 8372,
      "▁Brother": 8373,
      "▁Instead": 8374,
      "▁focuses": 8375,
      "▁recover": 8376,
      "▁employed": 8377,
      "▁romantic": 8378,
      "▁starring": 8379,
      "▁Wrestling": 8380,
      "▁anniversary": 8381,
      "AF": 8382,
      "wid": 8383,
      "-01\"": 8384,
      "000.": 8385,
      "rama": 8386,
      "uese": 8387,
      "vens": 8388,
      "▁Bru": 8389,
      "▁ster": 8390,
      "father": 8391,
      "▁Kevin": 8392,
      "▁uncle": 8393,
      "▁Castle": 8394,
      "▁Schools": 8395,
      "▁Several": 8396,
      "▁attached": 8397,
      "erg": 8398,
      "▁Ow": 8399,
      "cest": 8400,
      "iche": 8401,
      "iere": 8402,
      "omer": 8403,
      "oria": 8404,
      "▁Mrs": 8405,
      "▁Pit": 8406,
      "▁Cinc": 8407,
      "▁Hope": 8408,
      "▁enem": 8409,
      "▁suit": 8410,
      "enberg": 8411,
      "▁2007,": 8412,
      "▁cheap": 8413,
      "▁goalk": 8414,
      "▁horse": 8415,
      "owntown": 8416,
      "▁Spirit": 8417,
      "▁Walter": 8418,
      "▁charts": 8419,
      "▁willing": 8420,
      "▁Imperial": 8421,
      "▁assisted": 8422,
      "▁existence": 8423,
      "▁involving": 8424,
      "▁controlled": 8425,
      "▁collections": 8426,
      "96": 8427,
      "BB": 8428,
      "▁…": 8429,
      "lee": 8430,
      "▁FA": 8431,
      "erts": 8432,
      "otes": 8433,
      "race": 8434,
      "aired": 8435,
      "▁Para": 8436,
      "▁shut": 8437,
      "▁Rugby": 8438,
      "▁Syria": 8439,
      "▁filed": 8440,
      "▁medic": 8441,
      "▁decade": 8442,
      "▁lovely": 8443,
      "▁Frances": 8444,
      "▁critics": 8445,
      "▁factory": 8446,
      "▁objects": 8447,
      "▁Champion": 8448,
      "▁attempts": 8449,
      "▁circumst": 8450,
      "▁greatest": 8451,
      "▁perspective": 8452,
      "▁replacement": 8453,
      "▁comprehensive": 8454,
      "2%": 8455,
      "47": 8456,
      "di": 8457,
      "iki": 8458,
      "nia": 8459,
      "rate": 8460,
      "▁Oak": 8461,
      "▁hur": 8462,
      "▁mob": 8463,
      "▁mos": 8464,
      "ensis": 8465,
      "erman": 8466,
      "ourse": 8467,
      "▁1958": 8468,
      "▁Pont": 8469,
      "▁Rest": 8470,
      "▁fulf": 8471,
      "▁Schol": 8472,
      "▁aired": 8473,
      "▁regul": 8474,
      "▁judges": 8475,
      "▁submit": 8476,
      "December": 8477,
      "▁Atlanta": 8478,
      "▁forming": 8479,
      "▁Margaret": 8480,
      "▁Lieutenant": 8481,
      "▁restaurants": 8482,
      "DF": 8483,
      "III": 8484,
      "▁MA": 8485,
      "▁Om": 8486,
      "aded": 8487,
      "rell": 8488,
      "sect": 8489,
      "▁Alb": 8490,
      "▁Cho": 8491,
      "▁Ext": 8492,
      "▁Put": 8493,
      "▁Rud": 8494,
      "▁nor": 8495,
      "▁legs": 8496,
      "▁grown": 8497,
      "ificate": 8498,
      "▁Philos": 8499,
      "▁aggreg": 8500,
      "▁dining": 8501,
      "▁Tuesday": 8502,
      "▁failure": 8503,
      "▁Wildlife": 8504,
      "▁postponed": 8505,
      "'.": 8506,
      "You": 8507,
      "erk": 8508,
      "omy": 8509,
      "▁SP": 8510,
      "burn": 8511,
      "omes": 8512,
      "wick": 8513,
      "▁Dal": 8514,
      "▁Kum": 8515,
      "abled": 8516,
      "▁Cher": 8517,
      "▁Test": 8518,
      "▁cant": 8519,
      "▁dump": 8520,
      "▁soul": 8521,
      "▁Marie": 8522,
      "▁Never": 8523,
      "ternoon": 8524,
      "▁Peters": 8525,
      "▁asking": 8526,
      "▁bacter": 8527,
      "▁Faculty": 8528,
      "▁Romania": 8529,
      "▁awesome": 8530,
      "▁closely": 8531,
      "▁drawing": 8532,
      "▁helpful": 8533,
      "▁massive": 8534,
      "▁package": 8535,
      "▁painted": 8536,
      "▁Pictures": 8537,
      "▁approval": 8538,
      "▁hundreds": 8539,
      "▁instance": 8540,
      "▁touchdown": 8541,
      "aha": 8542,
      "ige": 8543,
      "▁Da": 8544,
      "also": 8545,
      "arus": 8546,
      "ench": 8547,
      "▁Ran": 8548,
      "▁ign": 8549,
      "arity": 8550,
      "gener": 8551,
      "▁1953": 8552,
      "▁Dark": 8553,
      "▁2010.": 8554,
      "▁birds": 8555,
      "▁brown": 8556,
      "▁fixed": 8557,
      "▁stret": 8558,
      "▁taste": 8559,
      "▁wooden": 8560,
      "▁animated": 8561,
      "▁intelligence": 8562,
      "▁significantly": 8563,
      "cht": 8564,
      "cia": 8565,
      "pat": 8566,
      "▁DC": 8567,
      "soft": 8568,
      "▁Hou": 8569,
      "▁Core": 8570,
      "▁Juan": 8571,
      "▁subd": 8572,
      "utional": 8573,
      "▁Territ": 8574,
      "▁largely": 8575,
      "ographers": 8576,
      "▁Squadron": 8577,
      "▁consumer": 8578,
      "▁employee": 8579,
      "▁substant": 8580,
      "▁expressed": 8581,
      "▁designated": 8582,
      "▁maintained": 8583,
      "▁settlement": 8584,
      "▁implementation": 8585,
      "Bl": 8586,
      "sex": 8587,
      "▁Fu": 8588,
      "▁pm": 8589,
      "ović": 8590,
      "▁182": 8591,
      "▁Gun": 8592,
      "▁Jam": 8593,
      "▁Yug": 8594,
      "▁fee": 8595,
      "riers": 8596,
      "uther": 8597,
      "▁1951": 8598,
      "▁Bulg": 8599,
      "▁Carm": 8600,
      "▁soil": 8601,
      "▁sole": 8602,
      "▁trig": 8603,
      "listed": 8604,
      "▁Event": 8605,
      "▁Using": 8606,
      "▁hydro": 8607,
      "▁Report": 8608,
      "▁resign": 8609,
      "▁stands": 8610,
      "▁Defence": 8611,
      "▁cabinet": 8612,
      "▁complic": 8613,
      "▁operate": 8614,
      "▁substit": 8615,
      "▁expertise": 8616,
      "▁producers": 8617,
      "▁translated": 8618,
      "fol": 8619,
      "argo": 8620,
      "rage": 8621,
      "▁Hab": 8622,
      "▁Pap": 8623,
      "▁Tak": 8624,
      "▁1946": 8625,
      "▁Ever": 8626,
      "▁Manh": 8627,
      "▁Tony": 8628,
      "lights": 8629,
      "umbent": 8630,
      "▁cream": 8631,
      "▁behalf": 8632,
      "▁breath": 8633,
      "▁lyrics": 8634,
      "ospitals": 8635,
      "▁martial": 8636,
      "▁summary": 8637,
      "ournaments": 8638,
      "▁procedure": 8639,
      "▁electronic": 8640,
      "!!!": 8641,
      "aho": 8642,
      "▁75": 8643,
      "▁Pi": 8644,
      "ghan": 8645,
      "itsu": 8646,
      "oven": 8647,
      "▁hun": 8648,
      "arest": 8649,
      "▁Brun": 8650,
      "▁Gene": 8651,
      "▁Karn": 8652,
      "▁Tech": 8653,
      "▁busy": 8654,
      "▁surf": 8655,
      "▁Again": 8656,
      "▁Brand": 8657,
      "▁Jimmy": 8658,
      "▁goods": 8659,
      "▁rough": 8660,
      "▁tight": 8661,
      "▁passes": 8662,
      "▁Overall": 8663,
      "▁ongoing": 8664,
      "ibilities": 8665,
      "▁reaching": 8666,
      "▁watching": 8667,
      "▁Argentine": 8668,
      "▁districts": 8669,
      "▁organised": 8670,
      "▁streaming": 8671,
      "▁Portuguese": 8672,
      "▁photographer": 8673,
      "imi": 8674,
      "▁9.": 8675,
      "▁Ru": 8676,
      "ashi": 8677,
      "icop": 8678,
      "itat": 8679,
      "▁Dep": 8680,
      "▁Nap": 8681,
      "▁ris": 8682,
      "uster": 8683,
      "▁Eric": 8684,
      "▁Lith": 8685,
      "▁Pika": 8686,
      "▁shel": 8687,
      "lation": 8688,
      "▁2004,": 8689,
      "▁herit": 8690,
      "▁truck": 8691,
      "▁Trophy": 8692,
      "▁agents": 8693,
      "aughters": 8694,
      "▁Matthew": 8695,
      "▁portion": 8696,
      "▁consecut": 8697,
      "▁Hollywood": 8698,
      "▁outstanding": 8699,
      "LE": 8700,
      "NP": 8701,
      "SC": 8702,
      "jun": 8703,
      "grad": 8704,
      "▁Him": 8705,
      "▁Syn": 8706,
      "▁fer": 8707,
      "chell": 8708,
      "▁1955": 8709,
      "▁Horn": 8710,
      "▁Jess": 8711,
      "▁acid": 8712,
      "innati": 8713,
      "ifinals": 8714,
      "▁Though": 8715,
      "▁Masters": 8716,
      "▁Portugal": 8717,
      "▁familiar": 8718,
      "▁describes": 8719,
      "▁lieutenant": 8720,
      "48": 8721,
      "xy": 8722,
      "ité": 8723,
      "aron": 8724,
      "arsh": 8725,
      "▁1929": 8726,
      "▁Gord": 8727,
      "▁tank": 8728,
      "thlete": 8729,
      "▁2006.": 8730,
      "▁https": 8731,
      "▁vision": 8732,
      "▁diverse": 8733,
      "▁fishing": 8734,
      "▁happens": 8735,
      "▁hosting": 8736,
      "▁nations": 8737,
      "▁Sinclair": 8738,
      "▁disestab": 8739,
      "▁formerly": 8740,
      "▁properly": 8741,
      "▁thoughts": 8742,
      "▁valuable": 8743,
      "▁attempted": 8744,
      "▁wrestling": 8745,
      "3).": 8746,
      "Don": 8747,
      "vas": 8748,
      "▁1/": 8749,
      "▁55": 8750,
      "aria": 8751,
      "riet": 8752,
      "▁Veg": 8753,
      "▁nav": 8754,
      "eting": 8755,
      "isory": 8756,
      "▁100%": 8757,
      "▁Cass": 8758,
      "▁desk": 8759,
      "▁mand": 8760,
      "▁recru": 8761,
      "lington": 8762,
      "▁escape": 8763,
      "▁scenes": 8764,
      "▁Quarter": 8765,
      "▁returns": 8766,
      "▁segment": 8767,
      "▁channels": 8768,
      "▁heritage": 8769,
      "▁Charlotte": 8770,
      "▁Liverpool": 8771,
      "▁suspended": 8772,
      "▁distributed": 8773,
      "▁introduction": 8774,
      "68": 8775,
      "alem": 8776,
      "case": 8777,
      "elsh": 8778,
      "from": 8779,
      "▁fat": 8780,
      "atern": 8781,
      "eling": 8782,
      "istol": 8783,
      "▁Dean": 8784,
      "▁Dick": 8785,
      "▁maps": 8786,
      "▁plug": 8787,
      "▁Beaut": 8788,
      "▁Recip": 8789,
      "▁doors": 8790,
      "iability": 8791,
      "▁confirm": 8792,
      "▁purposes": 8793,
      "▁speaking": 8794,
      "▁Bulgarian": 8795,
      "▁investors": 8796,
      "▁integrated": 8797,
      "▁organisations": 8798,
      "IA": 8799,
      "eo": 8800,
      "mal": 8801,
      "▁Py": 8802,
      "mont": 8803,
      "quis": 8804,
      "▁Bry": 8805,
      "▁Buy": 8806,
      "▁Gil": 8807,
      "▁Wol": 8808,
      "▁kil": 8809,
      "▁mic": 8810,
      "iform": 8811,
      "▁2006,": 8812,
      "legiate": 8813,
      "▁Access": 8814,
      "▁Having": 8815,
      "▁Samuel": 8816,
      "▁bodies": 8817,
      "▁priest": 8818,
      "▁Natural": 8819,
      "▁assumed": 8820,
      "▁damaged": 8821,
      "▁exciting": 8822,
      "▁whatever": 8823,
      "▁Americans": 8824,
      "▁Manhattan": 8825,
      "▁expansion": 8826,
      "▁Cincinnati": 8827,
      "▁provincial": 8828,
      "DC": 8829,
      "know": 8830,
      "roke": 8831,
      "▁Bes": 8832,
      "uties": 8833,
      "charge": 8834,
      "▁2007.": 8835,
      "▁Alban": 8836,
      "▁displ": 8837,
      "▁elder": 8838,
      "igenous": 8839,
      "▁Barcel": 8840,
      "▁Custom": 8841,
      "▁Nelson": 8842,
      "▁stages": 8843,
      "▁plastic": 8844,
      "▁surgery": 8845,
      "▁Industry": 8846,
      "▁supposed": 8847,
      "▁Assistant": 8848,
      "▁Billboard": 8849,
      "▁favourite": 8850,
      "▁producing": 8851,
      "▁spiritual": 8852,
      "▁accessible": 8853,
      "▁affordable": 8854,
      "He": 8855,
      "4),": 8856,
      "lik": 8857,
      "rog": 8858,
      "▁AA": 8859,
      "away": 8860,
      "olit": 8861,
      "rang": 8862,
      "uros": 8863,
      "▁Tol": 8864,
      "▁mal": 8865,
      "▁ski": 8866,
      "icide": 8867,
      "▁1937": 8868,
      "▁Chan": 8869,
      "▁menu": 8870,
      "▁Croat": 8871,
      "▁guess": 8872,
      "▁Action": 8873,
      "▁accused": 8874,
      "▁facilit": 8875,
      "▁organic": 8876,
      "▁typical": 8877,
      "▁Standard": 8878,
      "▁arranged": 8879,
      "▁attacked": 8880,
      "▁repeated": 8881,
      "▁sessions": 8882,
      "▁municipal": 8883,
      "▁platforms": 8884,
      "▁accompanied": 8885,
      "▁improvement": 8886,
      "hard": 8887,
      "ifts": 8888,
      "orld": 8889,
      "▁Inn": 8890,
      "▁Sid": 8891,
      "▁jew": 8892,
      "▁1938": 8893,
      "▁Clin": 8894,
      "▁Fall": 8895,
      "▁auto": 8896,
      "ocolate": 8897,
      "▁enable": 8898,
      "▁honest": 8899,
      "▁prompt": 8900,
      "▁remind": 8901,
      "▁Patrick": 8902,
      "▁charity": 8903,
      "▁agencies": 8904,
      "▁restrict": 8905,
      "▁depending": 8906,
      "▁mountains": 8907,
      "OD": 8908,
      "▁37": 8909,
      "▁64": 8910,
      "▁vo": 8911,
      "anni": 8912,
      "anny": 8913,
      "enne": 8914,
      "osite": 8915,
      "▁soph": 8916,
      "▁tall": 8917,
      "▁Agency": 8918,
      "▁Howard": 8919,
      "▁belief": 8920,
      "▁desire": 8921,
      "▁factor": 8922,
      "▁violin": 8923,
      "▁congreg": 8924,
      "▁cooking": 8925,
      "▁lawyers": 8926,
      "▁apparent": 8927,
      "▁entitled": 8928,
      "▁activists": 8929,
      "▁afternoon": 8930,
      "▁competing": 8931,
      "▁Publications": 8932,
      "▁presentation": 8933,
      "41": 8934,
      "mo": 8935,
      "see": 8936,
      "izer": 8937,
      "rena": 8938,
      "ingly": 8939,
      "stery": 8940,
      "▁FIFA": 8941,
      "▁Keep": 8942,
      "▁Rain": 8943,
      "▁boys": 8944,
      "ounsel": 8945,
      "unning": 8946,
      "▁Heart": 8947,
      "▁Kelly": 8948,
      "▁Manit": 8949,
      "▁Annual": 8950,
      "▁severe": 8951,
      "▁unless": 8952,
      "▁finance": 8953,
      "▁physics": 8954,
      "▁seventh": 8955,
      "▁toponym": 8956,
      "attalions": 8957,
      "▁childhood": 8958,
      "As": 8959,
      "uli": 8960,
      "days": 8961,
      "▁Hop": 8962,
      "▁Peak": 8963,
      "▁folk": 8964,
      "▁lies": 8965,
      "apolis": 8966,
      "celand": 8967,
      "stream": 8968,
      "▁Hills": 8969,
      "▁Trail": 8970,
      "▁error": 8971,
      "▁invas": 8972,
      "▁loans": 8973,
      "issions": 8974,
      "▁Former": 8975,
      "▁Madrid": 8976,
      "▁podcast": 8977,
      "▁therapy": 8978,
      "forcement": 8979,
      "▁Barcelona": 8980,
      "▁concluded": 8981,
      "▁strategies": 8982,
      "▁competitors": 8983,
      "Ex": 8984,
      "Re": 8985,
      "hit": 8986,
      "oca": 8987,
      "aran": 8988,
      "atin": 8989,
      "gress": 8990,
      "icing": 8991,
      "maker": 8992,
      "▁0.1%": 8993,
      "▁Bear": 8994,
      "▁Bund": 8995,
      "▁Code": 8996,
      "▁Costa": 8997,
      "▁Paulo": 8998,
      "▁brick": 8999,
      "▁discl": 9000,
      "▁feels": 9001,
      "▁inhab": 9002,
      "▁plate": 9003,
      "▁skill": 9004,
      "▁Rights": 9005,
      "▁assets": 9006,
      "▁headed": 9007,
      "▁venues": 9008,
      "▁Finance": 9009,
      "▁cutting": 9010,
      "▁Colombia": 9011,
      "▁Critical": 9012,
      "▁consumers": 9013,
      "▁submitted": 9014,
      "▁discussion": 9015,
      "▁ingredients": 9016,
      "▁universities": 9017,
      "▁circumstances": 9018,
      "ín": 9019,
      "ION": 9020,
      "▁Lux": 9021,
      "▁MEP": 9022,
      "▁fly": 9023,
      "▁inn": 9024,
      "emble": 9025,
      "▁pian": 9026,
      "atched": 9027,
      "igious": 9028,
      "▁pione": 9029,
      "▁listen": 9030,
      "▁theore": 9031,
      "▁Denmark": 9032,
      "▁Springs": 9033,
      "▁Theater": 9034,
      "▁stopped": 9035,
      "▁streets": 9036,
      "▁totally": 9037,
      "▁coaching": 9038,
      "▁concrete": 9039,
      "▁conflict": 9040,
      "▁swimming": 9041,
      "▁vacation": 9042,
      "▁Socialist": 9043,
      "▁initiative": 9044,
      "▁references": 9045,
      "eli": 9046,
      "rak": 9047,
      "▁km": 9048,
      "ilty": 9049,
      "ulum": 9050,
      "▁bio": 9051,
      "▁hem": 9052,
      "▁Fact": 9053,
      "▁dogs": 9054,
      "▁nurs": 9055,
      "▁synd": 9056,
      "▁Kings": 9057,
      "▁Route": 9058,
      "▁Watch": 9059,
      "▁venue": 9060,
      "▁Alfred": 9061,
      "▁trains": 9062,
      "▁authors": 9063,
      "▁compens": 9064,
      "▁enhance": 9065,
      "▁Brooklyn": 9066,
      "▁Manitoba": 9067,
      "▁painters": 9068,
      "▁Melbourne": 9069,
      "▁certified": 9070,
      "▁personally": 9071,
      "IG": 9072,
      "iece": 9073,
      "▁179": 9074,
      "antha": 9075,
      "trans": 9076,
      "▁Page": 9077,
      "▁Roll": 9078,
      "▁wing": 9079,
      "▁knock": 9080,
      "▁wound": 9081,
      "▁symbol": 9082,
      "▁wouldn": 9083,
      "▁Vietnam": 9084,
      "▁appreci": 9085,
      "▁opposed": 9086,
      "▁updates": 9087,
      "▁sections": 9088,
      "▁fantastic": 9089,
      "▁scientist": 9090,
      "▁Convention": 9091,
      "▁Recipients": 9092,
      "▁components": 9093,
      "▁reputation": 9094,
      "▁consecutive": 9095,
      "iu": 9096,
      "rin": 9097,
      "tis": 9098,
      "▁CF": 9099,
      "died": 9100,
      "reams": 9101,
      "▁Casc": 9102,
      "▁Tamil": 9103,
      "▁Those": 9104,
      "▁molec": 9105,
      "▁Munich": 9106,
      "▁behavi": 9107,
      "▁butter": 9108,
      "▁cancel": 9109,
      "▁recipe": 9110,
      "▁Express": 9111,
      "▁Trinity": 9112,
      "▁Brussels": 9113,
      "▁colonial": 9114,
      "▁tournaments": 9115,
      "▁recreational": 9116,
      "emen": 9117,
      "flix": 9118,
      "quir": 9119,
      "▁Ess": 9120,
      "▁Lyn": 9121,
      "▁que": 9122,
      "ading": 9123,
      "orian": 9124,
      "▁Alan": 9125,
      "▁Mack": 9126,
      "▁Nort": 9127,
      "▁Webs": 9128,
      "▁exec": 9129,
      "▁vert": 9130,
      "▁Sudan": 9131,
      "▁banks": 9132,
      "▁royal": 9133,
      "▁teeth": 9134,
      "▁monthly": 9135,
      "▁Financial": 9136,
      "▁publishing": 9137,
      "▁exhibitions": 9138,
      "▁legislation": 9139,
      "05": 9140,
      "XXX": 9141,
      "▁3-": 9142,
      "▁XX": 9143,
      "brid": 9144,
      "uris": 9145,
      "▁Sug": 9146,
      "▁1921": 9147,
      "▁fees": 9148,
      "▁jack": 9149,
      "azines": 9150,
      "intend": 9151,
      "▁Alger": 9152,
      "▁Flora": 9153,
      "▁Idaho": 9154,
      "▁resid": 9155,
      "▁Events": 9156,
      "▁Palest": 9157,
      "▁Walker": 9158,
      "▁Yugosl": 9159,
      "▁faster": 9160,
      "▁output": 9161,
      "▁random": 9162,
      "▁terror": 9163,
      "▁thesis": 9164,
      "▁Iceland": 9165,
      "▁Manager": 9166,
      "▁freedom": 9167,
      "▁Portland": 9168,
      "▁confident": 9169,
      "▁contested": 9170,
      "▁classification": 9171,
      "''": 9172,
      "DS": 9173,
      "–6": 9174,
      "gow": 9175,
      "▁Ug": 9176,
      "Text": 9177,
      "iors": 9178,
      "▁(),": 9179,
      "▁400": 9180,
      "▁Fel": 9181,
      "▁rib": 9182,
      "▁tut": 9183,
      "ambig": 9184,
      "ultan": 9185,
      "▁Holl": 9186,
      "▁Swim": 9187,
      "former": 9188,
      "▁Welsh": 9189,
      "▁manga": 9190,
      "▁roads": 9191,
      "▁Palace": 9192,
      "▁observ": 9193,
      "▁Lithuan": 9194,
      "ographics": 9195,
      "▁Computer": 9196,
      "▁Students": 9197,
      "▁machines": 9198,
      "▁encourage": 9199,
      "▁exclusive": 9200,
      "▁southwest": 9201,
      "▁differences": 9202,
      "▁contribution": 9203,
      "UN": 9204,
      "but": 9205,
      "die": 9206,
[...]
